<unk>	0
<s>	0
</s>	0
▁،	-3.59461
▁و	-3.60619
▁.	-3.77882
▁در	-3.98439
▁به	-4.14488
▁از	-4.22606
▁:	-4.32722
▁می	-4.53395
▁های	-4.62592
▁با	-4.64907
▁را	-4.69182
▁برای	-4.73299
▁است	-4.7399
▁)	-4.83378
▁(	-4.88133
▁که	-4.89689
▁/	-5.04763
▁	-5.19055
▁این	-5.20391
▁,	-5.22353
ی	-5.4033
▁یک	-5.43133
▁-	-5.45939
▁ها	-5.51806
▁شده	-5.5407
▁شما	-5.57478
▁ما	-5.65738
▁خود	-5.80996
▁یا	-5.90374
▁آن	-5.95181
▁استفاده	-5.99573
▁"	-5.99941
▁1	-6.01012
▁ای	-6.03927
▁شود	-6.06265
-	-6.08759
▁کنید	-6.11525
.	-6.20293
▁2	-6.20563
▁بر	-6.21806
▁_	-6.26668
▁تا	-6.2694
▁3	-6.30512
▁...	-6.31617
▁کند	-6.36197
▁هر	-6.41933
▁شرکت	-6.42035
▁کار	-6.45888
▁مورد	-6.50179
▁بالا	-6.50746
▁4	-6.51094
▁تولید	-6.59082
▁سال	-6.60509
▁5	-6.62192
▁من	-6.62534
▁کننده	-6.6308
▁سیستم	-6.63355
▁دستگاه	-6.66518
▁آب	-6.66862
▁مواد	-6.70764
▁باشد	-6.72768
▁محصولات	-6.72823
▁کردن	-6.74601
▁ماشین	-6.75479
▁عنوان	-6.76622
▁صفحه	-6.77211
▁10	-6.78083
▁بازی	-6.79967
▁*	-6.81127
▁توسط	-6.83296
▁؟	-6.83622
▁دو	-6.84192
▁آنها	-6.84263
▁طراحی	-6.8493
▁برنامه	-6.8531
▁کیفیت	-6.86011
▁نام	-6.86221
▁دارد	-6.86762
▁روز	-6.90843
s	-6.91175
▁>	-6.91476
▁راه	-6.91488
▁بسته	-6.91724
▁ارائه	-6.91878
▁تواند	-6.92219
▁بندی	-6.93118
▁خدمات	-6.93467
▁شماره	-6.93584
▁قابل	-6.93858
ه	-6.94209
▁!	-6.95263
▁شد	-6.96649
▁زمان	-6.96878
▁او	-6.97816
▁بین	-6.98281
▁متر	-6.98377
▁سایت	-6.98386
▁اطلاعات	-6.99189
▁ضد	-6.99307
▁دهد	-6.99616
▁ایران	-6.99905
▁اگر	-7.01411
▁6	-7.01957
▁اندازه	-7.01987
▁رنگ	-7.02103
▁داده	-7.02271
های	-7.03202
▁بزرگ	-7.04332
▁؛	-7.04897
▁حال	-7.05021
▁کنترل	-7.06095
▁روی	-7.06569
▁طور	-7.06641
▁پس	-7.06651
▁+	-7.06913
▁بدون	-7.10535
▁فروش	-7.114
▁بیشتر	-7.11908
▁نمایش	-7.12299
▁بود	-7.13944
▁دیگر	-7.15108
▁انجام	-7.15264
▁باید	-7.15611
▁نوع	-7.15899
mm	-7.16056
▁نیاز	-7.1705
▁کامل	-7.17106
▁جدید	-7.17821
▁قرار	-7.18256
▁همه	-7.18362
▁دانلود	-7.18813
▁دریافت	-7.19164
▁خانه	-7.19764
▁توانید	-7.19908
▁8	-7.21688
▁صورت	-7.21866
2	-7.2187
▁وجود	-7.22295
▁محصول	-7.22606
ي	-7.24752
▁بسیار	-7.25339
▁تمام	-7.25484
▁هستند	-7.25716
▁اصلی	-7.25863
▁کنند	-7.26385
▁کرد	-7.26511
▁سازی	-7.26906
▁7	-7.26934
▁»	-7.26947
▁نرم	-7.28298
▁اما	-7.29677
▁پیش	-7.29968
▁٪	-7.30169
ها	-7.30202
▁فولاد	-7.30794
▁]	-7.32188
▁[	-7.32329
▁انتخاب	-7.32786
▁همچنین	-7.33682
▁تماس	-7.33751
▁قیمت	-7.34406
▁مدل	-7.34435
▁12	-7.35583
▁دست	-7.35609
▁خواهد	-7.35902
▁تجهیزات	-7.3659
▁لوله	-7.38526
▁مختلف	-7.38771
▁کمک	-7.401
▁نمی	-7.40484
▁توسعه	-7.40925
▁طول	-7.41188
▁حمل	-7.42114
▁نصب	-7.42594
▁میلی	-7.42966
▁A	-7.45206
▁نظر	-7.45362
V	-7.4561
▁20	-7.45802
▁رایگان	-7.46391
▁گروه	-7.47424
▁بیش	-7.47527
▁بهترین	-7.47767
▁هوا	-7.48272
▁ی	-7.48475
▁بار	-7.49154
▁بخش	-7.49241
▁افزار	-7.4991
▁زیر	-7.49937
▁تلفن	-7.50139
▁قدرت	-7.5015
▁سطح	-7.50363
▁چند	-7.51171
▁هم	-7.51272
▁ایجاد	-7.51419
▁ماه	-7.51441
▁توجه	-7.51674
▁مشاهده	-7.5213
▁Read	-7.52599
▁درجه	-7.52988
ان	-7.53106
com	-7.53148
▁–	-7.53258
▁نیز	-7.53472
▁باز	-7.53883
▁More	-7.54018
م	-7.54129
▁تر	-7.54159
▁ساخت	-7.54203
▁سیم	-7.54287
▁مانند	-7.54539
▁طریق	-7.547
▁سرعت	-7.5477
▁دارای	-7.54994
▁کشور	-7.55219
▁مناسب	-7.55512
▁100	-7.55693
▁بررسی	-7.55764
▁کرده	-7.56218
▁موتور	-7.56955
▁خوب	-7.5759
▁وب	-7.5777
▁ممکن	-7.58573
▁تصویر	-7.58623
▁مدیریت	-7.58655
▁بی	-7.58803
▁برابر	-7.59428
▁چین	-7.5944
C	-7.59644
▁برش	-7.60144
▁سفارشی	-7.60363
▁نسخه	-7.60365
▁زندگی	-7.60736
D	-7.60857
▁=	-7.61612
▁کنیم	-7.62048
▁ساعت	-7.62658
▁30	-7.62768
▁سه	-7.63017
▁پوشش	-7.63188
▁تنظیم	-7.6356
▁افزایش	-7.6363
▁اند	-7.64516
▁C	-7.64664
▁یکی	-7.64733
1	-7.6475
▁قبل	-7.64959
A	-7.65117
▁پروژه	-7.65502
▁روش	-7.65592
3	-7.65791
▁خط	-7.66227
▁جعبه	-7.66239
▁9	-7.66302
▁استاندارد	-7.66532
▁سفید	-7.66714
▁15	-7.67076
▁T	-7.677
ا	-7.68134
▁ساخته	-7.68302
▁11	-7.68741
4	-7.68846
▁خرید	-7.69263
▁تجاری	-7.69441
▁آموزش	-7.69505
▁توان	-7.69555
▁تاریخ	-7.69596
▁زنگ	-7.69901
▁نور	-7.70142
▁قطعات	-7.70177
▁غیر	-7.70366
▁شامل	-7.70895
▁دانشگاه	-7.70896
▁فیلم	-7.71062
▁«	-7.71246
▁پشتیبانی	-7.71327
▁پرداخت	-7.71793
▁داشته	-7.71826
x	-7.72749
▁نیست	-7.72772
▁غیره	-7.73504
▁چاپ	-7.73731
▁چه	-7.73735
▁ترین	-7.74681
▁همراه	-7.74721
▁درمان	-7.74983
▁صنعتی	-7.75076
▁فشار	-7.75217
▁50	-7.7533
▁جهان	-7.75348
▁المللی	-7.75542
▁شدن	-7.75896
W	-7.76239
▁کاهش	-7.76293
▁بازدید	-7.76423
▁سریع	-7.77028
▁تنها	-7.77053
▁تامین	-7.77148
▁حرفه	-7.77773
▁عملکرد	-7.77859
▁آنلاین	-7.78093
▁بسیاری	-7.78132
▁مشتریان	-7.78342
▁وزن	-7.78371
▁18	-7.78632
▁شوند	-7.78707
▁0	-7.78735
▁گیری	-7.78814
▁نشان	-7.79249
▁هزینه	-7.79498
▁دوره	-7.79787
▁انواع	-7.80132
S	-7.8046
▁نقل	-7.80519
▁عکس	-7.80599
▁24	-7.81475
▁کم	-7.81548
▁شبکه	-7.81845
▁ثبت	-7.81854
▁دهید	-7.82015
▁ارسال	-7.82188
▁شهر	-7.8241
▁مدت	-7.82642
▁داخلی	-7.82669
▁شرایط	-7.82862
▁منطقه	-7.8355
▁تغییر	-7.83806
▁گرم	-7.83882
▁اتاق	-7.84078
▁مجموعه	-7.85354
▁نمونه	-7.85468
▁کابل	-7.85476
▁مرکز	-7.85809
▁#	-7.85944
▁زبان	-7.86013
▁آیا	-7.87162
▁تعداد	-7.87762
▁فقط	-7.87872
▁تهران	-7.88382
▁کارخانه	-7.88669
▁حقوق	-7.8907
▁P	-7.89443
▁16	-7.89457
▁برق	-7.90139
m	-7.90168
▁LED	-7.90219
▁ابزار	-7.90291
▁چگونه	-7.90981
▁S	-7.91229
▁واحد	-7.91307
ن	-7.91399
▁جهت	-7.91442
▁آسان	-7.91562
▁هیچ	-7.91596
▁کسب	-7.91739
▁مصرف	-7.91987
▁پزشکی	-7.91987
▁آلومینیوم	-7.92026
▁مشخصات	-7.92489
▁کوچک	-7.9253
ش	-7.92564
▁کارت	-7.92677
▁پر	-7.92685
▁زمینه	-7.92922
▁محیط	-7.93373
▁صنعت	-7.93429
▁B	-7.93729
▁بازار	-7.93945
▁برخی	-7.94194
▁بعد	-7.94353
▁فایل	-7.94422
▁ویژگی	-7.95042
ت	-7.95816
▁درباره	-7.96404
▁شکل	-7.96633
,	-7.96784
▁کیسه	-7.97566
▁پایین	-7.97636
▁درخواست	-7.97721
▁تجربه	-7.98389
▁فارسی	-7.98937
▁انرژی	-7.98939
▁حاضر	-7.99124
▁@	-7.99288
▁کد	-7.9935
▁سیاه	-7.9975
G	-7.99802
▁25	-7.99866
▁لباس	-7.99942
▁دادن	-8.00557
▁سنگ	-8.01261
▁هتل	-8.01276
▁L	-8.01673
د	-8.01711
▁گذاری	-8.01849
▁انتقال	-8.0192
▁خودرو	-8.01966
▁•	-8.02081
▁سازمان	-8.02283
▁میلیمتر	-8.02332
▁مشتری	-8.02532
▁سبک	-8.02622
▁H	-8.02657
▁&	-8.02983
▁شروع	-8.03244
▁باتری	-8.03463
▁حداکثر	-8.03463
▁آلات	-8.03589
▁برچسب	-8.03936
▁اتوماتیک	-8.04062
▁تست	-8.0467
▁ایمیل	-8.04801
▁فعالیت	-8.0493
▁سر	-8.05203
M	-8.05254
▁اساس	-8.05398
▁بدن	-8.05527
▁موجود	-8.05556
▁غذایی	-8.05673
▁ویژه	-8.05798
▁کل	-8.05868
ى	-8.05985
L	-8.05996
▁چراغ	-8.06379
▁دور	-8.06386
▁نوار	-8.07082
▁فلزی	-8.0711
▁مقاومت	-8.07311
▁فضای	-8.07349
▁هدف	-8.0757
▁قالب	-8.07786
▁;	-8.07799
ۀ	-8.07828
▁پودر	-8.08265
ین	-8.08702
▁تحت	-8.0894
▁اتصال	-8.09446
▁باشید	-8.09693
▁متن	-8.09752
▁14	-8.09779
▁پلاستیکی	-8.09826
▁عمومی	-8.10312
▁نه	-8.10355
▁پاسخ	-8.10492
▁13	-8.10658
▁دهنده	-8.10734
▁جهانی	-8.10939
▁سرمایه	-8.10939
▁60	-8.11702
▁کنندگان	-8.11773
▁حل	-8.11868
▁عالی	-8.11927
▁ورق	-8.12076
▁کاری	-8.12177
▁مردم	-8.12955
▁خودکار	-8.12963
▁طرح	-8.12975
▁D	-8.12977
▁پایان	-8.1302
▁سی	-8.13117
▁حساب	-8.13332
T	-8.13379
▁ظرفیت	-8.13962
▁%	-8.14496
▁روغن	-8.14751
5	-8.1478
▁داد	-8.14945
▁زمانی	-8.15499
▁دسته	-8.15818
▁M	-8.15866
▁دارند	-8.16178
▁درب	-8.16562
B	-8.16857
▁وارد	-8.16878
▁فیبر	-8.17078
▁طبیعی	-8.17326
▁17	-8.17455
▁40	-8.17643
▁لوازم	-8.17705
▁نمایشگاه	-8.17922
▁2019	-8.18481
▁~	-8.18935
▁زمین	-8.18943
▁دی	-8.19252
▁سایر	-8.19374
▁شخصی	-8.19536
▁بهبود	-8.19592
▁فیلتر	-8.19732
▁کاغذ	-8.19826
ات	-8.19836
▁ذخیره	-8.20214
▁پیدا	-8.20391
▁فنی	-8.20402
▁E	-8.20654
▁پلی	-8.2072
▁پارچه	-8.20767
­	-8.20996
▁آخرین	-8.21174
▁2018	-8.21301
▁دقیق	-8.21345
▁امروز	-8.21662
P	-8.21751
▁اولین	-8.21917
▁پانل	-8.21957
▁بنابراین	-8.22336
▁تبدیل	-8.22614
▁پایه	-8.22791
▁'	-8.22853
▁پی	-8.2288
▁دسترسی	-8.2326
▁کتاب	-8.23378
▁$	-8.23494
▁فعال	-8.23689
▁محل	-8.24251
▁صنایع	-8.2426
▁ادامه	-8.24483
▁اول	-8.24553
▁جمله	-8.24703
▁اجازه	-8.24817
▁خاص	-8.24853
▁پوست	-8.25384
▁آوری	-8.25497
▁دانش	-8.25606
▁عمل	-8.26095
ک	-8.26468
▁سفارش	-8.26519
▁افراد	-8.26727
و	-8.26849
▁دسترس	-8.26875
▁باعث	-8.27173
▁آدرس	-8.27382
▁حتی	-8.27604
▁جانبی	-8.27903
▁فولادی	-8.28028
▁گرفته	-8.28097
▁شیشه	-8.28253
▁<	-8.28275
▁تحویل	-8.28304
▁خواهید	-8.28305
▁لطفا	-8.28451
▁پمپ	-8.28481
▁ساختمان	-8.28505
▁ساده	-8.28559
▁جریان	-8.28562
▁ارتباط	-8.28565
▁اطمینان	-8.28781
▁زنان	-8.2915
▁اینجا	-8.2917
▁گسترده	-8.29213
▁کیلوگرم	-8.29545
▁اجتماعی	-8.2961
▁مهم	-8.29644
▁گاز	-8.29742
▁V	-8.30043
▁پیچ	-8.30066
▁علوم	-8.30334
▁فوق	-8.3063
▁علمی	-8.30636
ند	-8.30773
▁چشم	-8.30808
▁R	-8.30824
▁زیست	-8.30865
▁°	-8.30906
6	-8.31452
▁ساز	-8.31492
▁فرم	-8.31562
▁طولانی	-8.31641
▁سخت	-8.31673
▁سفر	-8.31673
▁اثر	-8.32103
▁اضافه	-8.32282
▁فهرست	-8.32302
▁الکتریکی	-8.32435
▁تیم	-8.32886
▁رشد	-8.33005
▁19	-8.33013
▁ایمنی	-8.33122
▁کلید	-8.33219
▁سری	-8.33272
▁مستقیم	-8.33691
▁خارج	-8.33698
▁متحده	-8.34116
ـ	-8.34277
▁F	-8.3444
▁فرد	-8.34539
▁خورشیدی	-8.3488
▁منبع	-8.35038
▁خیابان	-8.35504
▁کودکان	-8.35507
▁دنبال	-8.35523
d	-8.35639
▁دارید	-8.35655
ر	-8.35782
▁مطالعه	-8.36143
▁گزارش	-8.36256
▁لیزر	-8.36368
▁کلیک	-8.36486
▁دیجیتال	-8.36686
▁ولتاژ	-8.36738
▁دلیل	-8.37251
▁هایی	-8.37391
▁X	-8.3743
▁مو	-8.37463
▁حفاظت	-8.37465
K	-8.37583
▁هفته	-8.38046
a	-8.38222
▁جمع	-8.38389
▁W	-8.38409
▁ضخامت	-8.38651
▁آمریکا	-8.39221
ing	-8.39489
▁خارجی	-8.39501
▁22	-8.40389
▁بگیرید	-8.40471
▁حفظ	-8.40487
▁امکان	-8.40648
▁بطری	-8.4084
▁فروشگاه	-8.40944
▁قرمز	-8.4107
▁حرارت	-8.41144
▁دوست	-8.41273
▁پست	-8.41298
▁اخبار	-8.4137
▁موارد	-8.41402
▁مهر	-8.41727
▁ملی	-8.41868
▁سپس	-8.41988
▁آزاد	-8.41989
▁رسانی	-8.42005
ِ	-8.42372
▁بهره	-8.42442
▁21	-8.42528
▁فراهم	-8.42582
X	-8.42599
▁مربوط	-8.42602
▁اسلامی	-8.42629
▁هنگامی	-8.42723
▁نامه	-8.43182
▁اجرا	-8.43621
▁اندازی	-8.4372
▁زیبا	-8.43861
▁حالت	-8.43916
▁تغذیه	-8.4404
▁آماده	-8.44047
▁جزئیات	-8.44304
▁مقدار	-8.44505
▁دلار	-8.44553
▁صفحات	-8.44847
▁هوشمند	-8.45057
▁کاربران	-8.45169
▁تشکیل	-8.45264
▁گل	-8.45325
▁حرکت	-8.45329
▁حداقل	-8.45668
▁علاوه	-8.45752
▁چکیده	-8.45787
▁ال	-8.45869
▁سرویس	-8.45898
▁چرخ	-8.46075
▁2017	-8.46088
▁کنم	-8.46171
▁PDF	-8.46208
▁بوده	-8.46367
▁دوربین	-8.46427
▁گزینه	-8.46483
▁اروپا	-8.46637
▁آموزشی	-8.46679
▁باشند	-8.46746
e	-8.46892
▁ماده	-8.4692
▁نقشه	-8.46956
▁واقع	-8.47274
▁تک	-8.47308
▁خروجی	-8.47336
▁قوی	-8.47385
▁ایالات	-8.474
▁توانند	-8.47457
▁دقیقه	-8.47672
▁دار	-8.47716
▁رو	-8.47851
▁انجمن	-8.47998
▁واقعی	-8.48041
▁مقاله	-8.48065
▁حذف	-8.48227
▁زیادی	-8.48266
▁G	-8.48329
▁?	-8.48367
▁طبقه	-8.48367
▁همان	-8.48581
▁دفتر	-8.48708
▁آبی	-8.48817
▁پخش	-8.48828
▁منظور	-8.4891
▁مهندسی	-8.49021
▁نتیجه	-8.49046
▁کانال	-8.49063
▁دقت	-8.49241
er	-8.49456
F	-8.49549
▁تمیز	-8.4979
▁سبز	-8.49897
▁بینی	-8.50055
▁پلاستیک	-8.5014
▁مرحله	-8.50364
▁00	-8.50415
▁×	-8.50529
H	-8.50705
▁چیزی	-8.5079
▁زن	-8.5092
▁یافته	-8.51188
▁مالی	-8.51255
▁دستی	-8.51397
▁سلامت	-8.51531
▁نگهداری	-8.51547
س	-8.51601
▁هیدرولیک	-8.5177
▁داخل	-8.51829
▁صندلی	-8.5183
▁همکاری	-8.51905
▁فناوری	-8.51929
▁کلی	-8.5203
▁ساختار	-8.52061
▁کشتی	-8.52244
▁گونه	-8.52262
▁مقاوم	-8.523
▁پول	-8.52423
▁ص	-8.52611
▁ب	-8.52883
▁انتشار	-8.53019
▁انگلیسی	-8.53277
▁ورودی	-8.53543
▁بهتر	-8.53844
▁رول	-8.53855
▁فن	-8.53934
▁پیشرفته	-8.5415
▁عامل	-8.54202
g	-8.54364
▁کوتاه	-8.54437
▁چوب	-8.54708
▁مکمل	-8.54721
▁”	-8.54966
▁دهند	-8.55172
▁قطر	-8.55235
▁هنگام	-8.55606
▁دختر	-8.55643
8	-8.55828
▁گفت	-8.55885
▁کلیدی	-8.56021
▁N	-8.56184
▁ورود	-8.56314
▁پردازش	-8.56769
▁عرض	-8.56904
▁اینچ	-8.57058
▁همیشه	-8.57117
▁2016	-8.57132
▁نقطه	-8.57347
▁دمای	-8.57366
▁23	-8.5757
▁تحلیل	-8.57659
▁انعطاف	-8.57755
▁قابلیت	-8.57861
▁الکترونیکی	-8.58065
▁آزمایش	-8.58141
▁خانواده	-8.58267
▁نسبت	-8.58287
▁ارزش	-8.58328
▁نفر	-8.58724
▁استان	-8.58767
▁مي	-8.58961
▁دهیم	-8.59029
▁شرح	-8.59266
▁خشک	-8.59271
▁لازم	-8.59608
▁خصوصی	-8.59623
▁لیست	-8.59756
▁معرفی	-8.59815
▁تجارت	-8.60093
▁تمامی	-8.60142
▁روشن	-8.60366
▁سراسر	-8.60526
▁تصاویر	-8.6055
▁200	-8.60712
▁العاده	-8.60787
▁عمر	-8.60808
▁چرا	-8.60841
▁دکتر	-8.60905
▁پذیر	-8.60968
▁تلاش	-8.61002
▁اینکه	-8.61032
▁لینک	-8.61214
▁تکنولوژی	-8.61294
▁شیر	-8.61331
▁صرفه	-8.6138
▁x	-8.61387
▁ثابت	-8.61401
▁اين	-8.61424
▁K	-8.6151
▁اولیه	-8.61526
▁عملیات	-8.61696
▁شیمیایی	-8.61771
▁کامپیوتر	-8.62085
7	-8.62117
▁©	-8.62176
▁محدود	-8.62193
▁آپارتمان	-8.62208
▁گیرد	-8.62501
▁مکان	-8.62529
▁دوم	-8.62742
▁جلوگیری	-8.62761
▁آزمون	-8.62798
▁حمایت	-8.63125
▁دولت	-8.63164
▁میزان	-8.63355
▁ایده	-8.6338
▁نفت	-8.6339
▁لایه	-8.6345
▁دیوار	-8.63451
▁وضعیت	-8.63538
▁انسان	-8.63697
▁نوری	-8.6378
▁سرد	-8.63801
▁محدوده	-8.64029
▁خنک	-8.64052
▁500	-8.64349
▁بیماری	-8.64526
▁توانیم	-8.64546
▁منابع	-8.64757
▁قسمت	-8.64855
▁رسانه	-8.64863
▁“	-8.64865
▁چهار	-8.65075
R	-8.65258
▁جلد	-8.65669
▁جستجو	-8.65718
▁تن	-8.66696
▁ماژول	-8.66701
▁نتایج	-8.66962
▁ویندوز	-8.67173
▁اعتماد	-8.67202
▁جوش	-8.6763
▁کاربر	-8.67808
▁حرارتی	-8.67918
▁80	-8.67999
▁تشخیص	-8.68036
▁عبور	-8.68213
▁حجم	-8.68219
▁حد	-8.68438
▁میان	-8.68634
▁موضوع	-8.68861
▁توزیع	-8.68907
▁1000	-8.68943
▁بلند	-8.69015
▁برگشت	-8.69044
▁مدیر	-8.69161
▁تو	-8.69213
▁آغاز	-8.6961
▁28	-8.69624
▁قادر	-8.69792
▁ترکیب	-8.70081
▁راحتی	-8.70127
▁حدود	-8.70157
▁پیام	-8.70253
▁خوبی	-8.70275
▁کامیون	-8.70413
▁مجله	-8.70436
▁آهن	-8.70449
▁تازه	-8.70628
▁گواهینامه	-8.70771
▁کلیه	-8.71048
ز	-8.71196
10	-8.71227
▁قطعه	-8.71478
▁داشتن	-8.71826
▁ام	-8.71863
▁مقایسه	-8.71893
▁ارتفاع	-8.72088
▁ISO	-8.72098
▁تضمین	-8.72228
ir	-8.72275
▁26	-8.7228
▁آنچه	-8.72298
▁مثال	-8.72505
▁جنسی	-8.72873
▁2012	-8.72962
▁کمتر	-8.7325
▁مشاوره	-8.73385
▁ورزشی	-8.73536
▁راهنمای	-8.73541
▁ندارد	-8.73583
▁قفل	-8.73609
▁آسیب	-8.73644
▁ابعاد	-8.73654
▁حق	-8.73725
▁موقعیت	-8.73796
▁32	-8.73853
▁جامعه	-8.7427
▁الکترونیک	-8.74453
▁تومان	-8.74457
▁سرور	-8.74477
▁وات	-8.74545
ل	-8.7477
▁چیز	-8.7486
▁کارتن	-8.74923
▁شوید	-8.75108
▁شارژ	-8.75114
▁تعیین	-8.75392
▁Q	-8.75394
▁شب	-8.7578
w	-8.75967
▁بعدی	-8.76015
▁وزارت	-8.76151
▁اینترنت	-8.76398
▁آلمان	-8.76535
▁گرفتن	-8.76608
▁تزریق	-8.76635
▁کاربرد	-8.76637
▁امنیت	-8.7698
▁90	-8.77034
b	-8.77094
▁داشت	-8.77274
▁حلقه	-8.7748
▁پذیرش	-8.77518
▁پا	-8.77825
▁چیست	-8.77845
▁روشنایی	-8.77979
▁اس	-8.78079
▁آینده	-8.78254
▁مراقبت	-8.78283
▁نقش	-8.78304
▁قانون	-8.78315
▁خوش	-8.78326
▁27	-8.78337
▁گالوانیزه	-8.78599
▁نمایید	-8.78721
▁مرتبط	-8.78927
▁توصیه	-8.79062
▁حالی	-8.79391
▁رطوبت	-8.79417
▁شناسی	-8.79443
▁لذت	-8.79474
▁طلا	-8.79742
▁واژه	-8.79761
▁پارک	-8.79809
▁بودن	-8.79813
▁300	-8.79957
▁موسیقی	-8.79974
▁مدرسه	-8.80437
▁گری	-8.80488
▁کن	-8.80636
▁كه	-8.80638
▁داریم	-8.80683
▁ریزی	-8.8071
▁آتش	-8.80868
▁مایع	-8.80916
▁آلیاژ	-8.80933
▁۱	-8.80989
▁خانگی	-8.81045
▁خدا	-8.81242
▁مقالات	-8.81297
▁احساس	-8.81308
▁مرکزی	-8.81354
▁حضور	-8.81436
▁45	-8.81444
▁نزدیک	-8.81447
▁وی	-8.8151
▁کسی	-8.81574
▁35	-8.81628
▁مدرن	-8.81838
▁سنگین	-8.81935
▁رسمی	-8.81941
▁مربع	-8.82053
▁محلی	-8.82273
▁تلویزیون	-8.82344
t	-8.82461
▁ترکیه	-8.82502
▁سوراخ	-8.82689
▁تبلیغات	-8.82759
▁رابطه	-8.82784
▁همین	-8.82879
▁اطلاع	-8.83095
▁خواب	-8.83134
▁IP	-8.83177
y	-8.83237
یم	-8.8324
▁هستید	-8.83321
▁سلول	-8.83499
▁نگاه	-8.83528
▁محافظت	-8.83829
▁کاربردی	-8.83876
N	-8.83956
▁پاک	-8.84029
▁نرخ	-8.8407
▁تعمیر	-8.84214
▁اجرای	-8.84228
▁kb	-8.84233
▁اقتصادی	-8.84244
▁سقف	-8.84525
▁شهرستان	-8.84525
▁موبایل	-8.84576
▁start	-8.8459
▁عایق	-8.84612
▁dur	-8.84854
▁هسته	-8.84879
▁رسد	-8.84995
▁سمت	-8.85101
▁تایید	-8.85193
▁جراحی	-8.8521
▁هنر	-8.8522
▁تهیه	-8.85356
ed	-8.85511
▁ترجمه	-8.8552
▁کودک	-8.85754
▁روند	-8.8607
▁موثر	-8.86307
▁متوسط	-8.8632
c	-8.86404
▁امکانات	-8.86404
▁قاب	-8.86617
▁عرضه	-8.86681
▁AC	-8.86918
▁گذشته	-8.86962
▁تقویت	-8.87062
▁صدا	-8.87133
▁تخصصی	-8.87518
▁2015	-8.87548
▁درصد	-8.87665
▁فاصله	-8.8794
r	-8.87953
▁املاک	-8.87966
▁هنوز	-8.87981
▁هاي	-8.88164
▁مخزن	-8.88207
E	-8.88291
▁علاقه	-8.88385
▁۲	-8.88446
▁خون	-8.88447
▁مسئولیت	-8.88464
▁ایستگاه	-8.88516
▁APK	-8.8874
▁تحقیق	-8.88854
▁منحصر	-8.88979
▁اشتراک	-8.88994
▁گرد	-8.89072
▁مس	-8.891
▁زیبایی	-8.89242
▁تحقیقات	-8.89403
ید	-8.8955
▁حفاری	-8.89603
▁نگه	-8.89617
▁چنین	-8.89774
▁29	-8.89777
▁مرد	-8.89791
▁داغ	-8.89854
▁بانک	-8.89884
▁جلو	-8.8991
▁سازگار	-8.90089
▁پایدار	-8.90147
▁مزایای	-8.90149
▁فرکانس	-8.90202
▁انبار	-8.90304
▁ارزیابی	-8.90413
▁مش	-8.90546
▁طرف	-8.90676
▁عضو	-8.90727
▁مشکل	-8.90748
▁s	-8.90771
▁نظارت	-8.90818
▁شناخته	-8.90877
▁m	-8.90905
▁زدن	-8.90974
ای	-8.9107
▁م	-8.91075
▁دریایی	-8.91373
▁لامپ	-8.91399
▁جویی	-8.91471
n	-8.91641
▁گسترش	-8.91736
▁رشته	-8.91859
▁عقب	-8.91891
▁جاده	-8.919
o	-8.92367
▁PVC	-8.92566
▁امور	-8.92779
▁کمی	-8.93005
▁منتشر	-8.9305
▁آندروید	-8.93155
▁پنجره	-8.93286
▁I	-8.93291
▁اداره	-8.93308
▁دیگری	-8.93349
▁خیلی	-8.934
▁70	-8.93447
▁نیازهای	-8.93463
▁شخص	-8.93545
▁کربن	-8.93745
▁2014	-8.93784
▁موم	-8.93796
▁فکر	-8.93893
▁مشکلات	-8.94142
▁سیاست	-8.94147
▁کاملا	-8.94242
▁DC	-8.94271
▁ایرانی	-8.94429
▁خطوط	-8.94462
▁·	-8.94655
▁عمده	-8.94706
▁راحت	-8.94795
▁کلاس	-8.94928
▁شناسایی	-8.94935
▁بیمارستان	-8.94948
▁کپی	-8.94951
▁ویدئو	-8.94962
▁قوانین	-8.94997
▁رفتن	-8.95097
▁الله	-8.9528
▁دکمه	-8.95298
▁فرهنگ	-8.95373
▁تاثیر	-8.95617
▁150	-8.95677
▁شنبه	-8.95766
▁کنفرانس	-8.96069
▁اتصالات	-8.96124
▁ظاهر	-8.96675
▁برقی	-8.96697
▁پشت	-8.96751
▁بهداشتی	-8.96826
ب	-8.97006
▁کافی	-8.97239
▁خطر	-8.97246
i	-8.97259
▁متفاوت	-8.97278
▁بردن	-8.97283
▁سیگنال	-8.97291
▁حمام	-8.97309
▁پژوهش	-8.9733
▁حوزه	-8.97396
▁مشخص	-8.97398
ست	-8.974
تر	-8.97605
▁آی	-8.9777
▁سانتی	-8.97804
▁جمهوری	-8.97841
▁ریخته	-8.98015
▁2013	-8.98127
▁بودند	-8.98161
▁HD	-8.98203
▁ورزش	-8.98404
▁جذب	-8.98443
v	-8.98488
▁€	-8.98727
▁بالاتر	-8.98861
▁CE	-8.99106
▁گواهی	-8.99204
▁خالص	-8.993
▁هستیم	-8.99471
▁توانایی	-8.99884
▁مناطق	-8.99978
▁زیرا	-9.00005
▁زنده	-9.00017
▁هیئت	-9.00143
▁محمد	-9.00184
▁اقامت	-9.00238
▁پیشنهاد	-9.00269
▁ارز	-9.00931
▁مردان	-9.01
▁قهوه	-9.0105
▁توپ	-9.01099
▁CNC	-9.01184
▁v	-9.012
▁تصمیم	-9.0124
▁ژاپنی	-9.01503
▁سنسور	-9.01667
▁محبوب	-9.01791
▁48	-9.02123
▁معنی	-9.02141
▁آل	-9.0215
▁افغانستان	-9.02261
▁جای	-9.02264
▁مد	-9.02286
▁نیمه	-9.02289
▁رزرو	-9.02461
▁اهداف	-9.02637
▁خداوند	-9.02671
9	-9.02672
▁کسانی	-9.02712
▁بیت	-9.02742
▁صوتی	-9.0278
▁آلومینیومی	-9.02788
▁نیروی	-9.02842
▁بچه	-9.02968
▁مشترک	-9.0316
▁د	-9.03385
ون	-9.03399
▁مطابق	-9.03578
▁فلز	-9.03672
▁اسید	-9.03763
▁کاربری	-9.03946
▁حاصل	-9.03993
▁لیتر	-9.0428
▁امنیتی	-9.04421
▁آنجا	-9.04539
▁گالری	-9.04554
▁میلیون	-9.04593
▁درک	-9.04615
▁اکنون	-9.04828
▁شاخص	-9.04946
▁نهایی	-9.04949
▁120	-9.05177
▁وقت	-9.05258
p	-9.05433
▁بیشتری	-9.0565
▁±	-9.05673
▁لمسی	-9.05766
▁مسیر	-9.05934
▁پنج	-9.06054
▁معمولا	-9.06119
▁a	-9.06441
▁مادر	-9.06487
▁تخت	-9.0653
▁نقره	-9.06585
▁شبیه	-9.06628
f	-9.06703
▁www	-9.06871
▁معامله	-9.06891
▁مجازی	-9.06962
▁طیف	-9.06989
▁سوئیچ	-9.07088
▁صادرات	-9.07258
▁غذا	-9.07277
▁۳	-9.07327
▁کارکنان	-9.07364
▁گردد	-9.07399
▁O	-9.07575
▁فرآیند	-9.07608
▁وقتی	-9.07659
▁اعمال	-9.07741
▁امن	-9.07936
12	-9.08199
▁متعلق	-9.08358
▁مخلوط	-9.08382
▁درمانی	-9.0844
▁رنگی	-9.08446
▁خواهیم	-9.08765
▁آشپزخانه	-9.0878
▁دیده	-9.08982
▁زرد	-9.08983
▁علامت	-9.08992
▁یاد	-9.09015
▁زاویه	-9.09029
▁جایگزین	-9.0911
▁ترتیب	-9.09288
k	-9.09427
▁موفق	-9.09507
▁دنده	-9.09536
▁مجوز	-9.09543
▁گارانتی	-9.09577
▁09	-9.09668
▁نشده	-9.09865
▁انسانی	-9.09895
▁سوخت	-9.09898
▁مطلب	-9.10017
cm	-9.1003
▁س	-9.10056
▁دوباره	-9.10259
▁جدول	-9.10289
▁دانشکده	-9.1041
▁علی	-9.10603
▁پرواز	-9.10686
▁1397	-9.10721
▁موفقیت	-9.10904
▁اغلب	-9.10939
▁کشورهای	-9.10967
▁مبلمان	-9.11064
▁پنل	-9.11152
▁ثانیه	-9.11254
▁برگزار	-9.11379
▁عدد	-9.11514
▁آلانیا	-9.1156
▁بخار	-9.11605
▁گرفت	-9.11819
▁بیماران	-9.11823
▁محفوظ	-9.1186
▁جشنواره	-9.1188
▁اینترنتی	-9.11924
▁۱۳۹۶	-9.11965
▁اضافی	-9.11979
▁سالن	-9.12184
▁ضربه	-9.12221
▁کالا	-9.12567
,000	-9.12622
▁31	-9.12755
▁خدمت	-9.12782
▁بهداشت	-9.12809
▁نوشته	-9.12823
▁اتومبیل	-9.1291
ف	-9.12944
▁چوبی	-9.1299
▁دندان	-9.13015
in	-9.13066
ال	-9.13071
▁رمز	-9.13077
▁مراجعه	-9.13098
▁صحبت	-9.13118
-1	-9.13161
▁فاز	-9.13195
▁مفید	-9.132
▁سعی	-9.13203
▁مدیره	-9.13239
▁USB	-9.13284
▁انداز	-9.13427
▁رتبه	-9.13458
▁کشاورزی	-9.13588
▁کیت	-9.13671
▁توضیحات	-9.13809
▁قبلی	-9.13979
▁کردند	-9.13986
▁36	-9.14055
▁آورد	-9.1413
▁اید	-9.14199
▁ارزان	-9.14207
▁راست	-9.14253
▁چرخش	-9.14386
▁جوان	-9.14388
▁قطار	-9.14417
▁and	-9.14458
▁هاست	-9.1448
▁متخصص	-9.14587
▁دما	-9.14605
▁J	-9.14633
▁منجر	-9.14685
▁بخشی	-9.14687
▁01	-9.1473
▁سیلندر	-9.14819
▁یورو	-9.15197
▁فروشی	-9.15275
▁مطالعات	-9.15448
ور	-9.15452
▁پایگاه	-9.15555
تان	-9.15602
▁ترک	-9.15615
▁قفسه	-9.15647
▁چسب	-9.15865
▁قدیمی	-9.15933
یت	-9.1597
▁لیزری	-9.16026
▁نقاشی	-9.16292
▁برج	-9.16402
65	-9.16409
▁خوردگی	-9.16519
▁2020	-9.16577
▁تغییرات	-9.16588
▁۱۳۹۷	-9.16633
▁امتیاز	-9.16655
J	-9.16766
▁قرص	-9.16868
▁درست	-9.169
▁فصلنامه	-9.16968
▁p	-9.17065
▁رهبری	-9.17087
▁آزمایشگاه	-9.17208
▁ژنراتور	-9.17362
▁محور	-9.17464
▁طی	-9.1758
▁1396	-9.17613
▁تجزیه	-9.17623
▁کیف	-9.1765
O	-9.17654
▁بلوک	-9.17657
▁دوچرخه	-9.17801
▁Z	-9.17884
▁رود	-9.17956
در	-9.17962
▁مکانیکی	-9.18004
▁بالای	-9.18043
▁۴	-9.18049
▁هدیه	-9.18149
▁فرودگاه	-9.18195
▁مطمئن	-9.1835
▁بازرسی	-9.18423
▁خواهند	-9.18446
▁000	-9.1857
▁چینی	-9.18736
▁05	-9.18758
▁فرصت	-9.18818
▁رئیس	-9.18865
▁تصفیه	-9.18915
▁قلب	-9.18971
▁250	-9.19054
▁چربی	-9.19099
▁پل	-9.19122
▁فشرده	-9.19171
▁جنگ	-9.19527
▁اعلام	-9.19773
▁میدان	-9.19783
▁خواندن	-9.19808
▁خاموش	-9.1983
▁تاسیس	-9.19847
▁بافت	-9.19857
▁مهارت	-9.19898
▁پروتئین	-9.20061
▁تکمیل	-9.20296
▁روزانه	-9.20331
▁جستجوی	-9.20416
▁۱۰	-9.20537
▁سازنده	-9.20627
▁بازگشت	-9.20786
▁علیه	-9.20845
▁بله	-9.20911
▁پسر	-9.20998
▁400	-9.21116
▁یافت	-9.21117
▁سن	-9.21184
20	-9.2126
▁کف	-9.213
▁تور	-9.21303
▁Co	-9.21333
▁بیمه	-9.21378
▁مسابقه	-9.21582
▁بن	-9.21718
▁نماید	-9.21765
▁600	-9.21803
▁جوهر	-9.21825
▁لوکس	-9.2184
▁رابط	-9.22037
▁یابد	-9.22065
▁مخصوص	-9.22093
▁قانونی	-9.22125
▁مراکز	-9.22167
▁روان	-9.22685
▁شدت	-9.22742
▁میوه	-9.22815
▁معماری	-9.22872
▁درخت	-9.22982
▁جامد	-9.23052
▁برداری	-9.23094
▁صاف	-9.2316
▁فرهنگی	-9.2317
▁ع	-9.23179
▁کنار	-9.23248
▁پیشرفت	-9.2327
▁بلکه	-9.23277
▁پدر	-9.23285
▁دامنه	-9.23296
▁هوای	-9.23395
▁مجهز	-9.23505
▁فرایند	-9.23546
▁دارویی	-9.23558
▁بادی	-9.2359
▁درد	-9.23731
▁نحوه	-9.23762
▁مجدد	-9.23825
▁۵	-9.23897
▁پیاده	-9.23903
▁64	-9.23927
▁بزرگترین	-9.23949
▁اجاره	-9.24451
▁2011	-9.24619
▁2000	-9.24623
▁برتر	-9.24756
▁باغ	-9.24888
▁صورتی	-9.24923
▁U	-9.24963
▁معمول	-9.2498
▁پلاک	-9.25045
▁نو	-9.25086
▁اداری	-9.25172
▁بهینه	-9.2527
▁تبلیغاتی	-9.25319
▁اقتصاد	-9.25485
▁آید	-9.25551
▁میز	-9.25655
▁مداوم	-9.2567
▁پذیری	-9.25778
▁اطراف	-9.25791
▁تی	-9.25807
▁امام	-9.2581
ة	-9.25996
co	-9.26287
▁انتظار	-9.26302
▁of	-9.26365
▁کفش	-9.26436
▁چندین	-9.26462
▁ایم	-9.26522
▁رستوران	-9.2665
▁مصنوعی	-9.26771
▁عوامل	-9.26871
▁ویتامین	-9.26883
شان	-9.2691
▁اسپری	-9.26912
▁1.5	-9.26941
▁بازرگانی	-9.27032
▁مدار	-9.27047
▁—	-9.27082
▁شدند	-9.27332
▁دید	-9.27339
▁تخفیف	-9.27345
▁برند	-9.27351
▁سنتی	-9.27357
▁عدم	-9.27462
▁موسسه	-9.27649
▁PP	-9.27666
▁55	-9.2776
▁OEM	-9.27846
▁تخلیه	-9.27986
▁بهار	-9.28011
▁دریا	-9.28253
▁لاستیک	-9.28423
▁اقدام	-9.28425
یان	-9.28436
▁زیاد	-9.28561
▁مشابه	-9.28758
▁نموده	-9.28827
▁رضایت	-9.28858
▁بلیط	-9.28876
▁وسایل	-9.2891
▁تحمل	-9.28932
▁نظرات	-9.28943
▁ظرف	-9.29006
اً	-9.29257
▁دنیا	-9.29308
▁نمود	-9.29313
▁حاوی	-9.29443
▁سوی	-9.29451
▁کوره	-9.29502
▁ماهی	-9.29515
▁220	-9.29574
▁متصل	-9.29614
▁دکوراسیون	-9.29648
▁رژیم	-9.29728
▁سوم	-9.29749
▁دبی	-9.2976
▁مبارزه	-9.29833
▁هوایی	-9.30048
▁یکپارچه	-9.30117
▁ارتباطات	-9.30133
▁آمده	-9.3016
▁کشی	-9.30322
▁تأثیر	-9.3033
▁چرخه	-9.30367
▁شهری	-9.30421
▁استر	-9.30434
▁سهام	-9.30459
▁ترکیبی	-9.3048
▁ستاره	-9.305
▁تصویری	-9.30544
▁اختیاری	-9.30645
▁موج	-9.30662
▁رسیدن	-9.30694
▁33	-9.30739
▁پارکینگ	-9.30754
▁کانادا	-9.30801
50	-9.30861
مان	-9.31091
▁02	-9.31135
▁بازاریابی	-9.31241
▁دوستان	-9.31303
▁آثار	-9.31365
▁استخر	-9.3141
▁HIV	-9.31429
▁هدایت	-9.31477
▁ببینید	-9.31571
▁جدا	-9.31574
▁in	-9.31575
▁صدور	-9.31657
▁جنوبی	-9.31703
▁پین	-9.31714
▁تخته	-9.31853
▁اشاره	-9.31862
-2	-9.31898
▁تنظیمات	-9.319
▁پورت	-9.3198
▁چک	-9.31987
▁شغلی	-9.32107
▁کیلو	-9.3216
▁سپرده	-9.32305
▁تمرکز	-9.32316
▁ساحل	-9.32337
▁انگیز	-9.32606
▁دیدگاه	-9.32615
▁مبتلا	-9.32623
▁سود	-9.32849
▁کمپرسور	-9.32908
▁چپ	-9.32959
▁خصوص	-9.32992
▁دیسک	-9.33001
▁عضویت	-9.33013
▁اصلاح	-9.33173
▁فرانسه	-9.33273
▁دختران	-9.33584
▁مسکن	-9.337
▁نمایندگی	-9.33758
▁جایزه	-9.34023
▁روسیه	-9.34123
▁ساله	-9.34203
▁07	-9.34272
▁مرغ	-9.34647
▁اتحادیه	-9.34699
▁110	-9.3471
▁ASTM	-9.34733
▁تقسیم	-9.34757
▁دسامبر	-9.34763
▁آموزان	-9.34775
▁محتوای	-9.34786
▁برجسته	-9.34938
▁75	-9.3507
▁مرگ	-9.35207
▁دانشجویان	-9.35209
▁جنس	-9.35255
▁نظامی	-9.35324
▁کیلومتر	-9.35366
یک	-9.35435
▁داوری	-9.35504
▁آمار	-9.35524
▁دیگران	-9.35592
▁مجتمع	-9.35643
Y	-9.35809
▁ضروری	-9.35867
▁اصفهان	-9.35935
ار	-9.36156
▁الماس	-9.36164
▁واقعیت	-9.36252
▁کاشی	-9.3626
▁روابط	-9.3628
▁فصل	-9.36308
▁معتبر	-9.36369
▁کلاه	-9.36374
▁سالم	-9.36459
▁قرارداد	-9.36471
▁دارو	-9.36493
▁عمیق	-9.36564
▁ذکر	-9.36744
▁دانه	-9.36827
45	-9.36859
▁توانم	-9.37042
▁بحث	-9.37062
▁حزب	-9.37131
▁حیوانات	-9.37275
▁دفاع	-9.37405
▁جنوب	-9.37545
▁بیمار	-9.37549
0	-9.37557
▁قطب	-9.37622
ترین	-9.37657
▁شدید	-9.37722
مبتنی	-9.3778
▁کلمات	-9.37801
▁1398	-9.38013
▁مقیاس	-9.38095
▁حافظه	-9.38206
▁مجموع	-9.38208
▁نوجوان	-9.38293
▁کارگاه	-9.38326
▁39	-9.38332
▁تقریبا	-9.3841
▁پژوهشی	-9.38466
▁08	-9.38471
▁۶	-9.38676
▁هزار	-9.38811
▁Home	-9.38814
th	-9.38839
h	-9.38913
▁دیدن	-9.38953
▁06	-9.39039
▁هورمون	-9.39118
▁سرامیک	-9.39129
▁داستان	-9.39132
▁خام	-9.39133
▁کازینو	-9.39209
▁گام	-9.39306
▁خواص	-9.39385
▁مستقل	-9.39423
▁فرمت	-9.39425
▁مجاز	-9.39493
▁باقی	-9.39609
▁اعضای	-9.39667
▁آرایشی	-9.39687
▁کلاسیک	-9.39696
▁دیواری	-9.39737
▁گوگل	-9.39796
▁دوز	-9.39798
▁نوشیدنی	-9.39879
us	-9.39906
▁اختیار	-9.39944
▁اکتبر	-9.40053
▁مارک	-9.40154
al	-9.40189
▁زنجیره	-9.40195
▁نوامبر	-9.40252
▁بیرونی	-9.40262
▁همانطور	-9.4032
▁تفاوت	-9.40384
▁ابتدا	-9.40468
▁باند	-9.40475
▁فوم	-9.4054
از	-9.40593
▁شگفت	-9.40623
▁قلم	-9.40642
▁عشق	-9.40718
▁رسید	-9.40753
▁Y	-9.40759
▁کوه	-9.40835
l	-9.4088
▁استانداردهای	-9.40935
▁سطوح	-9.40942
▁هواپیما	-9.4099
▁اثرات	-9.40993
▁ارشد	-9.41019
▁تستوسترون	-9.41063
▁تاريخ	-9.41082
▁۱۳۹۸	-9.41103
▁فرستنده	-9.41185
▁فارکس	-9.41211
▁مطالب	-9.4132
▁آستین	-9.41366
▁جا	-9.41506
▁یخ	-9.41578
▁بیان	-9.41641
▁ضبط	-9.41685
▁کویل	-9.41747
11	-9.41786
▁آمدید	-9.4183
Z	-9.41836
▁آنتی	-9.41836
U	-9.41848
▁برد	-9.42029
▁بند	-9.42058
▁مثل	-9.42126
▁ولی	-9.42172
▁فوتبال	-9.42234
▁شش	-9.42269
▁شفاف	-9.42321
ج	-9.4238
▁محیطی	-9.42415
▁سپتامبر	-9.42446
100	-9.42471
▁ده	-9.42522
▁بشر	-9.42526
▁یادگیری	-9.42541
▁UV	-9.42577
▁ابزارهای	-9.42589
▁هرگز	-9.42591
بر	-9.42715
▁میل	-9.43152
▁42	-9.43175
▁مثبت	-9.43281
▁مراحل	-9.43541
▁دروازه	-9.43554
▁فعلی	-9.4356
▁سازد	-9.43594
▁عصاره	-9.43632
▁فلش	-9.43701
▁درایو	-9.43805
▁ان	-9.43855
▁بوک	-9.43868
▁بازیابی	-9.43923
▁گوشی	-9.43926
▁ج	-9.43957
▁طبیعت	-9.4429
▁قدرتمند	-9.44327
▁سیاسی	-9.44452
▁04	-9.44475
▁the	-9.44476
▁نویسنده	-9.44542
▁سازه	-9.44549
▁مقابل	-9.44552
▁۸	-9.44579
▁1-	-9.44716
▁محافظ	-9.44768
16	-9.4479
▁کره	-9.44826
▁اسلام	-9.44935
▁عوارض	-9.44965
▁عربی	-9.45003
▁علم	-9.45059
▁ارتقاء	-9.45152
▁دوام	-9.45262
▁800	-9.4527
▁ریال	-9.45293
▁گردشگری	-9.45327
▁دستورالعمل	-9.45354
▁صدای	-9.45373
▁باد	-9.45386
▁آوردن	-9.45462
▁گوش	-9.455
▁ناشی	-9.45522
▁0.5	-9.45554
▁شمال	-9.45569
▁تحصیلی	-9.45623
▁آمد	-9.45643
▁بارگیری	-9.45679
▁امر	-9.45759
▁h	-9.45765
▁هشدار	-9.45772
▁طوری	-9.4597
▁سوالات	-9.46107
▁Pro	-9.46115
▁GPS	-9.4619
▁کمربند	-9.46192
▁اعتبار	-9.46201
▁سازمانی	-9.46215
▁پلت	-9.46263
▁ن	-9.46275
▁تهویه	-9.46289
▁هند	-9.46325
▁CAS	-9.46359
u	-9.46422
▁خاکستری	-9.46427
▁زنی	-9.46507
▁واقعا	-9.46575
▁گیرنده	-9.4659
▁گیاهی	-9.46605
▁پاداش	-9.46655
ق	-9.46667
▁سختی	-9.46712
▁معمولی	-9.46795
▁سبد	-9.46928
▁فرش	-9.47085
▁دستور	-9.47109
▁استروئید	-9.47113
25	-9.4739
▁چرم	-9.47458
▁وبلاگ	-9.47633
▁کارایی	-9.47638
▁03	-9.47641
▁ولت	-9.47682
▁38	-9.47696
▁برگزاری	-9.47837
30	-9.47854
▁کلمه	-9.47959
▁قبول	-9.47994
▁استاد	-9.48022
▁بافته	-9.48095
▁تمرین	-9.48139
▁جمعیت	-9.48208
▁حریم	-9.48261
▁قایق	-9.48301
▁جامع	-9.4833
ام	-9.48345
▁وری	-9.48439
▁عمودی	-9.48496
ع	-9.48516
▁اکثر	-9.4855
▁استیل	-9.48614
▁۱۲	-9.48684
15	-9.48742
▁رانندگی	-9.48797
▁سیلیکون	-9.49014
هاي	-9.49175
▁خانم	-9.49382
▁اسناد	-9.49406
ين	-9.49421
▁بد	-9.49445
▁شخصیت	-9.49453
▁info	-9.49593
▁حقوقی	-9.49617
▁37	-9.4963
انه	-9.49681
▁ژوئن	-9.49684
▁درآمد	-9.49694
▁آقای	-9.49696
یا	-9.4975
▁گوید	-9.49854
▁معدنی	-9.49858
▁34	-9.49863
▁اصل	-9.49998
▁ماهواره	-9.50008
▁افرادی	-9.50056
را	-9.5006
▁هک	-9.50149
▁نهایت	-9.5015
▁سوال	-9.50158
Q	-9.50168
▁وسیله	-9.50195
▁استخراج	-9.50413
▁نقلیه	-9.50434
▁ایمن	-9.50481
▁تیغه	-9.50862
▁ژاپن	-9.50894
▁گردید	-9.50997
▁سوپاپ	-9.51087
▁مصاحبه	-9.51223
گر	-9.51256
▁روح	-9.51331
▁پیکسل	-9.51428
▁ژانویه	-9.51506
pdf	-9.51615
▁۷	-9.51625
▁روکش	-9.51645
▁رایانه	-9.51674
▁قطع	-9.51809
▁خم	-9.51863
▁مونتاژ	-9.52066
▁معدن	-9.52101
▁کردم	-9.52198
▁اندروید	-9.52211
▁تشکر	-9.52271
▁صادر	-9.52293
▁ساختمانی	-9.52462
▁مربوطه	-9.52525
ول	-9.52655
▁نقاط	-9.52681
▁مارس	-9.52708
▁تعریف	-9.52716
▁هستم	-9.52773
▁گرما	-9.52873
▁جذاب	-9.52934
▁مانع	-9.53033
es	-9.53111
▁رویداد	-9.5313
▁پنبه	-9.532
▁جایی	-9.53225
▁PC	-9.53264
▁--	-9.53268
▁نورد	-9.53404
▁65	-9.53481
▁جوشکاری	-9.53557
▁ايران	-9.53703
I	-9.53736
▁آسیا	-9.53746
▁خورشید	-9.5377
▁57	-9.53791
▁ویدیو	-9.53864
ینگ	-9.53922
▁آسانسور	-9.53956
▁بارگذاری	-9.54093
▁CO	-9.54159
▁مسکونی	-9.54186
▁کابینت	-9.54216
▁مغناطیسی	-9.54223
ح	-9.54258
▁→	-9.54287
▁کشف	-9.54443
▁شرق	-9.54502
ly	-9.54568
▁رفتار	-9.54632
▁نوجوانان	-9.54665
▁اقدامات	-9.54707
▁ربات	-9.54881
▁PE	-9.54931
▁اتوبوس	-9.54948
▁آوریل	-9.54963
▁to	-9.55031
▁http	-9.55167
▁فردی	-9.55193
▁استرالیا	-9.5522
▁برنده	-9.55304
▁فوریه	-9.55391
▁معاملات	-9.5548
▁ترمز	-9.55495
▁صندوق	-9.5551
▁گیاهان	-9.55595
▁بندر	-9.55609
▁مدیران	-9.55644
▁نشانه	-9.55729
▁جلسه	-9.55845
▁اهمیت	-9.55957
▁یخچال	-9.55969
▁خواهم	-9.55999
▁ستون	-9.56149
▁اتفاق	-9.56257
▁دولتی	-9.56263
▁تأیید	-9.56343
▁چای	-9.56441
40	-9.5652
▁کرم	-9.5653
▁لا	-9.56547
▁حمله	-9.56574
▁شیوه	-9.56754
▁ریشه	-9.56805
▁}	-9.56887
▁استراتژی	-9.5689
▁اسباب	-9.57058
▁کدام	-9.57111
یل	-9.57205
▁کشش	-9.57331
▁ذهن	-9.57354
▁{	-9.57638
▁ویدئوها	-9.57676
▁سامانه	-9.57701
▁لبه	-9.57708
▁آلمانی	-9.57712
▁مبدل	-9.57756
▁پنهان	-9.57865
▁غبار	-9.57896
▁غرب	-9.57898
▁علائم	-9.58016
▁پرورش	-9.58016
▁نجات	-9.58047
▁چالش	-9.5805
▁مسائل	-9.58081
ما	-9.58102
▁بلبرینگ	-9.58122
▁پرس	-9.58122
▁اساسی	-9.58177
ــ	-9.58178
▁براق	-9.58208
▁مشاور	-9.58307
ac	-9.58331
▁موقت	-9.58436
▁معنوی	-9.58456
200	-9.58456
▁نظیر	-9.58496
▁میکرو	-9.58582
▁یعنی	-9.58608
▁مرطوب	-9.58654
▁عادی	-9.58962
▁هنری	-9.58983
▁طناب	-9.5902
▁نوشتن	-9.59097
▁خاطر	-9.59182
▁آسیایی	-9.59216
▁نشانی	-9.5922
▁اسرائیل	-9.59302
▁نفوذ	-9.59302
▁لنز	-9.59361
▁اندام	-9.59517
▁کتابخانه	-9.59535
▁۹	-9.59635
▁مشارکت	-9.59803
▁304	-9.59883
▁میباشد	-9.59999
▁ویروس	-9.60016
▁لیتیوم	-9.6005
▁چون	-9.60122
▁توضیح	-9.60138
لی	-9.60151
▁براي	-9.60167
وی	-9.60172
▁اوت	-9.60177
▁خبر	-9.60266
um	-9.60495
▁جان	-9.6056
▁راهنمایی	-9.6058
ml	-9.606
-4	-9.6069
▁رده	-9.60693
▁پیوند	-9.60707
▁منظوره	-9.60712
▁همایش	-9.60864
▁تولیدی	-9.60947
▁باشگاه	-9.61013
▁MB	-9.61068
▁2010	-9.61168
▁گیرند	-9.61307
▁شمالی	-9.61446
▁الگوی	-9.61473
▁بزرگان	-9.61661
▁گیاه	-9.6185
▁دارم	-9.62049
▁کفپوش	-9.62151
▁استخدام	-9.62254
▁نقد	-9.62367
▁مهاجرت	-9.62398
▁خلاء	-9.62521
▁نکنید	-9.62617
▁پرسش	-9.62803
▁تعادل	-9.62822
▁آلبوم	-9.62864
▁آهنگ	-9.62917
▁تان	-9.63074
▁دریچه	-9.6316
▁تصویب	-9.63188
▁مقررات	-9.63246
▁پیچیده	-9.63355
▁g	-9.63371
▁بیرون	-9.63434
▁همکاران	-9.63545
▁افقی	-9.63682
▁البته	-9.63699
▁علت	-9.63733
کس	-9.63734
▁کشویی	-9.63781
▁درون	-9.63791
▁اش	-9.63881
▁طرفه	-9.64022
▁عروسی	-9.64047
▁سنج	-9.6407
▁وابسته	-9.64101
▁44	-9.64108
▁فیزیکی	-9.6411
▁تکنیک	-9.64129
▁بصورت	-9.64135
▁ریاست	-9.64151
▁بازیافت	-9.64187
▁رقابتی	-9.64202
▁خریداری	-9.64287
▁اخلاق	-9.6444
▁تابع	-9.64666
به	-9.64724
▁رفت	-9.64783
▁جو	-9.64825
01	-9.64854
▁تاریخی	-9.64892
یه	-9.64908
▁رفع	-9.64943
▁1395	-9.64956
Hz	-9.6502
▁همزمان	-9.65063
▁خاک	-9.65091
60	-9.65192
گ	-9.65354
▁0.1	-9.65363
▁PCB	-9.65377
▁گفته	-9.65381
▁آنان	-9.65436
an	-9.65645
▁واکنش	-9.65715
▁استرس	-9.65719
▁مسئول	-9.65759
on	-9.65808
▁صرف	-9.6581
▁2.5	-9.65838
▁درز	-9.65941
▁شغل	-9.65999
▁بعضی	-9.66009
z	-9.66018
or	-9.66024
▁غلتک	-9.66039
▁کریسمس	-9.66083
▁ویرایش	-9.66108
▁میشود	-9.66131
▁کوکی	-9.66256
▁مینی	-9.66333
▁جزیره	-9.664
▁کارشناسی	-9.66468
نا	-9.665
▁ایتالیا	-9.66533
▁محاسبه	-9.66545
▁جمعه	-9.66566
▁95	-9.66603
▁سند	-9.66628
mg	-9.66708
▁کارآمد	-9.66804
▁180	-9.66861
▁شرقی	-9.67032
▁≤	-9.67205
▁ویلا	-9.67323
▁محدودیت	-9.67335
▁99	-9.67352
▁شستشو	-9.6743
▁رفته	-9.67432
-3	-9.67559
▁پلاگین	-9.67588
▁مایکروسافت	-9.67687
▁آزادی	-9.67715
▁موجب	-9.67786
▁میله	-9.67805
▁اصول	-9.67857
▁ترمینال	-9.67921
▁بروز	-9.67955
▁کشیدن	-9.68107
▁85	-9.68156
▁الی	-9.68179
▁عبارتند	-9.68194
-10	-9.68254
▁سرگرمی	-9.68311
▁عیسی	-9.68357
▁صبح	-9.68383
▁سلام	-9.68392
▁۱۱	-9.68412
▁طب	-9.68458
▁تابستان	-9.68529
▁وعده	-9.68609
▁c	-9.68753
▁سرب	-9.68808
▁پارس	-9.68843
▁مه	-9.6885
دار	-9.68905
▁دوران	-9.68911
▁98	-9.69013
▁for	-9.69025
▁عملیاتی	-9.69025
▁اختلال	-9.69045
▁یدکی	-9.69054
▁انفجار	-9.69063
▁غربی	-9.69293
▁2008	-9.69307
▁EN	-9.69453
▁51	-9.69488
▁نظام	-9.69523
▁آگاهی	-9.69587
يد	-9.69592
▁ه	-9.69604
▁£	-9.69606
▁چت	-9.69643
▁فویل	-9.69643
▁اختصاصی	-9.69655
▁پرستاری	-9.69667
▁تاپ	-9.69735
▁آنتن	-9.69742
▁عمدتا	-9.69797
▁طعم	-9.69837
▁مند	-9.69954
▁نازک	-9.70001
▁وبسایت	-9.70019
▁نخست	-9.70087
▁by	-9.70173
▁مایل	-9.70197
▁ملاقات	-9.7022
▁زده	-9.70323
▁شلوار	-9.70369
▁یو	-9.70525
دی	-9.70637
▁سنت	-9.70784
▁طبق	-9.70834
▁پرتو	-9.7097
▁بالاترین	-9.70976
▁SD	-9.71167
▁49	-9.71266
▁معرض	-9.71287
▁نایلون	-9.71349
▁t	-9.71495
وم	-9.71593
▁آماتور	-9.7163
▁دیدار	-9.71633
اب	-9.71728
▁برگ	-9.71749
▁رادیو	-9.7177
▁46	-9.71795
▁گران	-9.71802
▁اطلاعاتی	-9.71944
▁تنگستن	-9.71945
▁41	-9.71947
▁کپسول	-9.71962
▁پرونده	-9.71982
▁کابین	-9.71998
▁برنج	-9.72034
می	-9.72053
▁بزرگسالان	-9.72178
▁بوم	-9.72402
▁خالی	-9.72429
▁لزبین	-9.72486
ئی	-9.72543
▁ردیابی	-9.72566
24	-9.72639
▁معروف	-9.72713
▁برس	-9.7277
▁کارهای	-9.72782
▁شکست	-9.72799
▁سابقه	-9.729
▁جی	-9.72962
▁PLC	-9.72964
▁داروهای	-9.73002
▁برخوردار	-9.73068
▁فیس	-9.732
▁افزاری	-9.73219
▁اجزای	-9.7322
pcs	-9.73338
▁منظم	-9.73541
▁خطی	-9.73557
▁رخ	-9.73611
▁جدی	-9.7367
▁43	-9.73673
▁2-	-9.73768
▁Persian	-9.73791
▁فرمول	-9.73798
▁مدارک	-9.73938
▁پیشرو	-9.7394
▁رزومه	-9.73956
▁ABS	-9.74065
▁پستی	-9.74144
▁اکسیژن	-9.74197
▁اسکنر	-9.74254
▁فرض	-9.74344
▁آرام	-9.74384
▁تورم	-9.74404
▁یکبار	-9.74468
▁شركت	-9.74556
▁عفونت	-9.74607
▁متوقف	-9.74643
▁پوسته	-9.74677
▁3000	-9.74785
▁مغز	-9.74933
▁اخیر	-9.75
▁گاه	-9.75034
▁مقدس	-9.75055
▁Archive	-9.75142
▁آینه	-9.75207
▁جرثقیل	-9.75216
▁چهره	-9.75232
▁ویزا	-9.75278
▁دوشنبه	-9.75312
▁نوآوری	-9.75431
▁متنوع	-9.75454
▁All	-9.75516
-12	-9.75549
▁هفت	-9.75558
کو	-9.75563
▁پارامترهای	-9.75702
▁تولد	-9.75706
▁فضا	-9.75714
▁فرا	-9.75797
▁بستگی	-9.75869
en	-9.75874
▁شیرین	-9.75924
▁قرآن	-9.75934
▁ارتباطی	-9.75965
▁سگ	-9.75967
▁اوقات	-9.76034
چ	-9.76118
▁دائمی	-9.76161
تون	-9.76176
▁https	-9.76207
▁مانده	-9.76229
▁برنز	-9.76272
▁1500	-9.76323
▁پالت	-9.76342
▁الزامات	-9.76359
▁نسل	-9.76402
▁دعوت	-9.76481
▁سالانه	-9.76531
▁مختلفی	-9.76548
14	-9.76561
▁دیزل	-9.76649
▁جفت	-9.76711
▁چهارشنبه	-9.76757
▁بخوانید	-9.76776
▁کروم	-9.76926
▁برداشت	-9.7695
ایی	-9.76994
▁احتمال	-9.77013
▁عطر	-9.77032
▁نا	-9.77127
▁خال	-9.7716
▁نیروگاه	-9.77313
▁انگلستان	-9.77343
۴	-9.77461
▁همسر	-9.77486
اس	-9.77495
▁پیکربندی	-9.77508
▁مرجع	-9.77547
▁فر	-9.77573
▁مهمان	-9.77573
▁●	-9.77618
▁اختصاص	-9.77694
▁مک	-9.77723
MM	-9.77739
13	-9.77759
▁شارژر	-9.77861
▁توجهی	-9.77897
▁۱۳۹۵	-9.77932
▁آداپتور	-9.77934
▁خاصی	-9.77978
▁عبارت	-9.77981
▁عمق	-9.77988
▁اروپایی	-9.78024
▁1.0	-9.78129
ری	-9.7816
▁وظیفه	-9.78185
▁RF	-9.78293
▁ا	-9.78312
رو	-9.78327
▁بدانید	-9.78384
▁تعطیلات	-9.78419
▁ثبات	-9.78497
▁آلودگی	-9.78506
تا	-9.78563
▁حضرت	-9.78617
▁b	-9.78623
▁e	-9.78697
▁اعتباری	-9.78789
▁اثبات	-9.7886
▁غنی	-9.78992
le	-9.78997
▁دین	-9.79048
▁مالیات	-9.79115
80	-9.79121
▁معکوس	-9.79252
ك	-9.79329
▁لطفاً	-9.79337
▁تعلیق	-9.79364
▁تخصص	-9.7942
▁تایپ	-9.79551
▁اضطراری	-9.7956
▁47	-9.79624
▁آزمایشگاهی	-9.79625
ٔ	-9.79647
▁چاپگر	-9.79786
گی	-9.79795
▁فرمان	-9.79943
▁گاو	-9.80052
▁قول	-9.8015
با	-9.80153
▁استحکام	-9.80154
▁1.	-9.80176
67	-9.8019
▁پیگیری	-9.80244
▁PET	-9.80305
▁جوانان	-9.80405
کار	-9.80459
▁بالغ	-9.80484
90	-9.80548
▁انقلاب	-9.80556
▁2.0	-9.8057
▁ت	-9.806
▁سوزن	-9.80613
▁380	-9.8075
اد	-9.80792
▁گروهی	-9.80939
▁خرده	-9.80981
▁شناختی	-9.80982
▁کت	-9.81048
▁pcs	-9.81156
▁English	-9.81221
▁گر	-9.8126
▁پزشک	-9.81279
▁مشهد	-9.81295
▁تم	-9.8131
▁تراکم	-9.81337
▁حکومت	-9.81368
▁آذر	-9.81389
▁اسب	-9.8142
▁کیک	-9.81469
وس	-9.81488
▁تزئینی	-9.81547
▁موی	-9.8165
▁واردات	-9.81667
▁دل	-9.81682
▁56	-9.81701
▁بازسازی	-9.81758
KW	-9.82033
▁d	-9.82101
▁اسکن	-9.82108
▁سرخ	-9.82113
18	-9.8217
▁شرط	-9.82205
▁کاتالوگ	-9.82241
▁منتقل	-9.82428
▁52	-9.82529
▁آنابولیک	-9.82544
▁گیر	-9.82598
▁i	-9.8261
▁تأمین	-9.82621
▁بارسلونا	-9.82662
st	-9.82684
▁سادگی	-9.82699
▁پرده	-9.82871
▁گوشت	-9.82896
▁رایت	-9.82922
▁مخدر	-9.82934
▁اجرایی	-9.82962
▁خودتان	-9.83043
-5	-9.83053
▁خانوادگی	-9.83093
▁پوند	-9.83139
▁رد	-9.8318
▁موهای	-9.83212
▁مرورگر	-9.83224
at	-9.83241
▁امید	-9.83256
de	-9.83406
▁امتحان	-9.83448
▁زنانه	-9.83528
▁طلایی	-9.83569
▁ترافیک	-9.83583
22	-9.83716
▁زمستان	-9.83726
▁®	-9.83731
▁نماینده	-9.83734
انی	-9.83757
خ	-9.83794
▁متری	-9.83845
▁58	-9.83911
▁آرم	-9.8393
▁وزیر	-9.8398
▁راننده	-9.83987
it	-9.83998
▁اچ	-9.84026
▁شان	-9.84027
پ	-9.84038
▁يا	-9.84073
▁عملی	-9.84076
▁پروفیل	-9.84144
▁شورای	-9.84201
▁Android	-9.84222
▁زایمان	-9.84419
▁فلسفه	-9.84444
▁زلزله	-9.84635
▁نوین	-9.84655
▁روسی	-9.84707
▁حقیقت	-9.8478
▁نانو	-9.84781
kw	-9.84786
▁بطور	-9.84837
▁The	-9.84845
▁کارشناسان	-9.85014
▁عناصر	-9.8509
▁آورده	-9.85173
▁دهندگان	-9.8531
▁Windows	-9.85378
▁Re	-9.85414
▁نخواهد	-9.85429
گان	-9.85503
▁وضوح	-9.85528
▁fa	-9.85818
نگ	-9.85822
▁ضمانت	-9.85825
-6	-9.85831
▁گذار	-9.85857
▁تعویض	-9.85947
ده	-9.85971
▁نویسی	-9.86056
▁سو	-9.86153
▁گرافیک	-9.86255
▁مانیتور	-9.86281
▁درس	-9.86325
▁پیشنهادات	-9.86356
▁لاستیکی	-9.86412
▁چادر	-9.86507
▁سقوط	-9.8653
▁اتیلن	-9.86638
تی	-9.8665
▁ارتش	-9.86661
▁مرور	-9.86686
▁اکسید	-9.8671
▁سرطان	-9.86717
▁منفی	-9.86821
▁FM	-9.86866
▁54	-9.86872
▁کوبی	-9.86964
من	-9.87218
▁دادگاه	-9.87366
▁کارتریج	-9.87461
▁فریزر	-9.87586
▁پخت	-9.87662
▁عضلانی	-9.8776
▁اسلاید	-9.87762
▁تسمه	-9.87786
▁جز	-9.87792
net	-9.87831
▁نفس	-9.87833
▁گاهی	-9.87856
▁شاید	-9.87893
▁بودجه	-9.87912
▁نیروهای	-9.8795
▁خبرنامه	-9.87952
▁خ	-9.87978
▁پلیس	-9.88036
▁Copyright	-9.88051
▁اي	-9.88056
نی	-9.88138
▁لینوکس	-9.88153
▁4-	-9.8832
کی	-9.88333
▁بتن	-9.8836
▁de	-9.88435
▁ایکس	-9.88471
▁مشهور	-9.88502
▁سلامتی	-9.88554
▁کریستال	-9.88556
▁فرانسوی	-9.88637
▁کشورها	-9.8871
▁بیست	-9.88762
▁صحیح	-9.88894
بی	-9.89042
▁دهان	-9.89099
▁فرار	-9.89104
▁آمریکایی	-9.89164
▁گرمایش	-9.89427
▁سید	-9.89428
▁ردیف	-9.89535
▁اشکال	-9.89546
▁کاغذی	-9.89554
▁اکستروژن	-9.89596
▁350	-9.89666
▁بالینی	-9.89786
▁ملک	-9.89807
▁پنوماتیک	-9.89824
▁53	-9.89894
▁مراسم	-9.89911
▁ظروف	-9.89943
▁فوری	-9.89953
▁تحریک	-9.90012
▁لپ	-9.90058
▁مسیح	-9.90155
▁منزل	-9.90162
▁نشریه	-9.90163
▁صلح	-9.90199
▁دستگیره	-9.90283
▁۲۰	-9.90294
9001	-9.90311
▁موزه	-9.90314
لو	-9.90399
▁همچنان	-9.90457
▁0.2	-9.90554
▁86	-9.90578
▁٬	-9.90597
▁جاری	-9.90611
▁زمینی	-9.9067
▁125	-9.90739
▁جشن	-9.9079
▁فنجان	-9.90857
▁اعدام	-9.90906
▁نان	-9.90938
▁160	-9.90971
▁ملل	-9.91088
▁شیمی	-9.91142
▁جداگانه	-9.91228
▁توقف	-9.91314
▁بزرگتر	-9.91407
▁SC	-9.91434
▁ایستاده	-9.91515
▁۱۹	-9.91533
▁سرگرم	-9.91612
▁پای	-9.91646
▁مزیت	-9.91655
▁پیشگیری	-9.91691
▁r	-9.9178
▁ف	-9.91792
66	-9.91807
▁بیشترین	-9.91813
▁فراموش	-9.91952
▁f	-9.9202
▁زندان	-9.92191
▁رضا	-9.92192
▁شانگهای	-9.92203
▁72	-9.92242
▁پشتیبان	-9.92266
▁1200	-9.92274
▁میکند	-9.9229
▁جغرافیایی	-9.92309
▁360	-9.92314
▁بازیکنان	-9.92321
▁نامحدود	-9.92359
35	-9.92387
▁رویکرد	-9.92416
▁مخفی	-9.92418
nm	-9.92559
▁قرن	-9.92569
▁سایش	-9.9283
▁نمایند	-9.92835
▁SS	-9.92925
که	-9.92955
▁محتوا	-9.93086
▁شهید	-9.93087
▁قطره	-9.9313
▁کجا	-9.93164
▁رزین	-9.93178
▁ریز	-9.93194
▁سرامیکی	-9.93196
نت	-9.93292
▁ماشینکاری	-9.93304
▁1.2	-9.93312
▁دستیابی	-9.93315
300	-9.93339
▁No	-9.93344
▁بدست	-9.934
▁316	-9.93469
▁تئاتر	-9.9349
▁سوار	-9.93513
▁زباله	-9.93663
▁آرشیو	-9.93695
▁عرفان	-9.9372
▁اف	-9.93805
▁PU	-9.93824
یس	-9.93892
▁شنا	-9.93938
▁تناسب	-9.93948
▁شیراز	-9.9396
▁محترم	-9.93988
32	-9.94016
▁تیر	-9.94017
▁خرد	-9.94022
▁انگشت	-9.94051
▁کش	-9.9411
▁مادی	-9.94178
▁همواره	-9.94203
▁عصر	-9.94229
▁بالایی	-9.94234
▁کور	-9.94328
▁ویزای	-9.94376
▁شاه	-9.94494
▁آباد	-9.94516
▁رقابت	-9.94524
▁جالب	-9.9474
▁کاملاً	-9.94771
▁خروج	-9.94771
▁پتروشیمی	-9.94776
▁کنگره	-9.94795
19	-9.9481
▁رسیده	-9.94828
▁تراشه	-9.94833
▁پد	-9.94843
▁جایگزینی	-9.94844
▁پلاسما	-9.94847
ic	-9.94981
سی	-9.94994
▁2009	-9.95051
▁نمودار	-9.95151
▁ODM	-9.95151
▁ریست	-9.9518
▁Ltd	-9.95227
▁مسدود	-9.95232
▁خوراکی	-9.95366
▁بهمن	-9.95378
▁فلزات	-9.95393
▁بنیاد	-9.95462
▁سرزمین	-9.95475
▁سخنرانی	-9.95594
▁نرده	-9.95896
▁تصادفی	-9.95901
▁معنای	-9.95972
▁سانتیگراد	-9.95981
▁قصد	-9.96029
▁سوئد	-9.96178
▁اشتباه	-9.96281
▁2.	-9.96288
-8	-9.96314
▁مرتب	-9.96389
▁تمایل	-9.96437
▁افتخار	-9.96452
▁تحصیل	-9.96487
▁مطلوب	-9.96558
▁تکرار	-9.96586
▁بریتانیا	-9.96597
▁گلف	-9.96659
▁ناحیه	-9.96719
▁ادغام	-9.96781
▁محلول	-9.96838
▁فاضلاب	-9.96849
▁مهره	-9.96867
▁نیکل	-9.96889
▁بلوتوث	-9.96915
▁میانگین	-9.96962
▁۱۳	-9.96971
▁USD	-9.9698
▁خوردن	-9.97063
▁باور	-9.97064
ine	-9.97288
▁آویز	-9.97328
▁SMD	-9.97338
▁سینما	-9.97396
▁لحظه	-9.97456
▁140	-9.97473
▁حصار	-9.97475
▁59	-9.97582
▁ذرات	-9.97589
▁دهه	-9.97607
۷	-9.97644
▁بانکی	-9.97649
▁مامان	-9.97773
▁افتد	-9.97797
▁مساحت	-9.9786
▁گشت	-9.97887
▁لغو	-9.97925
▁آبان	-9.97928
▁CV	-9.97961
▁In	-9.97971
▁مفهوم	-9.97991
▁مهندس	-9.98099
▁داری	-9.98107
▁خلاصه	-9.98119
▁۳۰	-9.9813
▁پرسنل	-9.98219
▁GB	-9.98233
۸	-9.98304
▁ش	-9.98325
▁شناور	-9.98367
▁کشد	-9.98369
▁غرفه	-9.984
▁ازدواج	-9.98445
▁ایمان	-9.98448
is	-9.98457
▁بالابر	-9.98464
▁آگهی	-9.98485
▁توافق	-9.98489
▁شعله	-9.9849
▁دوش	-9.98505
▁ولایت	-9.98637
▁کلیپ	-9.98664
▁وردپرس	-9.98854
▁NO	-9.98896
▁کوین	-9.98958
▁تاریخچه	-9.98998
▁جدیدی	-9.99004
▁بلافاصله	-9.99014
▁مقرون	-9.99107
▁UL	-9.99133
▁درام	-9.9916
▁نشست	-9.99211
▁96	-9.99339
یو	-9.99364
ط	-9.99365
▁اخذ	-9.99443
▁نقاله	-9.99448
لا	-9.99517
▁گردن	-9.99648
▁نورپردازی	-9.99654
▁حساسیت	-9.99668
▁متوجه	-9.99679
▁شکاف	-9.99802
▁غذاهای	-9.99813
▁آرایش	-9.99901
▁تحصیلات	-9.99915
ود	-9.99927
▁کامپوزیت	-9.99955
▁مقابله	-9.99957
▁نکته	-9.99983
▁استخوان	-9.99997
▁تعهد	-10
▁دلایل	-10.0007
▁هیجان	-10.0015
▁دوگانه	-10.0021
▁خطا	-10.0026
▁نمک	-10.0027
▁حسین	-10.0027
▁استاتیک	-10.0035
▁n	-10.0043
▁محکم	-10.0049
▁متحرک	-10.0051
▁LCD	-10.0052
▁گویند	-10.0052
▁کردیم	-10.0053
▁MP	-10.0058
▁پردازنده	-10.0073
هایی	-10.0074
▁اتمام	-10.0076
▁بستر	-10.0077
▁سواری	-10.008
ia	-10.0091
▁آشنا	-10.0092
▁بگذارید	-10.0095
j	-10.0101
▁جنگل	-10.0117
▁آر	-10.0124
▁کالج	-10.0137
▁استانبول	-10.014
▁مطبوعات	-10.014
▁بنا	-10.0145
▁۱۵	-10.0148
▁بروید	-10.0148
▁ببرید	-10.0149
▁دایره	-10.015
17	-10.016
▁جمهور	-10.0165
▁گی	-10.0181
▁جدیدترین	-10.0182
▁آپلود	-10.0184
▁واحدهای	-10.0184
▁واشر	-10.0184
re	-10.0184
▁برخورد	-10.0197
▁ل	-10.0201
▁دهم	-10.0201
gsm	-10.0211
▁پیامبر	-10.0212
این	-10.0213
▁مطبوع	-10.0223
▁سفارشات	-10.0229
▁240	-10.0237
▁فارس	-10.0245
▁براساس	-10.0249
▁کمیته	-10.025
▁نزدیکی	-10.0252
▁تستر	-10.0252
▁ناخن	-10.0254
▁کارگران	-10.0268
▁ساختن	-10.0268
▁کولر	-10.0272
▁نباید	-10.0285
▁هست	-10.0289
▁يک	-10.0291
▁ذوب	-10.0292
▁فی	-10.0292
▁ک	-10.0294
21	-10.0299
▁هویت	-10.0301
▁هادی	-10.0307
▁بنفش	-10.0309
▁ماسک	-10.031
▁اکسل	-10.0321
▁احترام	-10.0323
ّ	-10.0325
▁تخم	-10.0327
▁دفعات	-10.0327
▁احکام	-10.0332
▁نیستند	-10.0338
▁خواسته	-10.0342
▁¬	-10.0359
سازی	-10.0365
۵	-10.0369
▁بستن	-10.037
▁تبریز	-10.0371
▁عین	-10.0371
▁0.3	-10.0372
06	-10.0372
▁درج	-10.0379
▁امضا	-10.0382
۳	-10.0384
org	-10.0391
▁88	-10.0395
▁دومین	-10.0403
▁امریکا	-10.0403
▁بیل	-10.0408
▁سطحی	-10.0409
▁1394	-10.041
▁یکدیگر	-10.0413
▁مؤثر	-10.0414
▁یادداشت	-10.0416
▁نکات	-10.042
▁هرگونه	-10.0423
▁آ	-10.0424
▁شانه	-10.0438
▁اندیشه	-10.0439
▁رعایت	-10.044
▁متعدد	-10.0465
يم	-10.0466
▁فوت	-10.047
304	-10.0482
▁شراب	-10.0482
▁چگونگی	-10.0482
▁ایتالیایی	-10.0484
▁ژل	-10.0489
▁سکه	-10.0497
▁توصیف	-10.0502
et	-10.0507
▁جنبش	-10.0507
▁هیدرولیکی	-10.0511
▁ماسه	-10.0517
▁ماساژ	-10.0537
یر	-10.0551
▁شهرک	-10.0552
▁الف	-10.0558
▁توده	-10.056
70	-10.0561
▁معلم	-10.0566
▁آژانس	-10.0569
ers	-10.0573
▁تفریحی	-10.0582
▁احمد	-10.0587
▁مقادیر	-10.0588
▁مولکولی	-10.0596
▁چهارم	-10.0598
-7	-10.06
▁صحنه	-10.0601
▁3.0	-10.0602
▁حسن	-10.0602
▁گذاشته	-10.0603
▁بایگانی	-10.0608
▁اتوماسیون	-10.061
نده	-10.0621
▁خورده	-10.0624
▁نفره	-10.0625
▁شن	-10.0628
▁میتوانید	-10.0628
▁DIN	-10.063
▁پور	-10.0634
▁پروتکل	-10.0635
▁سوئیس	-10.0635
▁نمایشگر	-10.065
▁ق	-10.0652
▁مدارس	-10.0658
▁پروانه	-10.0661
▁وجه	-10.0662
▁کمیسیون	-10.0662
▁خلیج	-10.0672
▁5000	-10.0673
▁بو	-10.0676
▁4.99	-10.0679
▁آور	-10.0687
▁MT	-10.0688
▁وسیعی	-10.0693
▁مسابقات	-10.0694
▁حساس	-10.0714
پر	-10.0726
▁عینک	-10.0735
▁بهشت	-10.0737
kg	-10.074
▁الهی	-10.0771
▁روزنامه	-10.0776
▁پیری	-10.0797
▁اکسپرس	-10.08
▁مطرح	-10.0801
▁بازارهای	-10.0801
▁افزونه	-10.0804
وز	-10.0806
ur	-10.0812
▁on	-10.0814
▁متمرکز	-10.0815
▁اجتناب	-10.0823
36	-10.0823
▁سایه	-10.0825
▁RFID	-10.0828
500	-10.0834
▁مات	-10.084
▁مخروطی	-10.0846
▁ابر	-10.0847
▁۱۸	-10.0849
▁صاحب	-10.0849
▁بلوار	-10.0855
▁مبلغ	-10.0863
▁≥	-10.0863
▁موضوعات	-10.0864
▁پویا	-10.0865
▁بوش	-10.0871
▁بال	-10.0871
▁ماند	-10.0874
55	-10.0875
▁3.5	-10.0889
▁آرامش	-10.089
▁پ	-10.0894
▁پوشاک	-10.0899
ie	-10.0904
▁دنیای	-10.0906
▁’	-10.0908
▁مردانه	-10.0919
▁مته	-10.092
05	-10.0926
▁cm	-10.0927
▁پذیرفته	-10.0928
as	-10.0932
▁­	-10.0932
▁باشیم	-10.0935
▁تعدادی	-10.0935
▁کششی	-10.0939
▁چقدر	-10.0941
▁اشعه	-10.0951
▁مدرک	-10.0952
▁خوراک	-10.0959
▁ورقه	-10.0965
▁شفت	-10.0967
▁برآورده	-10.0967
▁فضایی	-10.0971
▁دهی	-10.0976
▁خلوص	-10.0984
▁کالاهای	-10.0988
▁متناسب	-10.0992
▁رز	-10.1
▁تاشو	-10.1004
▁احتمالا	-10.1023
▁گربه	-10.1023
▁ماهیگیری	-10.1036
▁گردش	-10.106
te	-10.1065
▁تری	-10.107
▁ترجیح	-10.1076
▁تونل	-10.1078
▁گیره	-10.1085
▁جت	-10.1086
400	-10.1089
▁Al	-10.1092
▁یون	-10.1096
▁دوستانه	-10.1104
است	-10.1108
▁شاخه	-10.1108
▁زاده	-10.111
▁سیگار	-10.1112
▁یکشنبه	-10.1115
▁ضمن	-10.1118
02	-10.1139
▁اولویت	-10.1141
▁کلینیک	-10.1142
▁3-	-10.1149
▁سابق	-10.1152
▁شناسه	-10.1153
▁میزبان	-10.1155
▁سایز	-10.1198
▁مقدمه	-10.1198
ation	-10.1205
▁mm	-10.1207
يت	-10.1211
man	-10.1215
۲	-10.1218
▁شریک	-10.1227
▁ـ	-10.1238
▁شوک	-10.1239
▁w	-10.125
▁LC	-10.1258
▁Google	-10.126
▁آسمان	-10.1285
آ	-10.1286
▁امارات	-10.1288
▁نژاد	-10.1293
▁عجیب	-10.1294
▁min	-10.1297
▁لحاظ	-10.1308
▁محفظه	-10.131
▁مسافر	-10.1311
▁برزیل	-10.1323
600	-10.1324
id	-10.1329
▁مجبور	-10.1332
▁ماجراجویی	-10.1336
▁اخلاقی	-10.1339
▁شهریور	-10.1339
▁جواهرات	-10.1349
ث	-10.135
وا	-10.1357
ad	-10.1365
▁تاتو	-10.1366
▁متداول	-10.1376
▁پوشه	-10.1381
▁روزهای	-10.1385
▁آخر	-10.1387
▁ترکیبات	-10.139
▁مصر	-10.1398
▁جابجایی	-10.1402
▁مهمترین	-10.1406
to	-10.1406
▁بخاری	-10.1407
▁برقرار	-10.1407
▁واجد	-10.141
▁زیپ	-10.1411
▁لوگو	-10.1414
▁interDidactica	-10.1415
▁متغیر	-10.1418
▁پیک	-10.1421
▁ریسک	-10.1427
▁تحقیقاتی	-10.1439
▁تبادل	-10.1444
▁پله	-10.1454
▁اسپانیا	-10.1455
▁مخازن	-10.1455
▁اکریلیک	-10.1485
▁ضعیف	-10.1485
▁خرداد	-10.1491
▁فنلاند	-10.1492
▁آلی	-10.1492
▁Game	-10.1492
38	-10.1492
▁شوهر	-10.1501
▁جرم	-10.1511
▁ثالث	-10.1511
▁اسفند	-10.1511
ar	-10.1519
▁مطابقت	-10.152
▁افتتاح	-10.1522
▁تلگرام	-10.1527
▁130	-10.1538
HZ	-10.1541
▁بورس	-10.1543
▁ترس	-10.1545
▁بل	-10.1548
▁گوشه	-10.1549
▁تجدید	-10.1549
▁اپراتور	-10.1551
▁شکن	-10.1555
▁باکتری	-10.1562
▁نسبی	-10.1568
▁k	-10.1572
▁اسپانیایی	-10.1579
▁توابع	-10.1584
▁يك	-10.1587
▁IEC	-10.1592
▁هشت	-10.1594
▁نیرو	-10.1597
▁قلعه	-10.1598
▁معاملاتی	-10.16
▁اسلات	-10.1603
▁مهدی	-10.1606
▁نوعی	-10.1606
▁صفر	-10.1611
▁API	-10.1618
▁مقصد	-10.1621
▁سیمان	-10.1623
▁1393	-10.1635
▁کابینه	-10.1638
▁نما	-10.1638
▁مذهبی	-10.1642
▁۰	-10.1642
▁نارنجی	-10.1643
▁97	-10.1648
▁رنج	-10.166
▁ارمغان	-10.1663
▁IC	-10.167
▁SGS	-10.1672
▁نشر	-10.1674
▁شانس	-10.1675
▁عضلات	-10.1676
ol	-10.1684
▁یافتن	-10.1695
▁گوناگون	-10.1701
▁بخشد	-10.171
▁فرزندان	-10.1711
▁بارداری	-10.1714
▁میزبانی	-10.1715
68	-10.1718
▁خوابه	-10.1721
▁حالا	-10.1724
▁دارایی	-10.1731
▁63	-10.1734
▁جایگاه	-10.1737
▁مشاغل	-10.1739
▁لی	-10.174
▁طراح	-10.1741
27	-10.1742
سر	-10.1744
03	-10.1745
▁فای	-10.1761
-20	-10.1762
▁خاورمیانه	-10.1764
▁تنش	-10.1767
▁۱۴	-10.1771
▁مقام	-10.1778
▁دریای	-10.178
▁اردیبهشت	-10.1782
▁استقبال	-10.1783
▁مستغلات	-10.1783
▁مشعل	-10.1786
▁دانید	-10.1792
▁مرا	-10.1793
▁گو	-10.1794
▁نگرانی	-10.1802
نوجوان	-10.1811
▁رودخانه	-10.1811
▁جنسیت	-10.1813
يه	-10.1821
▁آفریقا	-10.1825
غ	-10.1832
▁موتورهای	-10.1832
▁کاربید	-10.1837
▁....	-10.1838
▁کانتینر	-10.1839
ro	-10.1844
۶	-10.1846
▁3.	-10.1846
▁آگاه	-10.1847
ستان	-10.1858
-15	-10.1861
▁یابی	-10.1864
▁\	-10.1874
▁آمیز	-10.1875
▁سبزیجات	-10.1877
▁اختراع	-10.1879
▁ایدز	-10.1886
▁لمینیت	-10.1888
▁جداسازی	-10.1888
▁سانتیمتر	-10.1889
ah	-10.1891
▁عکاسی	-10.1907
▁700	-10.1911
▁قلاب	-10.1916
▁بالقوه	-10.1919
▁كار	-10.1919
▁۱۳۹۴	-10.1927
▁دشوار	-10.193
▁قلبی	-10.1932
220	-10.1942
▁متحد	-10.1944
▁Rights	-10.1947
▁ویروسی	-10.1948
▁بدین	-10.1948
▁سوکت	-10.195
▁RS	-10.195
▁جاذبه	-10.195
ft	-10.1953
▁TM	-10.1962
▁تصور	-10.1963
▁خلق	-10.1963
▁تنوع	-10.1964
▁دندانپزشکی	-10.1966
▁CD	-10.197
دا	-10.1978
▁روزه	-10.1979
▁راندمان	-10.1994
▁جزایر	-10.1995
▁---	-10.2005
▁پاسخگویی	-10.2006
▁مبادله	-10.2011
▁چاپی	-10.2011
▁حیات	-10.2017
▁معاون	-10.2026
▁حس	-10.2026
▁افزودنی	-10.2041
▁جام	-10.2041
▁پالس	-10.2048
▁منطق	-10.2054
▁1.4	-10.2057
▁کوچه	-10.2084
▁ندارند	-10.2085
▁بازیکن	-10.2088
▁اسم	-10.2091
▁خشونت	-10.2096
▁تشویق	-10.21
▁والدین	-10.2116
▁سیاره	-10.2116
▁فیدر	-10.2118
▁اره	-10.2119
▁برسد	-10.2124
▁مالکیت	-10.2128
86	-10.2129
▁VR	-10.2134
▁عهده	-10.2135
▁Orphek	-10.2136
نه	-10.2144
▁عراق	-10.2147
▁باران	-10.2151
▁خمیر	-10.2155
▁پیامبران	-10.2155
▁السلام	-10.2156
▁لمس	-10.2157
گاه	-10.2158
▁دانم	-10.2166
▁شمع	-10.2169
▁گذارد	-10.2172
▁ست	-10.2172
▁ایشان	-10.2175
▁نمایندگان	-10.2177
▁تقاضای	-10.2177
▁بازوی	-10.2188
-11	-10.2189
▁مغزی	-10.2193
▁پز	-10.2193
▁مشغول	-10.2193
▁وظایف	-10.2196
▁نازل	-10.22
▁داشتند	-10.2206
▁Reserved	-10.2207
ri	-10.221
▁مرمر	-10.2212
▁حباب	-10.2213
▁مت	-10.2224
▁ارتقا	-10.223
▁پادشاه	-10.2232
▁900	-10.2233
▁لرزش	-10.224
▁وام	-10.2247
▁لب	-10.2247
▁فرزند	-10.2249
۱	-10.225
▁توری	-10.2272
▁رویدادهای	-10.2273
▁نگاهی	-10.2282
▁موقع	-10.2284
ate	-10.2285
▁ایرانیان	-10.2302
▁پارامتر	-10.2306
▁گردیده	-10.2306
▁متعهد	-10.2309
▁راستای	-10.2311
os	-10.2312
▁خیر	-10.2312
▁۲۴	-10.2315
▁نخ	-10.2316
▁سینی	-10.2317
▁هماهنگ	-10.2321
▁زخم	-10.2321
▁نامیده	-10.2326
▁ID	-10.2331
▁سیب	-10.2342
کر	-10.2347
▁ماموریت	-10.235
▁هماهنگی	-10.235
▁انتخابات	-10.2352
▁PTFE	-10.2358
▁l	-10.2364
▁مواجه	-10.2366
▁بدنه	-10.2375
▁اضطراب	-10.2375
▁بين	-10.2382
▁450	-10.2385
▁66	-10.2389
▁فلسطینی	-10.2391
▁مرداد	-10.2395
▁حلال	-10.2397
▁جنبه	-10.2399
اف	-10.24
▁برف	-10.241
دان	-10.2416
▁راهنما	-10.2417
io	-10.2419
سا	-10.2421
▁سیل	-10.2424
▁نیتروژن	-10.2425
ص	-10.2427
▁ST	-10.243
▁بلندگو	-10.2442
▁سد	-10.2443
▁آماری	-10.2444
کا	-10.2445
▁مریم	-10.2451
ion	-10.2453
▁نزد	-10.2461
75	-10.2462
▁ناوبری	-10.2464
▁صد	-10.2468
▁لغزش	-10.247
▁اثربخشی	-10.2473
▁نشت	-10.248
▁رییس	-10.2482
▁فارغ	-10.2482
▁پشتی	-10.2491
▁ویدئویی	-10.2492
▁اپل	-10.2494
▁قبیل	-10.2508
نو	-10.2517
▁سهم	-10.2527
▁فروشنده	-10.2538
▁ترویج	-10.2538
▁سم	-10.2539
▁رایج	-10.2546
▁اشتغال	-10.2546
-01	-10.2551
▁آیتم	-10.2558
▁نقدی	-10.2562
▁230	-10.2564
▁ارایه	-10.2567
able	-10.2572
am	-10.2575
▁امروزه	-10.2579
▁تحقق	-10.258
▁سریال	-10.2588
▁التراسونیک	-10.2588
▁لباسشویی	-10.2588
▁دام	-10.2596
▁68	-10.2604
▁تایوان	-10.2609
el	-10.2609
▁رنگارنگ	-10.2633
▁خواننده	-10.2637
▁re	-10.2653
▁تبلت	-10.266
▁شبانه	-10.266
▁آشنایی	-10.2661
▁۲۱	-10.2668
▁هارد	-10.2682
▁پزشکان	-10.2682
▁یزد	-10.2686
▁موجودی	-10.2687
ul	-10.269
▁پاریس	-10.2693
▁زودی	-10.2698
▁عدالت	-10.2702
▁رقص	-10.2708
▁مترو	-10.2715
▁غذای	-10.2716
▁تقویم	-10.2721
▁فروردین	-10.2726
▁نشانگر	-10.2729
▁مجازات	-10.2731
▁روانی	-10.2741
اری	-10.2742
▁کلسیم	-10.2742
فر	-10.2748
مین	-10.2749
▁۱۶	-10.2757
▁نمای	-10.2757
▁اموال	-10.2763
▁ژن	-10.2773
na	-10.2774
▁۲۵	-10.2774
▁بزرگراه	-10.2775
▁اپلیکیشن	-10.2775
▁آکواریوم	-10.2781
▁آشکار	-10.2784
▁اولتراسونیک	-10.279
▁پرینتر	-10.2794
▁پوش	-10.2796
▁افزودن	-10.2797
▁SAP	-10.28
▁نیم	-10.2801
▁آفتاب	-10.2804
وف	-10.2804
▁1080	-10.2806
▁بارکد	-10.2806
▁یاتاقان	-10.2817
▁متخصصان	-10.2822
▁خواست	-10.2827
▁موانع	-10.2833
▁0.8	-10.2834
جا	-10.2837
▁برده	-10.2842
▁TP	-10.2846
▁پرتاب	-10.2848
تو	-10.285
▁مادون	-10.2851
▁اقیانوس	-10.2853
di	-10.2855
▁کاسه	-10.2857
▁متقابل	-10.2857
▁کنونی	-10.286
▁ح	-10.2866
▁اسکریپت	-10.2866
▁عنصر	-10.2879
▁تشخیصی	-10.2882
▁2007	-10.2884
▁پاییز	-10.2886
▁خوشحال	-10.2887
▁MS	-10.2888
▁شیب	-10.2897
▁٫	-10.2897
▁دادند	-10.2899
▁کلاژن	-10.2904
▁ضخیم	-10.2928
▁پاپ	-10.2937
▁تخریب	-10.2937
▁خطرناک	-10.2937
▁اهل	-10.2943
▁درخشان	-10.2947
بار	-10.2947
▁بعنوان	-10.2956
▁برگه	-10.2959
▁کیفی	-10.2962
▁کمر	-10.2965
کن	-10.2967
▁نخستین	-10.2971
28	-10.2971
▁تکه	-10.2976
▁شهرهای	-10.2977
▁مهار	-10.2978
▁گذاران	-10.2984
▁مبانی	-10.2993
ian	-10.2994
▁۱۷	-10.2997
▁ر	-10.2998
▁جواهر	-10.3006
▁معادل	-10.301
▁سینه	-10.3011
▁ضریب	-10.3012
▁دیگ	-10.3018
ton	-10.3022
▁بحران	-10.3033
▁with	-10.304
▁آذربایجان	-10.3041
▁رهبر	-10.3043
▁محققان	-10.3044
▁نهاد	-10.3045
▁جور	-10.305
▁معمولاً	-10.3052
▁قدم	-10.3056
▁مژه	-10.3065
▁مشترکین	-10.3067
ران	-10.3069
▁معاصر	-10.3071
▁گوانگژو	-10.3074
▁شناخت	-10.3075
▁سدیم	-10.3076
ig	-10.3079
▁افسردگی	-10.308
▁چطور	-10.308
▁سرو	-10.3096
▁سازگاری	-10.3102
▁نداشته	-10.3107
▁دارنده	-10.3109
▁اختلاف	-10.3117
▁جلسات	-10.3118
▁فدرال	-10.3118
▁مسئله	-10.3121
ne	-10.3124
▁تیره	-10.3126
▁SP	-10.3134
▁پازل	-10.3137
▁ره	-10.3138
▁عرصه	-10.3142
▁سلاح	-10.3159
▁کمبود	-10.316
▁توالت	-10.3166
ظ	-10.3173
▁1392	-10.3174
▁ژوئیه	-10.3174
▁اینورتر	-10.3186
▁سیکلت	-10.3187
.1	-10.3187
▁China	-10.3191
▁نقص	-10.32
se	-10.3207
▁منحنی	-10.3213
▁استروئیدها	-10.3214
▁بوی	-10.3214
▁کمترین	-10.3215
▁توربین	-10.3218
▁شیک	-10.3219
▁مهمی	-10.322
سون	-10.3224
▁مهندسین	-10.3231
▁غلتکی	-10.3234
▁0.6	-10.3235
▁الکل	-10.3243
▁‫	-10.3244
▁هنگ	-10.3253
▁موسسات	-10.3268
▁باره	-10.3269
▁چارچوب	-10.327
▁جک	-10.327
▁عزیز	-10.3284
39	-10.3285
▁کارشناس	-10.3287
▁لندن	-10.3288
گو	-10.3289
▁پنجشنبه	-10.3289
▁چشمه	-10.3291
▁آیند	-10.3292
▁عصبی	-10.3299
▁آسیاب	-10.3307
▁بیتی	-10.3313
▁سلولی	-10.3314
▁غروب	-10.3315
▁کارکرد	-10.3328
-30	-10.333
▁حرف	-10.3341
-100	-10.3345
▁غریب	-10.3347
▁شنژن	-10.3347
800	-10.335
▁پیراهن	-10.3357
uk	-10.3363
▁خوانده	-10.3365
▁منافع	-10.3366
▁۲۲	-10.3368
▁اوکراین	-10.3375
▁ترانسفورماتور	-10.3379
▁پسران	-10.3384
▁FSX	-10.3388
▁اطلاعیه	-10.3389
▁منوی	-10.3391
▁ردیاب	-10.3391
▁89	-10.3395
▁شمار	-10.3399
▁قبلا	-10.3403
▁جوراب	-10.3405
▁پایداری	-10.3414
▁نگران	-10.3419
▁بازديد	-10.3422
▁Sha	-10.343
▁نوزاد	-10.343
▁پرنده	-10.3432
▁فراتر	-10.3433
il	-10.3439
▁کنگ	-10.3449
▁PA	-10.3455
08	-10.3475
▁یونان	-10.3478
▁مصالح	-10.3483
▁بیانیه	-10.3488
▁نساجی	-10.349
▁باربی	-10.3492
▁مقامات	-10.3497
▁استراحت	-10.3506
▁جاسوسی	-10.3507
اک	-10.3509
▁الم	-10.3509
▁پیوسته	-10.351
▁موردی	-10.351
▁تبلیغ	-10.3512
04	-10.352
▁سحر	-10.3523
▁فرنگی	-10.3529
▁II	-10.3533
▁سرقت	-10.3533
▁عرب	-10.3533
▁4.	-10.3537
▁92	-10.3539
▁نیازی	-10.354
07	-10.354
▁مرز	-10.3542
وب	-10.3547
CM	-10.3549
▁شهرداری	-10.3577
▁اسانس	-10.3582
▁درستی	-10.3586
▁77	-10.3589
-9	-10.3595
▁حوادث	-10.3595
▁گرانیت	-10.3599
شی	-10.3608
▁بصری	-10.3608
▁درهم	-10.3617
▁2.4	-10.3618
▁شکلات	-10.3624
▁De	-10.3625
71	-10.3625
▁باریک	-10.3625
▁سمی	-10.3629
li	-10.3632
▁چیزهایی	-10.3634
▁بست	-10.3635
▁نی	-10.364
▁آمادگی	-10.3649
▁توليد	-10.3657
▁تزریقی	-10.3658
▁شمارش	-10.366
▁IR	-10.3663
▁کی	-10.3665
▁مصرفی	-10.3667
▁معادن	-10.3672
▁کارگر	-10.3676
▁فکس	-10.3679
▁آیفون	-10.3682
▁وضع	-10.3682
▁مکعب	-10.3684
▁سفت	-10.3694
أ	-10.3697
▁جلب	-10.3702
▁آمیزی	-10.3704
▁رساندن	-10.3707
▁quot	-10.371
▁نیویورک	-10.3714
▁حیوان	-10.3716
ra	-10.372
▁استودیو	-10.3722
▁خویش	-10.3724
▁کنون	-10.3725
یی	-10.3733
▁استروئیدهای	-10.3736
وت	-10.3741
▁ساندویچ	-10.3744
▁فریم	-10.3746
26	-10.3758
▁پیستون	-10.3759
ge	-10.3759
▁جولای	-10.3765
▁رها	-10.3766
▁خستگی	-10.3771
33	-10.3774
▁درختان	-10.3777
▁پیر	-10.378
▁خدماتی	-10.3783
▁میکرون	-10.3787
▁69	-10.379
▁پروفایل	-10.3795
▁چاق	-10.38
▁پرو	-10.3801
▁مستمر	-10.3805
▁بومی	-10.3811
▁حسابداری	-10.3822
▁320	-10.3825
▁شاهد	-10.3835
▁Machine	-10.3835
-50	-10.3836
▁زیستی	-10.3837
▁مترجم	-10.3838
▁حکم	-10.3841
▁تهدید	-10.3842
اء	-10.3852
▁is	-10.3852
▁آمپر	-10.3859
یة	-10.3861
▁61	-10.3862
▁کیش	-10.3868
▁تکامل	-10.387
▁آشامیدنی	-10.3873
▁رسیدگی	-10.3874
▁گناه	-10.3879
▁PM	-10.3882
▁مگر	-10.3885
▁منتظر	-10.389
▁لو	-10.3899
▁جوایز	-10.3903
37	-10.3913
آب	-10.3916
▁میلیارد	-10.3917
51	-10.3918
▁84	-10.3919
▁سامسونگ	-10.392
▁رساند	-10.3924
▁انبوه	-10.3927
▁UPS	-10.393
▁سوء	-10.3931
‬	-10.3933
▁رسول	-10.3937
چه	-10.3942
▁کلیسای	-10.3946
64	-10.3948
▁MOQ	-10.3948
▁شهرت	-10.3949
▁مربی	-10.3954
34	-10.3954
▁چی	-10.3957
▁تایر	-10.396
▁94	-10.3963
▁الیاف	-10.3969
▁عسل	-10.397
▁افزوده	-10.3971
دن	-10.3973
▁گردنبند	-10.3975
▁هنرمندان	-10.3987
▁حکاکی	-10.3989
▁4000	-10.3989
▁بلوند	-10.3991
▁ظریف	-10.4009
▁مقطع	-10.4011
▁دستبند	-10.4015
▁وینیل	-10.4034
َ	-10.4035
▁کر	-10.4039
▁ریاضی	-10.4039
▁6000	-10.4041
▁شیعه	-10.4051
▁62	-10.4055
▁شرت	-10.4056
▁سطل	-10.4068
▁تاکنون	-10.4068
▁آزمایشی	-10.4068
▁خراسان	-10.407
▁خریدار	-10.4075
CH	-10.408
oz	-10.4085
23	-10.4086
▁دچار	-10.4089
▁76	-10.4091
▁مجمع	-10.4099
▁جزء	-10.4099
▁انتهای	-10.4101
▁سنجی	-10.4108
▁مکانی	-10.4109
▁مجلس	-10.4119
▁پچ	-10.4121
▁5-	-10.4122
▁ری	-10.4122
▁نویس	-10.4131
▁عباس	-10.4133
54	-10.4143
▁سل	-10.4144
ستر	-10.4144
IN	-10.4147
▁آدم	-10.4149
▁گلاس	-10.415
▁غلظت	-10.4158
▁تقاضا	-10.416
▁الهام	-10.4162
▁SA	-10.4166
▁نبود	-10.4171
▁شتاب	-10.4179
▁شاهزاده	-10.4179
▁تریلر	-10.4183
▁مفاهیم	-10.4186
▁نوسان	-10.4191
▁پرستار	-10.4196
▁مى	-10.4197
▁93	-10.4198
▁آنکه	-10.4201
▁پوشیدن	-10.4203
▁مسافرتی	-10.4203
▁iOS	-10.4204
▁ماهانه	-10.4206
▁گذشت	-10.4214
▁تراش	-10.4219
-16	-10.422
▁مسطح	-10.4221
▁کاربردهای	-10.4226
age	-10.4232
▁خالکوبی	-10.4235
▁شکستن	-10.4243
۹	-10.4246
▁اختلالات	-10.4246
ER	-10.4259
ma	-10.426
▁خوان	-10.4261
▁گفتگو	-10.4278
▁ساختاری	-10.4281
▁واریز	-10.4286
▁بتواند	-10.429
up	-10.4293
▁تاب	-10.4308
▁بزنید	-10.431
▁تنفس	-10.433
GB	-10.4337
▁محسوب	-10.4338
▁105	-10.4339
▁750	-10.434
▁مکانیک	-10.4341
▁ساعات	-10.4352
а	-10.4356
▁روانشناسی	-10.4357
▁شماست	-10.4363
▁DVB	-10.4364
▁موش	-10.4364
▁مسافران	-10.4371
▁کوپن	-10.4378
▁ابتلا	-10.4381
زا	-10.4383
▁کارمندان	-10.4383
▁قارچ	-10.4386
ry	-10.4386
▁اعتقاد	-10.4391
گیری	-10.4393
▁الملل	-10.4393
▁نماز	-10.4394
▁فایبر	-10.4403
▁۲۶	-10.4403
▁67	-10.4404
▁گ	-10.4406
▁خواهر	-10.4408
▁گلدان	-10.441
▁حفره	-10.4413
▁en	-10.4415
لین	-10.4419
پی	-10.4428
▁تیتانیوم	-10.4434
▁کشت	-10.4434
▁Mar	-10.4439
▁پرکن	-10.444
▁ساحلی	-10.4441
▁AM	-10.4444
▁پیوست	-10.4445
▁هوش	-10.4447
▁نگرش	-10.4448
▁روتاری	-10.4456
▁آشکارساز	-10.4456
▁هفتم	-10.4457
▁اقامتگاه	-10.4459
▁2005	-10.446
AR	-10.4462
▁سبب	-10.4474
چی	-10.4481
نوجوانان	-10.4487
00	-10.4487
▁مگاهرتز	-10.4492
▁پری	-10.45
▁مروارید	-10.4506
▁For	-10.4507
▁1.8	-10.4508
▁128	-10.4522
▁دانشگاهی	-10.4531
95	-10.4544
▁›	-10.455
▁دقیقا	-10.4551
ta	-10.4552
120	-10.4556
▁هندی	-10.4562
53	-10.4562
▁پال	-10.4563
یز	-10.4566
me	-10.4569
▁ماست	-10.4579
▁هلند	-10.4581
52	-10.4582
▁پانچ	-10.4582
ment	-10.4595
▁تماشای	-10.4597
▁اکسترودر	-10.4598
▁قوه	-10.4598
▁گراد	-10.4599
▁پلیمر	-10.4599
▁قند	-10.461
▁گلستان	-10.4612
▁دیافراگم	-10.4615
▁خنده	-10.4623
▁شر	-10.4625
▁HP	-10.4626
▁دسکتاپ	-10.4637
▁تثبیت	-10.4637
▁کالاها	-10.464
150	-10.4641
▁نماد	-10.4641
▁شستشوی	-10.4642
ty	-10.4643
دو	-10.465
▁دریاچه	-10.4653
▁اتخاذ	-10.4656
▁اوکراين	-10.4663
▁هاردکور	-10.4664
فت	-10.4665
▁وصل	-10.4669
▁خمینی	-10.4671
▁مطلق	-10.4674
▁باطری	-10.4674
▁تایلند	-10.4678
▁شهروندان	-10.4682
▁سخن	-10.4683
▁اقلام	-10.4696
▁واسطه	-10.4698
one	-10.47
▁گیربکس	-10.4703
▁زغال	-10.4707
.4	-10.4723
▁سنجش	-10.4724
▁حین	-10.4726
جی	-10.4728
▁١	-10.4729
▁متولد	-10.4729
▁کارها	-10.4731
▁خبری	-10.4736
▁تعمیرات	-10.4737
▁پرستاران	-10.4739
▁واضح	-10.4744
▁فاکتور	-10.4746
▁چندگانه	-10.4748
▁داروسازی	-10.4751
▁مگابایت	-10.4755
▁آجر	-10.4755
▁اوراق	-10.4756
▁Φ	-10.476
▁دم	-10.4764
▁کیوسک	-10.4766
ض	-10.4779
▁مالک	-10.4784
▁نگهدارنده	-10.4785
▁جین	-10.4787
▁بدان	-10.4789
mA	-10.4791
▁مزرعه	-10.4792
▁محوطه	-10.4792
مر	-10.4792
ch	-10.4795
▁BS	-10.4798
▁پرش	-10.4799
▁تونر	-10.4799
▁آنالوگ	-10.48
▁درگیر	-10.4805
▁مشکلی	-10.4817
▁اشخاص	-10.4818
▁خلاق	-10.482
▁احداث	-10.4822
▁اعتیاد	-10.4837
▁پلتفرم	-10.4837
▁آریا	-10.4841
▁کشته	-10.4848
▁ضرب	-10.4854
▁مطلع	-10.4856
▁انیمیشن	-10.4859
▁میدهد	-10.4864
▁نوآورانه	-10.4875
▁نمایه	-10.4879
▁کادر	-10.4881
▁رله	-10.489
▁رادیویی	-10.4891
▁لهستانی	-10.49
▁کافه	-10.4904
▁2500	-10.4904
▁کود	-10.4904
▁پایتخت	-10.4905
▁8.1	-10.4906
▁021	-10.4909
▁مدنی	-10.4909
▁برقراری	-10.4913
ژ	-10.4914
▁تنیس	-10.492
▁۲۹	-10.492
▁öncə	-10.4927
▁سیر	-10.4929
da	-10.4938
▁مواردی	-10.4968
▁مگا	-10.4972
▁مشت	-10.4973
▁پنجم	-10.4975
▁مجرب	-10.4976
▁زا	-10.4979
▁جبران	-10.4989
48	-10.4991
▁OD	-10.5005
▁نظریه	-10.5007
▁امیر	-10.5014
▁منظره	-10.5021
▁قطعی	-10.5025
▁ز	-10.5026
ter	-10.5026
▁هزاران	-10.503
▁هنرمند	-10.503
AL	-10.5034
▁مبارک	-10.5035
نس	-10.5042
▁دینی	-10.5046
▁نقض	-10.5052
▁دوبلکس	-10.5064
▁۲۸	-10.5069
▁87	-10.5074
▁سؤال	-10.5077
▁شور	-10.5092
▁دانشجویی	-10.5097
per	-10.5101
▁جانب	-10.5103
un	-10.5104
▁OS	-10.5106
▁لرزه	-10.5112
ره	-10.5115
مو	-10.5116
о	-10.5116
▁گلوله	-10.5118
▁دانیم	-10.5119
▁ذرت	-10.5122
▁بشری	-10.5126
ant	-10.5132
▁2006	-10.5132
▁اشیاء	-10.5141
▁الکترو	-10.5142
ئو	-10.5145
▁افشان	-10.5149
▁St	-10.515
▁تعامل	-10.5155
▁Iran	-10.5163
▁تطبیق	-10.5169
▁دود	-10.5173
رس	-10.5175
-02	-10.5176
▁سان	-10.5176
▁دیود	-10.5179
▁کرمان	-10.518
▁پنیر	-10.5191
▁پشم	-10.5192
▁شل	-10.5198
▁سوریه	-10.5202
▁LTD	-10.5205
▁شک	-10.5207
▁مپنا	-10.5218
ُ	-10.522
▁بروشور	-10.5226
AN	-10.5228
▁اصطلاح	-10.5229
▁سکته	-10.5229
▁ارتقای	-10.5234
▁ذهنی	-10.5238
▁صوت	-10.5244
▁دفاتر	-10.5249
▁تنهایی	-10.5253
▁سس	-10.5255
▁عاشق	-10.5255
▁گذاشتن	-10.5256
▁شکسته	-10.5258
▁الکتریک	-10.526
▁1.6	-10.5265
▁شی	-10.5266
be	-10.527
▁ادعا	-10.5279
▁رم	-10.5279
▁کمپین	-10.5281
ائی	-10.5281
▁عربستان	-10.5285
▁5.5	-10.5289
▁La	-10.5297
▁کشیده	-10.5298
▁115	-10.5304
▁پروپیلن	-10.5311
▁تولیدات	-10.5316
▁گرانول	-10.5317
▁ملت	-10.5317
▁پوشک	-10.5323
▁ضایعات	-10.5327
▁حملات	-10.5327
▁گلخانه	-10.5333
-18	-10.5333
▁71	-10.5333
▁شرکای	-10.5334
▁زیرزمینی	-10.5336
▁اترنت	-10.5339
▁SUS	-10.5341
▁1.1	-10.5341
▁AA	-10.5343
▁تقلب	-10.5346
▁پناهندگان	-10.5351
▁no	-10.5356
▁تب	-10.5358
▁UTC	-10.5365
▁ناز	-10.5365
▁عضله	-10.5366
▁متشکل	-10.5366
▁gmail	-10.5367
▁بازپرداخت	-10.5367
▁1390	-10.5378
ci	-10.5379
▁مقعد	-10.5392
▁زانو	-10.5396
▁فرو	-10.54
پا	-10.5401
▁ایزو	-10.5403
▁تربیت	-10.5408
▁دارا	-10.5408
فی	-10.5413
▁شادی	-10.5413
▁عظیم	-10.5422
▁مقوا	-10.5426
▁انحصاری	-10.5426
1000	-10.5431
▁نوک	-10.5434
▁شیرینی	-10.5449
وری	-10.546
▁یاطاقان	-10.5465
▁شایع	-10.5466
▁جادو	-10.5467
▁۲۳	-10.5469
▁1391	-10.5469
▁ویبولیتین	-10.5469
▁فله	-10.5494
▁آمدن	-10.5496
▁RO	-10.5496
▁ظهور	-10.5501
HP	-10.5503
▁Li	-10.5506
▁سبزه	-10.5509
لر	-10.5514
▁مفصل	-10.5514
▁أ	-10.5516
▁ذیل	-10.5517
▁مذهب	-10.552
▁3.2	-10.5522
▁فانتزی	-10.5532
▁گیگابایت	-10.5538
▁چاقو	-10.554
▁بازخورد	-10.5542
▁0.01	-10.5547
IC	-10.5548
▁سرپرست	-10.5552
زی	-10.5564
▁4.5	-10.5574
▁تاکید	-10.5582
▁هنرهای	-10.5583
▁0.4	-10.5583
▁توربو	-10.5585
▁قطعا	-10.5592
▁ماندن	-10.5596
▁بشکه	-10.5596
▁سومین	-10.5597
▁FS	-10.5597
▁چیزهای	-10.5601
▁بزرگی	-10.5603
رد	-10.5609
▁موافقت	-10.5611
▁راهکارهای	-10.5613
▁تسهیل	-10.5616
▁o	-10.5617
fa	-10.5617
▁ضوابط	-10.5618
▁بقیه	-10.5619
▁تأسیس	-10.562
▁بخواهید	-10.5626
▁چمدان	-10.563
▁وارداتی	-10.5632
▁یکسان	-10.564
▁سقفی	-10.5642
▁شکر	-10.5645
▁نیک	-10.565
▁170	-10.5657
110	-10.5661
▁همچون	-10.5666
▁New	-10.5668
اند	-10.5672
گیر	-10.5673
▁تفسیر	-10.5676
▁گشتاور	-10.5679
▁ديگر	-10.5679
▁Am	-10.5683
▁ارزشمند	-10.5685
▁مستند	-10.5685
▁دلخواه	-10.5687
▁موزیک	-10.569
▁قوس	-10.5691
▁رمزگذاری	-10.5693
▁لاک	-10.5695
min	-10.5697
▁موجودات	-10.5701
и	-10.5701
2000	-10.5702
▁فروخته	-10.5706
▁Car	-10.5707
▁آنالیز	-10.5708
72	-10.5712
یون	-10.5712
ut	-10.5713
▁تالار	-10.5717
▁پاکستان	-10.5717
▁مبل	-10.5719
پور	-10.5736
▁ریل	-10.5739
▁سفارت	-10.5744
▁Free	-10.5747
▁ممنوع	-10.5753
▁طلوع	-10.5757
61	-10.5757
▁91	-10.576
▁لزوم	-10.5761
ong	-10.5766
ka	-10.5767
▁نسبتا	-10.5767
ab	-10.5767
▁صبر	-10.5777
هم	-10.5779
▁پیوستن	-10.5789
▁اسکورت	-10.5793
▁ار	-10.5794
▁گره	-10.5795
▁سریعتر	-10.5799
▁ساعته	-10.58
▁وسیع	-10.5803
▁مغذی	-10.5805
▁خسته	-10.5805
▁دیابت	-10.5807
▁مسافرت	-10.5812
▁اینستاگرام	-10.5813
▁Download	-10.5814
▁آشپزی	-10.5818
▁کرافت	-10.5826
▁گرامی	-10.5829
▁مرجان	-10.5833
▁کارفرما	-10.5833
29	-10.5834
▁دستکش	-10.5834
and	-10.5839
▁باردار	-10.584
▁Power	-10.5841
ذ	-10.5841
▁سوابق	-10.5847
▁پناهندگی	-10.5847
▁روستای	-10.5848
▁سینمای	-10.5851
SS	-10.5857
▁اپوکسی	-10.5867
▁نبرد	-10.587
▁مناسبت	-10.5873
▁آزادانه	-10.5874
▁QC	-10.5876
▁OOO	-10.588
▁AS	-10.5883
▁ترکی	-10.5884
▁مداخله	-10.5888
مون	-10.5889
▁كشور	-10.589
کل	-10.5893
▁78	-10.5894
▁فرآیندهای	-10.5897
بین	-10.59
ء	-10.5907
▁نیازمند	-10.5912
▁اعصاب	-10.5913
▁VPN	-10.5923
▁ریلی	-10.5929
AC	-10.593
land	-10.5934
▁انگیزه	-10.5937
▁طراحان	-10.5948
▁جمعی	-10.5952
▁بگیرند	-10.596
▁تمرینات	-10.596
▁4.0	-10.5966
▁پوشیده	-10.5967
▁همانند	-10.5968
▁کارفرمایان	-10.597
▁آمریکای	-10.5971
▁حیاط	-10.5975
▁پو	-10.5976
▁نظرسنجی	-10.5977
▁10000	-10.5979
▁مایعات	-10.5994
▁جعلی	-10.6002
▁پذیرد	-10.6004
▁at	-10.6005
یسم	-10.6007
▁نشیمن	-10.6009
▁EA	-10.6021
▁سانتریفیوژ	-10.6022
▁میر	-10.6022
е	-10.6025
ki	-10.6026
▁زیرساخت	-10.6031
▁احتراق	-10.6034
son	-10.6037
ist	-10.6038
▁اسکی	-10.604
▁کارمند	-10.6041
▁۲۷	-10.6043
▁مع	-10.6052
▁تکان	-10.6052
▁لاتین	-10.6054
▁بنز	-10.6054
▁قتل	-10.6056
زن	-10.6056
▁پورتال	-10.606
▁همبستگی	-10.6065
q	-10.6071
▁فرستاده	-10.6083
α	-10.6085
▁آرا	-10.6087
▁لذا	-10.6089
▁ظهر	-10.6093
▁وحشی	-10.6095
▁روستایی	-10.6099
▁نمره	-10.6102
▁داروی	-10.6103
-05	-10.6104
▁آبیاری	-10.6105
AT	-10.6105
▁نباشد	-10.6107
▁نر	-10.6107
▁دمنده	-10.6115
mAh	-10.6118
▁کنسرت	-10.6119
▁حروف	-10.6119
▁میکسر	-10.612
▁برادر	-10.612
▁خدای	-10.6121
▁روحی	-10.6125
ئ	-10.6131
▁رویدادها	-10.6137
▁دائم	-10.614
▁1800	-10.6141
۰۰۰	-10.6142
no	-10.6147
وان	-10.6148
▁Ar	-10.615
سان	-10.6152
▁81	-10.6152
▁میراث	-10.6153
▁خطای	-10.6157
▁نمودن	-10.616
▁BBQ	-10.6162
85	-10.6163
▁محبوبیت	-10.6163
▁مادران	-10.6169
▁زعفران	-10.617
▁PS	-10.6172
▁تدوین	-10.6179
▁صعود	-10.6183
▁استراتژیک	-10.6183
▁کامپیوتری	-10.6187
▁برآورد	-10.6196
▁دانشجو	-10.6198
▁انطباق	-10.62
▁خنثی	-10.62
▁ادبیات	-10.621
.10	-10.6214
▁چگالی	-10.6216
▁نویسندگان	-10.6217
▁تلویزیونی	-10.6222
▁0.9	-10.6224
▁74	-10.623
▁مسجد	-10.623
▁نشد	-10.6232
▁هیات	-10.6234
▁درسی	-10.6236
ee	-10.624
ba	-10.6241
▁ابتدای	-10.6245
▁سروو	-10.6248
▁FDA	-10.6254
وک	-10.6255
▁غزه	-10.6256
ec	-10.6256
▁فرز	-10.6258
▁افزارهای	-10.6265
▁سازماندهی	-10.6266
▁منو	-10.6267
▁کوچکتر	-10.6268
▁آنتالیا	-10.6269
▁چروک	-10.6269
▁مدولار	-10.6269
▁کربنات	-10.628
▁نانومتر	-10.6292
▁فیزیک	-10.6295
▁خان	-10.6295
▁خطرات	-10.6297
▁خازن	-10.6298
cc	-10.6306
▁تاج	-10.6306
▁استاتور	-10.6309
رز	-10.6309
▁منطقی	-10.631
▁1.3	-10.6312
▁چمن	-10.6327
▁نادر	-10.6328
▁بگیرد	-10.6335
▁مترمربع	-10.6347
▁حماس	-10.6352
▁لغت	-10.6355
▁صلاحیت	-10.636
▁تفکر	-10.6369
oo	-10.6373
▁بگویید	-10.6381
ina	-10.6383
▁فضاهای	-10.6383
▁190	-10.6384
az	-10.6386
▁خیره	-10.639
42	-10.639
-60	-10.6391
▁آلوده	-10.6392
▁بازدیدکنندگان	-10.64
▁2004	-10.6408
▁کمال	-10.6408
-14	-10.6411
▁نکرده	-10.6415
▁فردا	-10.6417
▁79	-10.6419
▁73	-10.6422
▁محرک	-10.6424
▁83	-10.6425
▁روزمره	-10.6425
▁زوج	-10.6428
▁شعبه	-10.6429
▁صادق	-10.6433
ap	-10.6435
-24	-10.6437
▁منجمد	-10.6438
▁داند	-10.644
▁نفتی	-10.6442
▁توییتر	-10.6444
▁شام	-10.6446
▁بنیان	-10.6453
▁گرافیکی	-10.6459
یست	-10.6461
▁درایور	-10.6461
▁MM	-10.6463
▁بازده	-10.6464
▁راضی	-10.6467
▁سوئدی	-10.6468
▁تاسیسات	-10.647
▁2.2	-10.6471
-13	-10.6476
▁صاحبان	-10.6479
گونه	-10.6484
▁میانه	-10.6485
▁روبرو	-10.6486
MA	-10.6486
▁چاه	-10.6487
▁شاد	-10.6487
▁جاوا	-10.6495
▁دیروز	-10.6497
MP	-10.6501
▁ور	-10.6503
▁آلیاژی	-10.651
-19	-10.651
est	-10.6511
▁تلفنی	-10.6519
▁آیت	-10.6523
44	-10.6527
▁احتمالی	-10.654
▁تجربی	-10.6553
▁قفس	-10.6559
له	-10.6561
تن	-10.6562
▁سازندگان	-10.6563
▁تاخیر	-10.6564
▁کمکی	-10.6566
▁بمب	-10.6569
يل	-10.6569
▁جواب	-10.6572
▁Dr	-10.6573
▁جیب	-10.6573
▁استقرار	-10.6574
▁مخابراتی	-10.658
▁ویرایشگر	-10.6581
▁DS	-10.6582
▁تدریس	-10.6584
▁پرسشنامه	-10.6585
▁متخصصین	-10.6586
235	-10.6586
▁فرمایید	-10.6588
31	-10.6589
lo	-10.6593
▁HTML	-10.6593
▁چرب	-10.6594
▁حرکتی	-10.66
▁شیخ	-10.6601
▁سالها	-10.6603
▁Light	-10.6603
700	-10.6606
▁محسن	-10.6611
▁ابریشم	-10.662
▁ماوس	-10.6621
▁Mo	-10.6625
▁لیوان	-10.6632
▁Outlook	-10.6633
▁افتاده	-10.6636
▁اجاق	-10.6638
▁کتابچه	-10.6641
▁عروق	-10.6642
▁۱۳۹۳	-10.6646
▁الاستیک	-10.6647
تین	-10.6647
▁بور	-10.6649
▁شرکتهای	-10.6651
▁نيز	-10.6653
▁سرکوب	-10.6659
▁باستان	-10.6669
▁TS	-10.6676
▁بهشتی	-10.6683
▁پایانه	-10.6688
▁زنجیر	-10.6689
▁قلع	-10.669
▁آموز	-10.6692
▁استات	-10.6697
▁رنگدانه	-10.6698
▁بایستی	-10.6701
▁انتشارات	-10.6703
▁براکت	-10.6705
يي	-10.6705
▁رک	-10.6706
▁كردن	-10.671
▁بتوانند	-10.6711
▁DHL	-10.6715
▁رفتاری	-10.6716
▁طرفداران	-10.672
يان	-10.6722
▁میتواند	-10.6724
▁جزئی	-10.6726
▁باب	-10.6728
▁پرندگان	-10.6734
▁طلای	-10.6735
▁نیستید	-10.6735
▁پرچم	-10.6738
▁EVA	-10.6741
▁کلام	-10.6749
▁پتانسیل	-10.675
▁امواج	-10.6759
▁بامبو	-10.676
▁ناگهانی	-10.6762
▁یکنواخت	-10.6765
▁تکیه	-10.6765
TA	-10.6766
▁سکونت	-10.6767
▁انحراف	-10.6774
▁بزرگسال	-10.6782
56	-10.6787
-25	-10.6788
▁تانک	-10.6799
la	-10.6802
▁آپ	-10.6802
▁لطف	-10.6807
▁XP	-10.681
▁تنگ	-10.6817
▁کو	-10.6822
sa	-10.6825
▁بان	-10.6829
▁خسارت	-10.6832
▁رمزنگاری	-10.6832
▁بدهید	-10.6835
جر	-10.6838
▁قلیایی	-10.6841
▁جارو	-10.6843
▁حامل	-10.6844
▁خلاف	-10.6846
▁هی	-10.6848
▁استنلس	-10.6855
▁مکانیسم	-10.6866
▁الگو	-10.6873
نامه	-10.6874
▁اورتان	-10.6874
▁اتریش	-10.6878
▁اب	-10.6883
▁خارجه	-10.6891
▁سوزی	-10.6893
▁سپر	-10.6901
▁قم	-10.6902
▁کلیسا	-10.691
▁82	-10.6915
▁میکنند	-10.6919
88	-10.692
رت	-10.692
▁تاکسی	-10.6922
94	-10.6927
▁خوشمزه	-10.6933
▁بدنسازی	-10.6934
▁RGB	-10.6943
▁FX	-10.6944
▁شکافها	-10.6944
▁اوج	-10.6947
▁روتر	-10.6959
ير	-10.6963
▁تابش	-10.6963
▁پیرامون	-10.6965
▁کان	-10.6971
250	-10.6977
▁کمتری	-10.6977
lin	-10.6978
▁وال	-10.6979
▁رهبران	-10.6981
▁مان	-10.6988
▁معنا	-10.6989
▁720	-10.699
MHz	-10.699
▁غول	-10.6993
-07	-10.6994
▁j	-10.6995
▁650	-10.6997
▁مندی	-10.7001
▁تزیین	-10.7004
▁همکار	-10.7008
79	-10.7011
▁اماتور	-10.7011
▁یوتیوب	-10.7016
▁معاونت	-10.7017
اش	-10.7018
▁دوخت	-10.702
▁حیاتی	-10.7029
ە	-10.7037
▁Con	-10.7038
▁مالزی	-10.7039
dB	-10.7043
▁Wi	-10.7045
▁لاغر	-10.7052
▁عفونی	-10.7053
▁تقریباً	-10.7058
▁SR	-10.7063
▁101	-10.7063
▁برداشته	-10.7068
▁محمود	-10.7071
▁افسانه	-10.7081
89	-10.7086
▁جلوه	-10.7088
▁گرا	-10.7088
▁برو	-10.7093
▁قیمتی	-10.7096
▁اصطکاک	-10.71
af	-10.7101
▁تابلو	-10.7108
▁ذغال	-10.7109
▁Volvo	-10.7109
316	-10.7111
سو	-10.7117
▁تکمیلی	-10.712
▁گچ	-10.7123
▁داشتنی	-10.7125
▁خصوصیات	-10.7126
▁بتوانید	-10.7134
-17	-10.7135
ca	-10.7139
▁روستا	-10.7139
▁افت	-10.7146
▁سا	-10.7147
ْ	-10.7162
160	-10.7163
▁شواهد	-10.7163
۰	-10.7165
▁co	-10.7166
▁وکیل	-10.7168
▁پیروزی	-10.7169
▁Me	-10.7169
▁قدردانی	-10.7175
▁IT	-10.7178
▁کالیبراسیون	-10.718
▁MPEG	-10.7185
▁تزئین	-10.7191
▁Air	-10.7193
▁بایت	-10.7193
▁سونوگرافی	-10.7194
▁آفریقای	-10.7201
▁پستان	-10.7202
▁عددی	-10.721
▁تحول	-10.7211
▁آبجو	-10.7212
جو	-10.7212
بل	-10.7217
41	-10.7217
▁پکیج	-10.7218
▁گندم	-10.7219
-40	-10.7229
▁پروسه	-10.7229
▁ترمیم	-10.7231
▁محله	-10.7236
-200	-10.7236
▁ندارید	-10.7237
▁چکش	-10.7238
▁مخابرات	-10.7242
-06	-10.7244
▁آتی	-10.7244
▁مجلات	-10.7246
▁یاری	-10.7252
▁پاره	-10.7254
▁حسگر	-10.7257
▁مکزیک	-10.7258
▁-40	-10.7261
نز	-10.7262
▁التهاب	-10.7263
▁High	-10.7266
▁زرق	-10.7266
▁گفتگوی	-10.7268
▁سايت	-10.727
▁تازگی	-10.7275
▁-20	-10.7281
▁اتحاد	-10.7288
▁حاشیه	-10.7289
76	-10.7292
▁MOD	-10.7294
▁انتخابی	-10.7296
شهر	-10.7297
▁كرد	-10.7297
▁شدم	-10.73
▁عروسک	-10.7304
▁بتا	-10.7307
▁سینا	-10.7318
▁مستقر	-10.7318
▁HDPE	-10.7318
73	-10.7328
خانه	-10.7331
▁منیزیم	-10.7342
▁مجسمه	-10.7342
ING	-10.7343
info	-10.7343
▁شو	-10.7347
اتی	-10.7353
▁مضر	-10.7357
▁رفاه	-10.736
▁RE	-10.736
▁پنت	-10.7361
▁کارتون	-10.7365
▁AL	-10.7377
▁تحلیلی	-10.7379
▁کبد	-10.738
▁ساکن	-10.7383
▁لودر	-10.7387
▁هیولا	-10.7387
▁اورژانس	-10.739
▁شویم	-10.7393
▁نگر	-10.7394
1-	-10.7398
▁روبل	-10.7401
▁مکرر	-10.7403
▁مذاکره	-10.7404
بو	-10.7404
▁مخالف	-10.7408
▁Ad	-10.7409
KG	-10.7409
▁دشمن	-10.741
▁ایمپلنت	-10.7414
▁سنگاپور	-10.7414
▁الگوهای	-10.7417
ite	-10.742
▁تفنگ	-10.742
▁جنب	-10.7421
▁صدها	-10.7423
▁دبیرخانه	-10.7424
▁رکورد	-10.7429
▁ژاکت	-10.7429
▁اندونزی	-10.743
▁5.0	-10.7433
ive	-10.7433
▁ورزشکاران	-10.7436
▁گرفتند	-10.7437
▁گردان	-10.7439
▁فراوان	-10.7443
ea	-10.7447
▁Privacy	-10.7448
ms	-10.745
▁پکن	-10.7453
▁خودم	-10.7478
▁مسی	-10.7481
▁مهندسان	-10.7485
ti	-10.7495
▁UK	-10.7497
▁پت	-10.7498
▁تجهیز	-10.7498
ha	-10.7499
▁or	-10.7505
▁فراوانی	-10.7507
▁مبنای	-10.7513
AS	-10.7513
▁Play	-10.7514
▁صلیب	-10.752
▁1389	-10.7529
▁کانون	-10.7532
▁آرامی	-10.7533
▁CH	-10.7533
▁مزمن	-10.7536
▁مشاوران	-10.7537
▁كند	-10.7541
▁لنگر	-10.7541
▁هاى	-10.7545
▁چرمی	-10.755
▁پلاس	-10.7551
▁210	-10.7551
نر	-10.7552
▁چ	-10.7554
▁420	-10.7557
▁سعید	-10.7558
▁Le	-10.7558
2.5	-10.7561
▁al	-10.7565
-04	-10.7567
▁فری	-10.7572
▁اظهار	-10.7574
▁مستطیل	-10.7579
▁قد	-10.758
▁احساسات	-10.7583
-08	-10.7586
▁280	-10.7588
▁مچ	-10.7589
▁2.1	-10.7589
▁متعال	-10.7594
▁ضعف	-10.7594
▁واگن	-10.7595
▁عمران	-10.7596
تیک	-10.7603
▁ك	-10.7609
▁فرشته	-10.7615
▁کمان	-10.762
▁مرده	-10.7624
▁تماشا	-10.7625
▁توت	-10.7629
▁بنزین	-10.7632
▁روحانی	-10.7634
▁تعاملی	-10.7635
▁تمدن	-10.764
mo	-10.7643
▁عبدالله	-10.7644
▁cnc	-10.7647
▁اعضا	-10.7659
▁الگوریتم	-10.7659
▁پیتزا	-10.766
▁برنجی	-10.7661
▁گازی	-10.7662
▁کردید	-10.7662
▁صحت	-10.7664
▁پوهنتون	-10.7664
OS	-10.7668
▁مالیاتی	-10.7671
▁جنین	-10.7673
▁دیوید	-10.7675
▁تأکید	-10.7678
ang	-10.7681
▁روم	-10.7684
▁نابود	-10.7688
▁مرسدس	-10.7688
▁ساقه	-10.7689
کاری	-10.7693
▁نسوز	-10.7694
▁7.5	-10.7694
▁اینها	-10.7698
▁خودش	-10.7699
▁ایالت	-10.77
ce	-10.7701
ps	-10.7702
▁دانند	-10.7706
▁مسیرهای	-10.7711
▁مار	-10.7715
▁US	-10.7717
▁نفع	-10.7724
اپ	-10.7732
▁رزولوشن	-10.7738
▁اپسون	-10.7738
▁لانه	-10.7743
▁اسکایپ	-10.7748
▁دعا	-10.7752
78	-10.7759
▁لکه	-10.7759
▁موزاییک	-10.7763
▁سویا	-10.7765
ity	-10.7775
▁وسط	-10.7775
▁مغازه	-10.7778
▁Questions	-10.7783
▁بودم	-10.7784
▁135	-10.7791
69	-10.7792
▁اگرچه	-10.7792
اژ	-10.7803
▁yahoo	-10.7803
▁رحم	-10.7806
تور	-10.7808
▁سنتز	-10.7809
▁آنرا	-10.7811
▁Web	-10.7812
▁کام	-10.7813
▁بستنی	-10.7821
▁البرز	-10.7824
▁پولی	-10.7824
▁RH	-10.7827
▁اعداد	-10.7829
▁بازو	-10.7829
▁تیراندازی	-10.7831
▁بکار	-10.7835
▁بام	-10.7839
▁Jan	-10.784
▁زند	-10.7846
tor	-10.7848
▁پوستی	-10.7851
im	-10.7852
.3	-10.7853
▁روده	-10.7853
Ah	-10.7863
tech	-10.7863
▁9001	-10.7864
▁CR	-10.7867
▁فون	-10.7874
▁پهنای	-10.7875
▁خودمان	-10.7875
91	-10.7876
▁پروردگار	-10.7876
▁دستاوردهای	-10.7878
go	-10.7878
▁اجباری	-10.7879
320	-10.7884
▁روانکاری	-10.7886
▁زدایی	-10.7893
yl	-10.7894
▁ساکنان	-10.7907
▁سوئیت	-10.791
PCS	-10.7912
▁اوایل	-10.7918
▁Tube	-10.7918
▁Policy	-10.792
▁تویوتا	-10.792
▁احزاب	-10.7925
ST	-10.7931
ide	-10.7933
▁زبانه	-10.7937
▁مشی	-10.794
ساز	-10.7943
▁EUR	-10.7945
آن	-10.7948
▁260	-10.7949
سک	-10.7953
▁توانست	-10.7953
ag	-10.7954
▁لیتری	-10.7961
▁سیار	-10.7962
▁رادیاتور	-10.7965
▁ارتعاش	-10.797
▁آیین	-10.7978
▁مأموریت	-10.7981
eh	-10.7985
▁پوستر	-10.7985
▁آکنه	-10.7986
رک	-10.7987
▁CS	-10.7989
▁ماهه	-10.7991
▁شکم	-10.7991
يك	-10.8
▁تشک	-10.8
▁تولیدکننده	-10.8001
▁شعر	-10.8001
pa	-10.8003
سه	-10.8004
فا	-10.8013
▁قهرمان	-10.8014
▁z	-10.8018
▁سيستم	-10.8027
-22	-10.8027
▁نت	-10.8036
▁تئوری	-10.8039
▁افتاد	-10.804
46	-10.8044
▁شکایت	-10.8048
▁برترین	-10.8049
▁ROHS	-10.8053
▁رقم	-10.8055
ent	-10.8057
▁ناهار	-10.8058
▁جهاد	-10.8059
LE	-10.8063
▁معصوم	-10.8063
▁تیز	-10.807
-03	-10.8078
▁غوطه	-10.8078
▁BMW	-10.808
▁مست	-10.8081
▁وقوع	-10.8084
▁کباب	-10.8084
▁۰۰	-10.8089
▁دیوانه	-10.8091
▁محوری	-10.8094
ai	-10.8096
▁براى	-10.8101
▁معیار	-10.8101
▁Win	-10.8105
▁تکنسین	-10.811
09	-10.8119
▁موازی	-10.8122
ph	-10.8125
▁سعودی	-10.8128
▁العمل	-10.8131
▁مر	-10.8135
اره	-10.8143
pro	-10.8143
▁کمپانی	-10.8146
▁سنگی	-10.8149
▁پاکت	-10.8152
▁برداشتن	-10.8156
▁سهولت	-10.8158
▁نژادی	-10.8161
▁لمینت	-10.8166
▁دیواره	-10.8169
▁گنبد	-10.8172
▁FXTM	-10.8172
▁بوت	-10.8177
43	-10.8177
▁108	-10.8188
▁An	-10.8189
▁گانه	-10.8195
▁هدایای	-10.8197
▁850	-10.82
تری	-10.8201
▁pro	-10.8202
▁Min	-10.8203
▁معده	-10.8204
EN	-10.8205
▁خلاقیت	-10.8205
▁شکوه	-10.8208
ip	-10.8209
▁فاطمه	-10.8219
ler	-10.8231
▁MC	-10.8236
▁جلال	-10.8237
▁مدیرعامل	-10.824
▁توریستی	-10.8244
▁سئو	-10.8246
les	-10.8247
99	-10.825
▁بادوام	-10.825
▁زد	-10.8252
▁توانسته	-10.8253
▁پدیده	-10.8255
▁پیشنهادی	-10.8255
▁ابراهیم	-10.8258
▁خیابانی	-10.8259
▁کارگزاران	-10.8262
▁متقاضی	-10.8266
63	-10.8269
62	-10.8275
▁گازهای	-10.8277
MB	-10.8283
▁480	-10.8286
bo	-10.8287
ex	-10.8288
tic	-10.8295
▁بايد	-10.8297
▁پیروی	-10.83
▁جلا	-10.8308
▁مال	-10.8309
▁چنگال	-10.8309
.2	-10.8314
▁فاکس	-10.8318
▁تعجب	-10.833
58	-10.8339
▁GS	-10.8343
▁تمدید	-10.8346
▁Union	-10.8346
گا	-10.8348
▁ناندرولون	-10.8351
ni	-10.8352
▁هو	-10.8354
▁Gr	-10.8356
▁لولا	-10.8357
▁تجارب	-10.8363
▁رولت	-10.8364
شن	-10.8366
▁استثنایی	-10.8372
▁زیان	-10.8374
line	-10.8376
▁ضرورت	-10.8377
▁Inc	-10.838
▁پلان	-10.8381
▁هواپیمایی	-10.8384
▁ناخالص	-10.8392
▁Full	-10.8395
▁معلق	-10.8399
▁مخاطبان	-10.8402
▁SM	-10.8403
ik	-10.8405
▁EC	-10.8405
▁سالهای	-10.8407
900	-10.8413
▁عاشقانه	-10.8414
▁چرخشی	-10.8417
▁May	-10.842
▁جوامع	-10.8425
▁My	-10.8425
▁ي	-10.8429
pc	-10.8432
▁کاشت	-10.8437
زو	-10.8438
داری	-10.844
▁ششم	-10.8446
▁هاستینگ	-10.8446
▁فدراسیون	-10.8447
▁تلسکوپی	-10.8447
مه	-10.8457
▁واکسن	-10.8459
▁داروها	-10.8463
▁Description	-10.8463
▁نظری	-10.8464
▁آرد	-10.8465
▁پروژکتور	-10.8468
▁کرات	-10.847
é	-10.847
▁لزبیین	-10.8472
▁خلبان	-10.8472
کان	-10.8478
▁GT	-10.8482
▁Bo	-10.8484
▁قمار	-10.8486
▁مح	-10.8486
▁بلوط	-10.8496
nd	-10.8502
▁Multi	-10.8503
000	-10.8503
▁Manufacturer	-10.8506
▁دشمنان	-10.8506
▁قراردادهای	-10.8507
ling	-10.8516
▁XHamster	-10.8517
▁استرلینگ	-10.8523
ue	-10.8523
گل	-10.8527
▁تجویز	-10.8527
▁فعالیتهای	-10.8528
▁be	-10.8533
▁بیایید	-10.8533
▁DVR	-10.8534
Ω	-10.8537
▁0.7	-10.8537
▁یادآوری	-10.8539
▁شاسی	-10.854
انا	-10.8542
▁عید	-10.8547
▁محکوم	-10.8548
▁0.05	-10.8549
▁مناظر	-10.8549
▁گاراژ	-10.8549
▁راد	-10.855
CO	-10.8551
▁تجربیات	-10.8555
▁تپه	-10.8568
▁شیلنگ	-10.8571
▁Go	-10.8577
▁مشکی	-10.8577
▁نوشیدن	-10.8577
VDC	-10.8579
ts	-10.858
▁550	-10.8582
▁CFD	-10.8583
▁دوقلو	-10.8584
▁تراز	-10.8587
▁مونو	-10.8591
▁HDMI	-10.8599
▁En	-10.8599
▁صبحانه	-10.86
پل	-10.8606
▁دان	-10.8606
▁Led	-10.8607
▁انسولین	-10.8609
▁Super	-10.861
▁همگام	-10.861
▁Sa	-10.8611
▁ابتدایی	-10.8612
bit	-10.8613
▁قربانی	-10.8621
▁راهی	-10.8625
▁کریستالی	-10.8628
▁افست	-10.8629
▁استقامت	-10.8631
▁تورهای	-10.8636
▁بوشینگ	-10.8638
▁دانمارک	-10.864
84	-10.8641
▁App	-10.8642
▁هرتز	-10.8645
▁نرمال	-10.8645
او	-10.8647
▁اسلحه	-10.8653
▁بالکن	-10.8653
ub	-10.8656
▁فیلترهای	-10.8656
dy	-10.866
▁معین	-10.8663
▁مخاطب	-10.8665
▁sales	-10.8666
▁PV	-10.8666
▁بادکنک	-10.8667
▁سالمندان	-10.867
▁فیوز	-10.8671
▁یابند	-10.8671
▁PH	-10.8673
▁بلژیک	-10.8675
▁دانشجوی	-10.8676
▁فروشندگان	-10.8679
ya	-10.8696
▁پناهگاه	-10.8702
lm	-10.8706
▁کوله	-10.8712
انت	-10.8719
▁Bar	-10.8721
▁خبرنگار	-10.8725
▁قواعد	-10.873
AM	-10.873
▁هاوس	-10.8734
▁com	-10.8741
▁غلطک	-10.8742
▁آورید	-10.8743
SE	-10.8746
RO	-10.8749
▁اعلامیه	-10.875
▁شلیک	-10.8753
▁MDF	-10.876
▁زهرا	-10.8765
96	-10.8766
4.5	-10.8774
▁زیتون	-10.8774
pe	-10.8776
▁حاکم	-10.878
داد	-10.8781
▁معیارهای	-10.8782
▁نبش	-10.8798
▁فرمود	-10.8799
▁عوض	-10.8802
▁لهستان	-10.8802
تک	-10.8804
▁سرم	-10.8805
▁حسینی	-10.8808
▁متعددی	-10.8811
▁مازندران	-10.8813
اج	-10.8813
▁بنیادی	-10.8814
▁دانشمندان	-10.8816
▁سواحل	-10.8818
▁SFP	-10.8819
▁Games	-10.8821
▁پیپ	-10.8822
▁آورند	-10.8824
▁بپرسید	-10.8824
▁میلادی	-10.8827
▁واشنگتن	-10.8829
▁ضرر	-10.8829
92	-10.8833
vi	-10.8834
▁مخرب	-10.8835
▁3.7	-10.8835
▁اسیدهای	-10.8836
▁روزی	-10.8839
▁کالیفرنیا	-10.884
▁مروری	-10.8841
▁متقاضیان	-10.8841
,385	-10.8841
▁میکنیم	-10.8842
▁لاتکس	-10.8847
گران	-10.8847
▁مکالمه	-10.8852
▁چنانچ	-10.8853
▁112	-10.8854
▁نظم	-10.8854
-80	-10.8855
▁گذاشت	-10.8856
▁مختصر	-10.8856
▁y	-10.8856
▁نهادهای	-10.8858
ny	-10.8859
▁دانستن	-10.8861
علی	-10.8861
▁محرمانه	-10.8863
-09	-10.8864
232	-10.8864
74	-10.8864
▁متعادل	-10.8868
▁مدرس	-10.887
▁اکسیدان	-10.887
▁خریداران	-10.887
RS	-10.887
▁خشن	-10.8877
▁کالری	-10.8882
▁چتر	-10.8883
▁پان	-10.8883
▁Ch	-10.8885
▁غ	-10.8888
▁پیشین	-10.8889
▁کشوری	-10.8889
▁گنجینه	-10.8891
▁نوزادان	-10.8892
▁Top	-10.8895
▁استوانه	-10.8899
ot	-10.8913
▁NC	-10.8913
▁امیدوارم	-10.8917
▁چارت	-10.8919
▁خفیف	-10.8919
▁منشور	-10.8924
▁یونانی	-10.8931
▁سیتی	-10.8934
ani	-10.8934
▁گوسفند	-10.8936
▁ابری	-10.8938
ay	-10.8939
▁مدیریتی	-10.8941
▁بي	-10.8944
▁۳۱	-10.8945
▁118	-10.8946
▁مزایا	-10.8946
▁خراب	-10.8951
▁تار	-10.8952
▁Se	-10.8956
بن	-10.8957
▁دفع	-10.8957
▁Western	-10.8958
شناسی	-10.896
▁330	-10.8967
ak	-10.8967
ek	-10.8968
▁فلفل	-10.897
▁ات	-10.8973
▁روشهای	-10.8973
▁DVD	-10.8978
مت	-10.8983
▁2003	-10.8985
▁ناپذیر	-10.899
ru	-10.8992
▁گرایش	-10.8994
▁فرود	-10.8995
▁5.	-10.8999
▁JIS	-10.9002
▁تروریستی	-10.9006
ner	-10.9006
▁راز	-10.9007
▁ازای	-10.9007
▁درونی	-10.9008
▁جرقه	-10.9009
▁قضایی	-10.9009
▁شامپو	-10.901
▁ساق	-10.9014
▁کانکتور	-10.9021
▁شهادت	-10.9026
▁برون	-10.9031
▁مؤسسه	-10.9032
▁ریزش	-10.9032
▁بخاطر	-10.9038
یدن	-10.9039
▁AP	-10.904
انگ	-10.9042
less	-10.9042
▁دوار	-10.9043
▁st	-10.9043
▁آنودایز	-10.9043
▁‬	-10.9044
ou	-10.9048
▁آزمایشات	-10.9051
▁ثانویه	-10.9056
▁بسيار	-10.9057
▁ندهید	-10.9066
▁جناب	-10.9067
▁رسمیت	-10.907
▁دیوارهای	-10.9074
▁Sp	-10.9075
▁تراکتور	-10.9077
▁پاس	-10.908
▁الان	-10.9081
▁فراز	-10.9084
▁طرفدار	-10.9084
ژن	-10.9086
▁ویلاهای	-10.9086
▁زير	-10.9088
IS	-10.9088
▁آنزیم	-10.9092
Fi	-10.9095
▁یورنشیا	-10.91
▁گالن	-10.9109
▁Ni	-10.9116
▁بویلر	-10.9118
▁ماهر	-10.9118
▁استریو	-10.9119
▁Mac	-10.9122
CC	-10.9123
▁علل	-10.9123
▁مشورت	-10.9125
ün	-10.9126
▁خشم	-10.9127
▁تدارکات	-10.9127
▁الکترومغناطیسی	-10.9133
▁جراح	-10.9134
▁الت	-10.9137
0.00	-10.9145
▁مسلمانان	-10.9146
AH	-10.9149
▁پارتیشن	-10.9149
▁دشت	-10.9151
▁ستایش	-10.9152
▁کریم	-10.9154
▁آکادمی	-10.9156
PA	-10.9157
▁موسی	-10.9157
▁کرج	-10.9157
▁1100	-10.9161
پس	-10.9165
▁وقفه	-10.9168
▁هود	-10.9172
▁بيشتر	-10.9173
بخش	-10.9176
▁ملایم	-10.9176
▁SMT	-10.9177
▁دامن	-10.918
▁گان	-10.918
▁روروک	-10.9181
▁دستمال	-10.9183
▁Ex	-10.9183
ON	-10.9185
بند	-10.9186
▁یوان	-10.9186
83	-10.9189
▁اشتعال	-10.9192
▁صابون	-10.9193
SA	-10.9198
▁۱۳۹۲	-10.9198
▁ظاهری	-10.9199
out	-10.9203
▁پردیس	-10.9211
▁GR	-10.9214
▁پاسپورت	-10.9215
▁Ro	-10.9216
▁اسمی	-10.9218
▁Jul	-10.922
▁گوجه	-10.9221
▁تاریک	-10.9225
▁WPC	-10.9225
▁عام	-10.9228
▁At	-10.9228
0000	-10.9229
▁106	-10.9233
▁امضاء	-10.9233
▁چسبندگی	-10.9233
▁ارگانیک	-10.9234
▁آم	-10.9234
001	-10.9235
▁طرز	-10.9235
ear	-10.924
یکه	-10.9241
▁قضاوت	-10.9245
▁افکار	-10.9248
▁تابلوچسبها	-10.9256
ae	-10.9257
▁رسم	-10.9261
▁قوطی	-10.9268
▁بروزرسانی	-10.9268
▁بوسیله	-10.9274
▁کدهای	-10.9276
▁گریز	-10.9283
▁اساتید	-10.9285
▁كل	-10.9288
he	-10.9289
▁Nov	-10.929
▁بارها	-10.9301
▁مديريت	-10.9303
▁CC	-10.9305
ber	-10.9311
▁آنهایی	-10.9312
▁ابرو	-10.9313
▁شیار	-10.9315
▁شکار	-10.932
▁WIFI	-10.932
▁جوی	-10.9322
▁KB	-10.9326
▁وسلم	-10.9326
▁ارجاع	-10.9327
▁Vi	-10.9328
▁وحدت	-10.9332
▁Smart	-10.9335
▁لاغری	-10.9338
▁پسند	-10.9343
▁رضوی	-10.9344
▁نوبه	-10.9346
سین	-10.9347
▁HS	-10.9347
▁کارخانجات	-10.9349
▁خودروهای	-10.9353
▁ابو	-10.936
▁ASME	-10.9361
▁8000	-10.9365
▁تحریم	-10.9367
▁پيش	-10.9369
▁موس	-10.9371
▁اون	-10.9373
▁لیسانس	-10.9373
یده	-10.9374
▁گستر	-10.9378
▁لیگ	-10.9379
▁خیریه	-10.938
▁باشم	-10.9384
ium	-10.9388
▁تداخل	-10.9391
▁IS	-10.9392
▁بسکتبال	-10.9396
▁زیبای	-10.9399
▁اکسترود	-10.9401
▁پیمان	-10.9404
▁پیامک	-10.9406
-300	-10.9408
.5	-10.9408
▁سولفات	-10.9409
▁FC	-10.9413
▁FR	-10.9417
▁قیر	-10.9418
▁هستی	-10.942
▁کاوه	-10.9422
▁مجارستان	-10.9426
▁خواستار	-10.943
FT	-10.9431
▁شفافیت	-10.9431
▁اور	-10.9432
▁Group	-10.9438
▁کلاچ	-10.9441
▁پاشنه	-10.9444
▁admin	-10.9451
EL	-10.9451
▁1600	-10.9458
▁منتخب	-10.9467
au	-10.947
MS	-10.9471
▁میشوند	-10.9472
▁برطرف	-10.9473
▁6.5	-10.948
▁گوانگدونگ	-10.9485
▁استروژن	-10.9488
▁دیدم	-10.9488
▁TV	-10.9493
دل	-10.9498
▁آگوست	-10.95
▁MD	-10.95
گری	-10.9502
▁کوارتز	-10.9503
▁کراوات	-10.9503
▁ضلعی	-10.9511
ادی	-10.9511
ies	-10.9514
▁متون	-10.9515
ke	-10.9516
▁شهروندی	-10.9516
▁حقیقی	-10.9521
▁شاپ	-10.9523
▁خوری	-10.9525
▁نشریات	-10.9527
▁گوشتی	-10.9529
▁مانیتورینگ	-10.9529
▁EX	-10.9531
▁زامبی	-10.9534
▁آزار	-10.9538
▁ماوراء	-10.9539
▁فقیه	-10.9539
5000	-10.9541
▁لات	-10.9543
▁ضدعفونی	-10.9545
▁پاسخگو	-10.9547
▁استعداد	-10.955
▁قطعنامه	-10.9552
▁پارسیان	-10.9553
▁ارمنستان	-10.9557
IP	-10.9559
▁روایت	-10.9562
▁چیلر	-10.9569
▁باربری	-10.9575
▁اعم	-10.9578
▁Data	-10.9583
▁نروژ	-10.9585
▁گارد	-10.9587
iz	-10.9591
▁شلنگ	-10.9594
▁مراقب	-10.96
اه	-10.9603
art	-10.9604
▁پشته	-10.9609
▁قزوین	-10.9611
ته	-10.9612
▁کالای	-10.9612
▁جسم	-10.9617
ard	-10.9618
▁Ra	-10.9621
OR	-10.9621
▁102	-10.9628
▁خورد	-10.9629
وئید	-10.963
▁PRO	-10.963
شو	-10.963
▁نادرست	-10.9632
▁اعلان	-10.9633
ell	-10.9635
set	-10.9637
▁فعاليت	-10.964
▁فرسایش	-10.9641
▁فرآورده	-10.9641
▁PR	-10.9643
▁تراکنش	-10.9648
▁مولتی	-10.9653
▁بشقاب	-10.9653
▁مناسبی	-10.9654
▁بدنی	-10.9657
▁اپتیک	-10.9657
▁سودمند	-10.966
▁ناتوانی	-10.9661
▁خیال	-10.9664
ana	-10.9666
▁متاسفانه	-10.9671
يک	-10.9672
▁ایرلند	-10.9673
▁هدر	-10.9673
▁فکری	-10.9689
▁پراکنده	-10.969
▁تختخواب	-10.969
▁محموله	-10.9696
بان	-10.9697
▁DN	-10.9698
▁لنگ	-10.9698
▁کنسرو	-10.9708
سن	-10.9708
▁103	-10.9709
VAC	-10.9712
km	-10.9713
▁منظر	-10.9716
▁پیکر	-10.9717
▁نشسته	-10.972
لند	-10.9722
▁مراجع	-10.9725
▁متمایز	-10.9726
▁آلیاژهای	-10.9727
▁موضعی	-10.9732
ice	-10.9733
▁سالگرد	-10.9736
▁عموم	-10.9737
▁اواخر	-10.9738
▁حوله	-10.9746
▁میهمانان	-10.9748
▁تقدیر	-10.975
▁ورزشگاه	-10.9753
▁Ningbo	-10.9757
▁گذرنامه	-10.9757
▁AV	-10.976
▁میتوان	-10.9761
وال	-10.9763
▁بنویسید	-10.9763
▁بس	-10.9765
▁رمضان	-10.9769
▁FOB	-10.9771
▁دموکراسی	-10.9775
▁توصیفی	-10.9789
-21	-10.979
0.000	-10.9791
▁تگ	-10.9793
▁زائد	-10.9793
ja	-10.9797
▁سوزنی	-10.9801
▁اسفنج	-10.9805
الی	-10.9806
▁id	-10.981
▁ملاحظه	-10.9812
▁رایحه	-10.9812
▁جديد	-10.9812
▁قرآنی	-10.9813
▁Pre	-10.9816
▁قسط	-10.9818
▁آمازون	-10.9824
▁RJ	-10.9825
رب	-10.9827
▁شیرازی	-10.983
▁كا	-10.9831
قی	-10.9835
▁نمرات	-10.9836
▁شبه	-10.9836
▁OM	-10.9838
▁Plus	-10.984
▁ماهیت	-10.9852
▁1300	-10.9856
▁آفتابی	-10.9858
▁2.8	-10.9858
▁اینچی	-10.986
▁تظاهرات	-10.9862
اط	-10.9864
اتور	-10.9866
▁اعتراض	-10.9872
نج	-10.9877
▁104	-10.9877
ron	-10.9878
▁دکتری	-10.9879
so	-10.9883
▁هیدروژن	-10.9886
بری	-10.9886
▁ماریو	-10.9887
▁استادیار	-10.9892
PC	-10.9892
▁صف	-10.9895
▁قطبی	-10.9895
▁کرمانشاه	-10.9898
▁پرتقال	-10.9904
▁آفلاین	-10.9904
▁جم	-10.991
▁145	-10.9912
▁un	-10.9912
▁بازتاب	-10.9913
▁فراخوان	-10.9915
▁اتفاقی	-10.9915
▁حدیث	-10.9917
پیر	-10.9919
▁اژدها	-10.9923
▁لیفتراک	-10.9923
ator	-10.9924
▁ابن	-10.9933
▁جداول	-10.9934
.0	-10.9934
▁اهواز	-10.9935
▁آجیل	-10.9936
▁عیب	-10.9936
▁گرفتار	-10.9939
تس	-10.994
op	-10.9941
▁یه	-10.9944
▁Mobile	-10.9947
▁Office	-10.9957
-28	-10.9958
▁نیمی	-10.996
یش	-10.996
▁123	-10.9963
▁EDM	-10.9963
▁استدلال	-10.9967
▁صادراتی	-10.9968
▁راک	-10.997
ure	-10.9973
ys	-10.9979
▁گیتار	-10.9981
▁مرزی	-10.9981
AD	-10.9984
bar	-10.9987
EC	-10.9988
▁ورد	-10.9988
▁2.3	-10.9992
▁VIP	-10.9992
▁پروب	-10.9997
▁حرکات	-10.9998
▁ادرار	-10.9998
▁برادران	-11.0003
▁بالش	-11.0014
▁ماتریس	-11.0017
▁جاسازی	-11.0019
▁تسهیلات	-11.0019
▁چهارمین	-11.0022
AP	-11.0022
ES	-11.0023
▁ادراک	-11.0023
▁آمینه	-11.0026
زان	-11.003
▁گیلان	-11.0033
ash	-11.0035
ance	-11.0046
▁تعلق	-11.0048
▁مکانیزم	-11.0048
ok	-11.0049
▁Mi	-11.005
▁دکور	-11.0053
▁بک	-11.0055
▁برگزیده	-11.0059
▁کاست	-11.0061
▁روي	-11.0061
▁مسیحی	-11.0065
▁کا	-11.0073
▁0.00	-11.0075
سل	-11.0076
111	-11.0078
▁Anti	-11.008
▁ستاد	-11.0082
▁انگلیس	-11.0085
▁سنی	-11.0085
▁Bit	-11.0089
▁لیمو	-11.009
▁RC	-11.0093
▁گلو	-11.0098
▁آسیای	-11.0101
▁جسمی	-11.0105
▁کردستان	-11.0106
ho	-11.0108
▁نداشت	-11.0111
▁بستری	-11.0112
▁رسوب	-11.0133
ونی	-11.0138
▁دلفریب	-11.0138
▁LLC	-11.0139
نام	-11.014
اق	-11.0141
▁ترخیص	-11.0143
em	-11.0145
▁افرا	-11.0145
▁باکس	-11.0147
▁تگزاس	-11.0149
▁حلق	-11.0154
▁نمائید	-11.0156
▁نشود	-11.0157
▁سمینار	-11.0161
▁ظرفشویی	-11.0162
▁آنال	-11.0164
▁111	-11.0167
▁بابل	-11.0168
lam	-11.0169
▁سؤالات	-11.0172
▁پلیمری	-11.0174
▁دراز	-11.0176
ویل	-11.018
▁تعلیم	-11.0183
▁دروغ	-11.0184
▁تعالی	-11.0186
▁کنوانسیون	-11.0187
▁گریل	-11.0188
▁مسلمان	-11.019
▁you	-11.0193
▁میلاد	-11.0194
▁آیات	-11.0195
ous	-11.0196
if	-11.0198
▁CF	-11.0199
رن	-11.02
▁وای	-11.0202
▁ابراز	-11.0209
▁بگو	-11.021
lar	-11.0212
▁تدریج	-11.0216
sk	-11.0221
▁کلان	-11.0222
▁هیدرو	-11.0222
▁جوملا	-11.0222
▁Mini	-11.0222
eb	-11.0224
▁Technology	-11.0226
▁شرایطی	-11.0226
▁پردازد	-11.0228
▁CAT	-11.023
▁آنجایی	-11.0234
▁میگیرد	-11.0236
▁آلفا	-11.0238
▁واتساپ	-11.0239
▁ببر	-11.024
▁کشتن	-11.0243
▁گردند	-11.0249
▁GSM	-11.025
▁اشغال	-11.025
▁6.0	-11.025
▁چنان	-11.0252
▁ناشر	-11.0255
▁مشخصه	-11.0258
ary	-11.0259
101	-11.026
3.5	-11.026
▁قبال	-11.0264
فو	-11.0264
▁سندرم	-11.0265
مال	-11.0265
▁DE	-11.0272
▁گیت	-11.0278
▁طوفان	-11.0283
▁تسکین	-11.0284
▁View	-11.0285
▁کاشان	-11.0287
▁بارهای	-11.0289
▁امتداد	-11.029
mi	-11.0294
▁بافندگی	-11.0296
▁امیدواریم	-11.0298
ari	-11.0299
TS	-11.0303
▁راستا	-11.0308
▁آرژانتین	-11.0309
ID	-11.0311
▁GE	-11.0314
▁پوکر	-11.0316
▁مجزا	-11.032
▁درگاه	-11.0323
▁عليه	-11.0323
▁CA	-11.0323
▁یقه	-11.0328
▁۰۲۱	-11.0331
▁بت	-11.0337
▁Archives	-11.0339
▁پودری	-11.0346
▁محقق	-11.0349
▁مگاوات	-11.035
▁۵۰	-11.035
▁شهرها	-11.0351
▁باروری	-11.0354
▁کیلووات	-11.0355
اید	-11.0355
▁متالورژی	-11.0361
ting	-11.0362
▁Bitcoin	-11.0374
▁نژادهای	-11.0377
▁خاطرات	-11.0381
ct	-11.0386
▁دپارتمان	-11.0387
▁San	-11.0393
▁Un	-11.0397
▁رعد	-11.04
▁310	-11.0404
▁FREE	-11.0407
▁تله	-11.0408
▁اسپ	-11.0408
▁2002	-11.041
▁بدهی	-11.041
▁قبرس	-11.0411
▁تجاوز	-11.0413
▁RoHS	-11.0413
▁فعالان	-11.0413
▁تام	-11.0417
▁PPR	-11.043
▁راهکار	-11.0433
▁حمید	-11.0436
▁آهنی	-11.0436
▁Alanya	-11.0439
▁AR	-11.044
▁Auto	-11.0442
▁فیلد	-11.0449
NO	-11.0454
وند	-11.0457
▁ادارات	-11.0459
mer	-11.0461
▁ME	-11.0461
IA	-11.0463
▁اسکوتر	-11.0466
اکنون	-11.0469
▁HGH	-11.0474
▁Cat	-11.0476
مند	-11.0477
▁شنیده	-11.0478
▁قرقره	-11.0479
RA	-11.0482
▁نیجریه	-11.0485
▁الکترود	-11.0485
▁فراصوت	-11.0485
▁رس	-11.0486
▁فک	-11.0488
mp	-11.0493
▁گفتن	-11.0496
▁پارتی	-11.0498
▁Trenbolone	-11.0498
اي	-11.0501
▁قزاقستان	-11.0507
▁درپوش	-11.0507
▁گیگاهرتز	-11.0511
▁محاسبات	-11.0517
رون	-11.0517
▁خازنی	-11.0519
▁متیل	-11.052
▁430	-11.0524
▁لجستیک	-11.0525
▁صلی	-11.0527
▁یك	-11.0527
▁کلودیو	-11.0527
box	-11.0529
ینا	-11.0529
tion	-11.053
gen	-11.053
▁انقضا	-11.0531
DA	-11.0532
▁ALL	-11.0536
▁Server	-11.0536
va	-11.0537
▁مذکور	-11.0538
نیا	-11.054
▁سپاه	-11.0544
▁Qu	-11.0546
ated	-11.0548
▁مثلا	-11.055
▁سلسله	-11.0551
ung	-11.0557
-0	-11.0558
oc	-11.0559
▁محتویات	-11.0565
▁سرنوشت	-11.0571
▁شعاع	-11.0582
47	-11.0584
كار	-11.0586
eg	-11.0587
▁شیطان	-11.0589
▁کلمبیا	-11.0591
▁دندانه	-11.0595
▁270	-11.0603
light	-11.0605
زاده	-11.0605
▁کارگزار	-11.061
▁رگ	-11.0612
▁یاب	-11.0618
▁By	-11.0618
210	-11.062
▁El	-11.0623
▁Book	-11.0624
وش	-11.0627
▁مراتب	-11.0627
▁گذر	-11.0628
ran	-11.0636
▁سالاد	-11.0639
▁me	-11.0639
▁بخشیدن	-11.0639
▁بازداشت	-11.064
▁نوشت	-11.0641
▁نمودند	-11.0643
▁خراش	-11.0644
▁لبنان	-11.0644
یکس	-11.0649
▁صخره	-11.0651
▁امولسیون	-11.0658
▁اتهام	-11.0659
▁پادشاهی	-11.066
ham	-11.0661
▁GRATIS	-11.0664
▁بورد	-11.0664
▁مداد	-11.0665
▁IPL	-11.0666
▁انفرادی	-11.0671
▁ثروت	-11.0671
▁برساند	-11.0672
رین	-11.0672
یوم	-11.0673
▁خونی	-11.0674
▁نیو	-11.0677
tə	-11.068
▁پرکننده	-11.0682
GP	-11.0682
▁Tri	-11.0684
▁TNT	-11.069
▁DP	-11.0691
▁سوپرمارکت	-11.0691
▁تبریک	-11.0698
▁آبکاری	-11.0702
▁سوزاندن	-11.0702
420	-11.0705
▁عامه	-11.0707
57	-11.0709
بد	-11.071
▁آیه	-11.0712
ish	-11.0714
▁کنسول	-11.0715
▁کوک	-11.0716
350	-11.0718
▁ویدیویی	-11.0719
کت	-11.072
▁Video	-11.073
▁محض	-11.073
▁کدپستی	-11.0731
let	-11.0739
▁علیرضا	-11.0745
▁114	-11.0746
▁غیرقابل	-11.0746
▁رویه	-11.075
▁Service	-11.0752
يز	-11.0754
▁ناشناس	-11.0759
▁نبات	-11.076
▁بدهد	-11.0761
▁کنی	-11.0765
▁ترموستات	-11.0765
▁بکشید	-11.0765
-35	-11.0768
▁نوت	-11.0769
end	-11.0769
▁کروی	-11.077
▁پلاست	-11.0771
▁شاغل	-11.0772
RE	-11.0773
▁بتنی	-11.0774
ten	-11.0775
▁اخراج	-11.0779
▁لبخند	-11.0785
▁سرمايه	-11.0786
▁تل	-11.0788
▁متناوب	-11.0792
po	-11.0795
▁109	-11.0796
▁میکنید	-11.0796
▁نیوزیلند	-11.0799
▁شیوع	-11.0799
▁آسانی	-11.08
▁Black	-11.0806
▁متنی	-11.0806
▁یوگا	-11.0808
▁کلرید	-11.0809
▁خاتم	-11.081
▁توخالی	-11.0813
▁مهلت	-11.0813
▁امضای	-11.0813
-26	-11.0813
ens	-11.0815
▁دکترا	-11.0816
▁CAD	-11.0817
▁پاها	-11.0818
▁کال	-11.0818
▁دیجیتالی	-11.0823
▁Atlantik	-11.0833
▁AISI	-11.0833
▁نوبت	-11.084
▁دبیرستان	-11.0842
▁گردآوری	-11.0847
▁نباشید	-11.0854
▁رونق	-11.0854
▁حفاظتی	-11.0858
▁روزها	-11.0859
▁معقول	-11.086
▁زنبوری	-11.0863
▁سونا	-11.0865
لان	-11.0868
قه	-11.0871
▁همدان	-11.0873
▁1387	-11.0875
▁175	-11.0876
▁هرچه	-11.0876
▁اهدا	-11.0877
97	-11.0879
▁Di	-11.0881
ov	-11.0883
▁فاقد	-11.0888
▁۱۰۰	-11.089
ولی	-11.089
جه	-11.0892
شت	-11.0893
کم	-11.0896
▁عروس	-11.0899
ً	-11.0901
▁نياز	-11.0901
ولوژی	-11.0903
▁پارسی	-11.0903
-70	-11.0905
▁فقه	-11.0906
▁117	-11.091
▁دفترچه	-11.0912
▁تند	-11.0923
sp	-11.0923
تل	-11.0923
PS	-11.0924
om	-11.0925
▁کروز	-11.0928
2.1	-11.0932
ME	-11.0933
do	-11.0935
▁تلگراف	-11.0936
▁کثیف	-11.0938
▁GP	-11.094
▁آیکون	-11.0943
▁گردشگران	-11.0945
▁دفعه	-11.0947
یف	-11.0948
لزبیین	-11.0949
▁مخروط	-11.0955
▁مناقصه	-11.0956
▁ANKO	-11.0956
▁Bio	-11.096
▁ران	-11.0964
▁افغان	-11.0967
ابی	-11.0969
▁غالب	-11.097
▁3.3	-11.0979
▁جلوی	-11.0981
▁تجمع	-11.0984
▁مسکو	-11.099
▁تصویربرداری	-11.0992
اع	-11.0995
▁قرع	-11.0998
▁اسکیت	-11.0998
way	-11.1001
▁اصلاحات	-11.1003
▁اهرم	-11.1003
▁دوتایی	-11.1004
رم	-11.1007
▁فرصتی	-11.1009
بازی	-11.1009
▁گرمای	-11.101
▁رایتل	-11.1015
شا	-11.1016
▁زنجان	-11.1017
▁غیرفعال	-11.1019
▁توزین	-11.1019
▁تعهدات	-11.1024
▁ایفا	-11.1025
▁فلنج	-11.1025
850	-11.1026
▁معلومات	-11.1027
▁BA	-11.1028
ast	-11.1033
▁views	-11.1034
▁گمرک	-11.1035
▁میگردد	-11.1035
▁TT	-11.1035
▁افتخارات	-11.1035
▁تایمر	-11.1036
▁توانمندی	-11.1038
▁گفتند	-11.104
213	-11.1045
▁موضوعی	-11.1046
▁بگویم	-11.1048
▁مقدم	-11.105
اور	-11.105
▁کاذب	-11.1053
▁SH	-11.1057
▁چهل	-11.1061
▁حاد	-11.1062
▁AI	-11.1065
▁طريق	-11.1067
tr	-11.1069
▁هیجانی	-11.107
,000,000	-11.1072
▁اجراییه	-11.1073
▁كننده	-11.1073
▁اعطا	-11.1075
▁Da	-11.1076
▁پروپیونات	-11.1077
▁آواز	-11.1078
▁مهمانی	-11.1083
SP	-11.1085
▁کواکسیال	-11.1088
کننده	-11.1093
59	-11.1095
▁انژکتور	-11.1095
▁بانکداری	-11.1097
▁خو	-11.1099
هاى	-11.1102
CT	-11.1105
▁فرآوری	-11.1106
فن	-11.1107
▁بیهوشی	-11.1109
▁استقلال	-11.1109
php	-11.111
▁عهد	-11.112
ins	-11.112
▁مل	-11.1121
4000	-11.1123
وه	-11.1126
▁Max	-11.1126
▁فلسطین	-11.1126
▁Ma	-11.1127
▁بهادار	-11.1129
فل	-11.113
▁فرعی	-11.113
TI	-11.1131
هر	-11.1132
▁ستد	-11.1135
▁معلمان	-11.1136
▁مایکروویو	-11.1137
▁آهسته	-11.1137
▁بلا	-11.1138
▁بماند	-11.1138
▁کاوش	-11.1139
▁کمپ	-11.1139
▁زود	-11.114
345	-11.1142
▁جبهه	-11.1144
▁کنترلر	-11.1146
ence	-11.1146
▁فهم	-11.1147
▁همسایه	-11.1151
▁اکشن	-11.1151
180	-11.1156
▁آس	-11.1157
▁256	-11.1157
▁ط	-11.1159
▁بیوتیک	-11.1163
▁تصحیح	-11.1165
▁فسفات	-11.1165
▁مافوق	-11.1165
▁شعار	-11.1165
▁Rating	-11.1167
▁دیدنی	-11.1168
▁HF	-11.117
▁Enanthate	-11.1172
▁بازنشستگی	-11.1172
▁مجددا	-11.1174
نیک	-11.1175
▁do	-11.1175
▁القایی	-11.1179
▁هوندا	-11.1179
SI	-11.1181
lu	-11.1184
▁ضدزنگ	-11.1186
▁دایرکتوری	-11.1186
ini	-11.1187
▁دبیر	-11.1189
▁Oct	-11.119
▁تخمین	-11.1191
▁زندانی	-11.1192
▁نامزد	-11.1194
▁همگی	-11.12
▁بنادر	-11.1204
▁جوجه	-11.1208
لس	-11.1211
برای	-11.1213
▁خودداری	-11.1219
▁گرجستان	-11.1221
▁طلب	-11.1225
▁لحیم	-11.1229
▁آفیس	-11.1229
▁IN	-11.1231
1.5	-11.1231
▁Be	-11.1232
▁3.6	-11.1233
ef	-11.1234
▁غواصی	-11.1242
▁کلیدهای	-11.1243
▁مردمی	-11.125
▁خوانندگان	-11.125
49	-11.1251
▁MA	-11.1256
▁ناخواسته	-11.1257
▁دستیار	-11.126
▁Ti	-11.1261
▁وحش	-11.1265
اسیون	-11.1265
▁So	-11.1266
82	-11.1266
ng	-11.1274
▁as	-11.1274
han	-11.1277
2.0	-11.1283
▁107	-11.1283
▁AT	-11.1284
PM	-11.1285
▁سینک	-11.1286
▁سازند	-11.1288
▁خواند	-11.1291
▁باستانی	-11.1292
▁آسفالت	-11.1292
▁پک	-11.1292
▁هفتگی	-11.1295
▁روبان	-11.1297
▁132	-11.13
▁Ta	-11.13
ib	-11.13
▁اماکن	-11.1301
▁Open	-11.1301
لت	-11.1302
کول	-11.1303
▁موشک	-11.1304
▁انکشاف	-11.1306
ata	-11.1307
▁دیر	-11.1308
450	-11.1309
▁هشتم	-11.1312
▁نوشابه	-11.1314
▁آرمان	-11.1317
اح	-11.1318
▁یوسف	-11.1322
sh	-11.1326
يا	-11.1329
پو	-11.1331
شه	-11.1332
▁میخواهید	-11.1332
-1000	-11.1337
bi	-11.1338
den	-11.1341
CA	-11.1341
▁اعتصاب	-11.1342
▁SK	-11.1343
▁نگار	-11.1343
▁دستمزد	-11.135
▁تولیدکنندگان	-11.1355
140	-11.1356
انس	-11.1361
ga	-11.1362
gov	-11.1364
▁کاخ	-11.1364
▁اکسیداسیون	-11.1364
▁CM	-11.1366
ko	-11.137
▁تفکیک	-11.1371
▁قیچی	-11.1371
▁حامی	-11.1371
▁Dia	-11.1372
▁بوجود	-11.1372
رنگ	-11.1375
▁Art	-11.1377
98	-11.1378
102	-11.1379
▁1386	-11.1381
▁365	-11.1381
PE	-11.1385
DS	-11.1389
-021	-11.1391
▁باکره	-11.1393
AB	-11.1394
▁Na	-11.1394
▁کلاهبرداری	-11.14
tu	-11.1405
130	-11.1407
▁مهاجران	-11.1407
▁نمايشگاه	-11.1407
▁Sun	-11.1408
سکس	-11.141
DC	-11.1411
▁الع	-11.1412
▁نيست	-11.1414
TO	-11.1417
▁بلاگ	-11.1418
▁سیستمهای	-11.1419
▁votes	-11.1422
3000	-11.1424
یب	-11.1439
our	-11.1439
170	-11.1441
▁علمي	-11.1441
▁فراغت	-11.1443
▁مینا	-11.1444
▁شفا	-11.1447
▁۲۰۱۹	-11.1447
▁113	-11.1449
US	-11.1449
▁دهانه	-11.145
▁your	-11.1451
▁صادقانه	-11.1452
▁زودتر	-11.1452
▁خوشه	-11.1458
men	-11.1459
▁Color	-11.146
XL	-11.1462
▁ترانسپوندر	-11.1465
▁پاکسازی	-11.1469
▁رفتارهای	-11.1475
▁حقایق	-11.1476
▁am	-11.1477
▁amp	-11.1478
زه	-11.1482
▁اسپرم	-11.1484
▁Hotel	-11.1486
▁غار	-11.1488
▁سوزا	-11.1495
▁AD	-11.1498
▁WP	-11.1502
▁سرانجام	-11.1502
▁Red	-11.1503
▁اسپا	-11.1507
▁شریف	-11.1507
010	-11.1508
▁محمدی	-11.151
▁انتظارات	-11.1512
▁ایر	-11.1517
▁Do	-11.1521
77	-11.1522
▁محمودلار	-11.1523
▁سام	-11.1524
چر	-11.1527
لیک	-11.153
▁مقاصد	-11.153
▁بذر	-11.1531
▁1388	-11.1533
▁تابعیت	-11.1536
IT	-11.1537
▁یهودیان	-11.1537
▁شهرسازی	-11.1543
▁معبد	-11.1545
LA	-11.1547
▁قاره	-11.1547
▁کشو	-11.1549
▁قوم	-11.155
▁جانبه	-11.1552
▁توس	-11.1555
▁دوزهای	-11.1568
گرا	-11.1573
240	-11.1587
▁کرون	-11.1588
ane	-11.1589
▁داشتم	-11.1595
▁device	-11.1596
ED	-11.1598
▁مهد	-11.1598
▁Photo	-11.1599
za	-11.1606
▁Hi	-11.1609
▁عروقی	-11.1611
▁ترامپ	-11.1611
▁نیا	-11.1613
خود	-11.1617
یتی	-11.1619
▁سینمایی	-11.1619
▁شهرستانها	-11.1622
ick	-11.1624
▁سیکل	-11.1625
▁ادویه	-11.1626
ep	-11.1626
▁فونت	-11.163
ob	-11.1631
▁Man	-11.1636
▁us	-11.164
▁غشاء	-11.164
▁فزاینده	-11.1641
▁زمينه	-11.1642
▁کویر	-11.1642
▁کلر	-11.1646
con	-11.1649
ı	-11.165
▁ابتکار	-11.1651
-23	-11.1652
▁سعادت	-11.1655
▁روغنی	-11.1656
▁کانی	-11.1664
▁اسیایی	-11.1669
▁127	-11.1671
▁سلطنتی	-11.1671
ارد	-11.1673
▁فعل	-11.1679
▁بایست	-11.168
▁UHF	-11.1685
▁دانست	-11.1685
▁اراده	-11.1689
▁فو	-11.1691
▁مون	-11.1691
▁نبوده	-11.1692
▁هیأت	-11.1692
▁DA	-11.1695
▁حافظ	-11.1697
▁بز	-11.1698
▁بپیوندید	-11.17
ning	-11.1701
Cr	-11.1702
485	-11.1702
▁خشکی	-11.1705
▁ادیان	-11.171
▁آستانه	-11.1711
▁بازیگران	-11.1713
Coin	-11.1714
▁دخالت	-11.1714
▁مسعود	-11.1714
▁شایسته	-11.1714
▁استریل	-11.172
▁اگزوز	-11.1722
▁شاخ	-11.1725
.12	-11.1727
ass	-11.1728
▁فلزیاب	-11.173
▁خودشان	-11.1731
ack	-11.1737
▁فین	-11.1738
▁كرده	-11.1739
▁رینگ	-11.1739
▁Ba	-11.174
▁con	-11.1741
▁Micro	-11.1742
▁بفرستید	-11.1745
▁بتوانیم	-11.1745
star	-11.1748
▁سرورهای	-11.1752
ster	-11.1752
▁بیگانه	-11.1752
▁رویای	-11.1757
▁پتاسیم	-11.1759
▁تراس	-11.1767
▁نویز	-11.177
ray	-11.1771
▁اورشلیم	-11.1774
▁گیم	-11.1779
▁126	-11.1784
NA	-11.1784
▁فقر	-11.1789
que	-11.1791
MO	-11.1795
▁احتیاج	-11.1797
▁شمارنده	-11.1798
IR	-11.1798
▁اتو	-11.1799
▁GW	-11.1799
▁ناوگان	-11.1804
si	-11.1805
▁سناریو	-11.1807
▁ضمیمه	-11.1812
▁بیدار	-11.1812
▁گرایی	-11.1814
▁شوینده	-11.1819
▁انجیل	-11.182
▁Journal	-11.1834
▁اوبونتو	-11.1834
lan	-11.1834
▁سفیر	-11.1835
▁خوک	-11.1835
▁سامان	-11.1839
▁طراحي	-11.1839
▁دیزلی	-11.1842
GOS	-11.1843
ara	-11.1843
▁تخصیص	-11.1849
▁داروخانه	-11.185
▁هواپیمای	-11.1852
▁دستگاههای	-11.1861
ـــ	-11.1861
دهی	-11.1863
▁اپ	-11.1864
▁تلوبال	-11.1864
DE	-11.1869
▁فاجعه	-11.1872
▁رحمت	-11.1876
▁جات	-11.1877
▁مسلح	-11.1879
خر	-11.1879
▁ترانس	-11.1879
TP	-11.188
▁شنیدن	-11.188
▁وجوه	-11.1884
▁201	-11.1884
▁ارزهای	-11.1884
▁فنلاندی	-11.1884
▁اى	-11.1885
▁پسته	-11.1887
ger	-11.1887
▁فا	-11.189
▁ساک	-11.1892
▁4.2	-11.1892
گار	-11.1895
aj	-11.1896
▁تیپ	-11.1897
▁Cr	-11.19
▁حسب	-11.19
▁چشمگیر	-11.1901
▁همراهی	-11.1902
▁اجمالی	-11.1902
In	-11.1903
▁مبدا	-11.1903
▁410	-11.1904
der	-11.1905
روز	-11.1906
DI	-11.1909
▁گنج	-11.1912
▁تحولات	-11.1916
▁خيابان	-11.1917
▁مشبک	-11.1918
▁خز	-11.1919
▁گم	-11.1924
▁la	-11.1924
▁زیمنس	-11.1925
▁Aug	-11.1925
▁رانندگان	-11.1933
▁کهکشان	-11.1933
▁مجلل	-11.1934
▁آبشار	-11.1936
▁Si	-11.1939
fe	-11.1941
▁پذیرایی	-11.1942
▁HTTP	-11.1944
▁EP	-11.1946
▁Fe	-11.1946
▁اطفال	-11.1948
فه	-11.1949
▁6-	-11.195
▁AndroidFreeApks	-11.1955
▁ايجاد	-11.1955
ET	-11.1961
گن	-11.1963
▁اعطای	-11.1965
▁رانده	-11.1966
▁فنر	-11.1968
▁تعرفه	-11.197
▁مخفف	-11.197
▁مورخ	-11.1973
▁رویال	-11.1974
▁165	-11.1979
▁۹۸	-11.1979
▁رنگین	-11.198
▁ارومیه	-11.1986
▁مستقیما	-11.1989
▁Dec	-11.199
▁زوم	-11.1991
▁ماهپیش	-11.1991
▁مسافت	-11.1994
▁3-5	-11.1995
▁برلین	-11.1996
▁خرابی	-11.1999
▁4.3	-11.2002
▁فوتونیک	-11.2002
▁سازان	-11.2002
▁بدو	-11.2006
▁121	-11.2008
▁تحرک	-11.2009
▁di	-11.2017
▁نئون	-11.2022
▁حادثه	-11.2024
▁گاوصندوق	-11.2029
▁اشباع	-11.2039
SC	-11.2042
▁دیتا	-11.2044
.6	-11.2044
▁Ka	-11.2045
▁an	-11.2045
▁Key	-11.2053
▁مدال	-11.2062
▁بادام	-11.2063
▁گزارشات	-11.2066
▁تطبیقی	-11.207
▁OK	-11.2071
▁امین	-11.2071
▁سای	-11.2076
▁استادان	-11.2078
▁قبیله	-11.2078
▁بوسه	-11.2082
▁استانداردها	-11.2082
▁تسلط	-11.2085
▁ناراحتی	-11.2087
▁model	-11.2087
360	-11.2091
▁بابا	-11.2092
▁مربیان	-11.2093
▁per	-11.2095
▁ملا	-11.2097
▁دروس	-11.21
▁Anavar	-11.2101
▁1920	-11.2102
▁حیوانی	-11.2106
▁عکسهای	-11.2108
▁مدیا	-11.2112
▁مودم	-11.2114
▁خبرگزاری	-11.2116
▁CBD	-11.2117
▁قشم	-11.2117
▁آرنج	-11.2117
ML	-11.2118
▁معارف	-11.2124
▁مفاصل	-11.2124
▁116	-11.2127
لد	-11.2128
▁DJ	-11.2129
▁لوح	-11.2132
380	-11.2134
ker	-11.2134
▁Trans	-11.2142
▁کاج	-11.2143
سال	-11.2144
-90	-11.2148
▁قدیم	-11.2151
▁نیل	-11.2155
▁گوارش	-11.2156
▁محبت	-11.2157
▁هرچند	-11.2163
▁غير	-11.2163
فون	-11.2165
-500	-11.2165
▁کمد	-11.2166
▁XL	-11.217
▁قدر	-11.2177
▁زناشویی	-11.2178
▁گویی	-11.2179
.50	-11.2179
▁Lo	-11.2186
▁آئودی	-11.2186
▁نادیده	-11.2186
▁اسرع	-11.2187
▁مهمانان	-11.2189
▁Live	-11.2193
▁anal	-11.2194
LC	-11.2199
▁Microsoft	-11.2202
KM	-11.2204
▁سکوت	-11.2205
▁فیلیپین	-11.2207
▁نواحی	-11.2218
hi	-11.2221
▁روتور	-11.2221
▁2001	-11.2222
زار	-11.2222
▁پیانو	-11.2222
▁more	-11.2223
▁مخ	-11.2226
▁2400	-11.2231
▁کری	-11.2235
▁POS	-11.2241
▁مدتی	-11.2245
دست	-11.225
▁ویتنام	-11.2256
▁فورا	-11.226
▁بهبودی	-11.2264
▁سهامی	-11.2266
▁لابی	-11.2268
▁ay	-11.2271
▁تسریع	-11.2272
▁الدین	-11.2279
410	-11.2283
نمایش	-11.2288
کش	-11.2288
▁حتما	-11.2289
330	-11.229
▁پروکسی	-11.2292
▁بینایی	-11.2296
▁تبرید	-11.2297
▁le	-11.2299
by	-11.2299
tra	-11.23
▁شکایات	-11.2304
▁مذاکرات	-11.2304
▁لنزهای	-11.2304
ّت	-11.2311
amp	-11.2311
ریک	-11.2315
▁To	-11.2315
▁سرنشین	-11.2321
81	-11.2321
▁پنجه	-11.2322
▁پترو	-11.2323
وپ	-11.2324
▁لاین	-11.2327
▁فایبرگلاس	-11.2327
▁فساد	-11.2328
▁VW	-11.2329
▁مجید	-11.233
ile	-11.2333
▁CP	-11.2336
▁آرزو	-11.2337
تال	-11.2338
▁شرکتی	-11.234
310	-11.2341
▁مدافعان	-11.2341
▁آرایه	-11.2344
▁MPO	-11.2349
▁حامیان	-11.2352
▁برود	-11.2355
▁متفاوتی	-11.2355
▁تردید	-11.2356
▁تانکر	-11.2359
▁اد	-11.2362
▁ماندگار	-11.2362
▁119	-11.2372
▁GAMES	-11.2375
▁كنيد	-11.2375
▁میانی	-11.2376
▁Off	-11.2378
بندی	-11.2381
87	-11.2382
▁Bir	-11.2383
▁الزامی	-11.2384
the	-11.2386
▁التحصیل	-11.2388
▁کمپینگ	-11.2389
▁توانبخشی	-11.2391
▁کلسترول	-11.2391
▁عالم	-11.2391
4-	-11.2394
▁NA	-11.2395
▁پاهای	-11.2399
▁مج	-11.2402
▁نماییم	-11.2406
▁مؤلفه	-11.2406
▁پنجمین	-11.2408
era	-11.2409
▁پناه	-11.2413
▁درمانگاه	-11.2413
The	-11.2414
سم	-11.2416
▁مقدماتی	-11.2416
▁شهروند	-11.2417
-120	-11.2418
▁تکراری	-11.2421
▁155	-11.243
▁بهتری	-11.243
ica	-11.2434
▁اشک	-11.2434
93	-11.2436
▁لین	-11.2438
▁فریب	-11.2441
Mpa	-11.2447
ey	-11.2451
▁سلولهای	-11.2451
▁آویزان	-11.2452
▁شاکر	-11.2453
-27	-11.2453
▁خیس	-11.2458
▁ch	-11.2459
▁Online	-11.246
▁کرک	-11.2464
▁SE	-11.2464
coin	-11.2468
all	-11.2471
▁مطبوعاتی	-11.2479
ونه	-11.2479
▁انجماد	-11.2487
▁۲۰۱۸	-11.2487
▁Jun	-11.2487
port	-11.2487
▁جادویی	-11.2488
۱۰	-11.249
▁سالیانه	-11.249
یلی	-11.249
▁مکتب	-11.2492
▁TR	-11.2495
▁فیلمبرداری	-11.2496
▁اسلامي	-11.2497
▁نمي	-11.2498
▁1-2	-11.2501
AA	-11.2503
▁میتوانند	-11.2508
اله	-11.2508
cal	-11.2508
▁قاشق	-11.2511
ds	-11.2513
▁ژنتیک	-11.2516
شده	-11.2521
▁News	-11.2529
tro	-11.2529
▁ریختن	-11.253
▁جدایی	-11.2531
▁کارگردان	-11.2531
▁توانمند	-11.2532
▁اساسا	-11.2532
▁گریس	-11.2534
▁گذرگاه	-11.2536
▁اسرائیلی	-11.2536
▁Ver	-11.2542
▁دکل	-11.2543
▁شوم	-11.2543
▁کاراکتر	-11.2544
BS	-11.2546
á	-11.2546
▁عزیزان	-11.255
MC	-11.255
▁متال	-11.2553
▁بیضی	-11.2554
▁ترا	-11.2555
▁پپتید	-11.2559
▁پروستات	-11.2559
▁صداقت	-11.256
KV	-11.2561
لف	-11.2563
▁منعکس	-11.257
2-	-11.2571
▁اونس	-11.2572
▁اردبیل	-11.2572
7.5	-11.2577
▁Road	-11.2577
105	-11.2578
▁ژجیانگ	-11.2584
▁نمایشی	-11.2584
▁بکشد	-11.2585
750	-11.2591
▁Type	-11.2595
ali	-11.26
▁بلور	-11.2604
0.0	-11.2606
-150	-11.2607
▁حریق	-11.2608
▁اک	-11.2613
ino	-11.2615
▁کتب	-11.2616
لک	-11.2621
125	-11.2623
▁3500	-11.2623
▁توحید	-11.2624
020	-11.2624
▁چاقی	-11.2628
▁برندهای	-11.2631
▁APC	-11.2633
▁فلوت	-11.2634
my	-11.2643
▁بدتر	-11.2646
▁Hot	-11.2647
▁شار	-11.2651
-2000	-11.2652
eng	-11.2656
▁بلوغ	-11.2657
▁RT	-11.266
▁شات	-11.2662
▁احمدی	-11.2663
خت	-11.2668
▁خاتمه	-11.2668
ial	-11.2669
گرچه	-11.2669
▁كنترل	-11.2673
▁محمدرضا	-11.2674
▁0.25	-11.2679
▁ویکی	-11.268
▁راهبردهای	-11.2682
▁تبخیر	-11.269
Re	-11.269
▁فرانک	-11.2692
0.5	-11.2692
ern	-11.2693
▁برمی	-11.2694
▁رشت	-11.2694
ada	-11.2696
▁المعارف	-11.2698
▁خونریزی	-11.2698
▁Sao	-11.2698
▁گلوتن	-11.2706
▁ببرد	-11.2711
▁ویلای	-11.2712
▁چیزها	-11.2714
▁مساوی	-11.2715
▁بوشهر	-11.2715
link	-11.2719
▁نفری	-11.2719
▁قاتل	-11.2723
▁زره	-11.2725
▁پیشبرد	-11.2725
▁بازگرداندن	-11.2726
وار	-11.2728
▁الکسیس	-11.2731
گذاری	-11.2738
▁اکثریت	-11.2738
▁انگور	-11.274
▁موسوی	-11.2741
▁On	-11.2742
▁پارا	-11.2745
قا	-11.2749
▁راکت	-11.2753
▁GMP	-11.2753
▁صرفا	-11.2754
-32	-11.2756
▁امسال	-11.2757
▁بنر	-11.2762
▁کارآیی	-11.2764
▁سیسکو	-11.2766
▁قهرمانان	-11.2767
▁133	-11.2772
▁440	-11.2777
▁wp	-11.278
ich	-11.278
▁ارگان	-11.2781
▁تنفسی	-11.2783
▁هیل	-11.2784
▁آوا	-11.2788
▁عادت	-11.2789
▁اسفنجی	-11.2789
▁DO	-11.2789
▁تهاجمی	-11.2791
پیش	-11.2795
▁دفاعی	-11.2798
▁TC	-11.2799
▁قلمرو	-11.28
▁تبعیض	-11.2805
▁192	-11.2805
▁قدس	-11.2806
▁تایلندی	-11.2808
▁اصلي	-11.2812
▁Ko	-11.2816
جان	-11.2819
▁مدیترانه	-11.283
▁پژوهشکده	-11.283
TE	-11.2831
9000	-11.2834
▁دیوان	-11.2834
▁سفرهای	-11.2835
▁Or	-11.2843
▁اندود	-11.2845
▁144	-11.2849
شود	-11.2852
▁1998	-11.2854
▁کربوهیدرات	-11.2855
▁چکمه	-11.2856
عی	-11.2863
▁225	-11.2873
▁گیرید	-11.2875
cd	-11.2875
گي	-11.2877
board	-11.2877
▁اکتشاف	-11.2883
▁اکو	-11.2886
▁III	-11.2888
▁پرداخته	-11.2888
res	-11.289
rd	-11.2895
▁بازدارنده	-11.2896
▁وفاداری	-11.2903
ll	-11.2905
▁محو	-11.2905
▁DL	-11.2905
دم	-11.2912
▁مستندات	-11.2912
▁SL	-11.2912
▁تشدید	-11.2913
▁سیال	-11.2914
▁MO	-11.2916
1.2	-11.2916
▁آداب	-11.2917
تم	-11.2918
▁عقل	-11.2919
▁خدمتکار	-11.2919
▁بلغارستان	-11.2922
▁شکنجه	-11.2922
▁CT	-11.2923
▁6063	-11.2926
▁خاکستر	-11.2929
▁بکارگیری	-11.293
▁mg	-11.2932
▁Back	-11.2935
1.1	-11.2935
▁فیسبوک	-11.2939
▁محاکمه	-11.294
▁انتقاد	-11.294
▁4.8	-11.2941
▁گردو	-11.2941
▁دلیلی	-11.2944
▁Paulo	-11.2944
▁جواد	-11.2946
▁SW	-11.2954
▁انفورماتیک	-11.2955
▁خواهان	-11.2958
▁صفات	-11.296
▁مکش	-11.2961
▁خیاطی	-11.2966
پن	-11.2969
▁معتقد	-11.2971
▁تربیتی	-11.2972
car	-11.2973
▁خلاقانه	-11.2974
-31	-11.2976
▁GM	-11.2979
▁بینید	-11.2979
▁گفتار	-11.2985
▁QR	-11.2986
▁رب	-11.2986
▁زخمی	-11.2986
▁سلطنت	-11.2987
▁انقباض	-11.2989
▁......	-11.299
▁۴۰	-11.2996
▁et	-11.2997
▁SMS	-11.2997
▁معاینه	-11.2997
▁وابستگی	-11.2997
▁One	-11.2998
▁هلندی	-11.2998
▁Sep	-11.2999
▁129	-11.3009
▁آسمانی	-11.3011
▁دهانی	-11.3015
▁Up	-11.3015
▁زدگی	-11.3015
کین	-11.3016
▁عرشه	-11.3016
▁آفرینش	-11.302
▁BTC	-11.302
▁بیولوژیکی	-11.3022
▁FA	-11.3022
▁Ne	-11.3026
ستون	-11.3029
▁960	-11.303
▁امیدوار	-11.3031
CE	-11.3035
▁پژوهشگران	-11.3038
▁122	-11.304
▁بازه	-11.3042
▁کوهستانی	-11.3045
act	-11.3047
▁خوزستان	-11.3048
▁دوستی	-11.3049
▁تع	-11.3053
▁مهربان	-11.3058
▁عتیقه	-11.306
▁مجاورت	-11.3061
گرد	-11.3061
▁مخاطبین	-11.3062
▁عصبانی	-11.3062
لیس	-11.3065
▁کوپلینگ	-11.3065
jpg	-11.3067
▁انسانها	-11.3069
ace	-11.307
BA	-11.3072
رود	-11.308
▁غلبه	-11.3082
▁انباشته	-11.3083
یزه	-11.3083
TR	-11.3086
can	-11.3086
▁پراکندگی	-11.3091
▁سنسورهای	-11.3093
▁گلدوزی	-11.3099
▁عملکردی	-11.3102
▁رباتیک	-11.3105
▁جیانگ	-11.3106
mb	-11.3107
▁حضوری	-11.3109
▁Per	-11.311
▁کویت	-11.3112
▁سارا	-11.3112
▁Ha	-11.3113
▁غربالگری	-11.3116
▁ساینده	-11.3117
▁ابزارها	-11.3118
▁CPU	-11.3119
▁۰۹	-11.312
▁شتم	-11.3125
▁الک	-11.3127
▁چسباندن	-11.3128
▁الا	-11.3128
we	-11.313
▁مشتاق	-11.313
▁OBD	-11.3131
▁ترشی	-11.3132
▁حوضه	-11.3138
▁1400	-11.3142
▁Farsi	-11.3142
▁صدمه	-11.3143
gh	-11.3147
▁غلط	-11.315
▁سربازان	-11.315
su	-11.3151
▁DX	-11.3153
ye	-11.3156
▁غرق	-11.3158
▁اکبر	-11.316
▁حکیم	-11.3161
ei	-11.3164
▁احتیاط	-11.3167
▁۲۰۱۷	-11.3169
ارت	-11.3169
▁sa	-11.3172
▁دیپلم	-11.3173
▁آندروژنی	-11.3175
▁گوشواره	-11.3177
پوش	-11.3184
▁بیا	-11.3185
▁داوطلبانه	-11.3194
tal	-11.3195
▁جعل	-11.3201
▁Sh	-11.3203
▁DIY	-11.3203
▁JUE	-11.3203
▁نخود	-11.3207
▁طبی	-11.3208
ix	-11.321
▁روشی	-11.321
▁کافئین	-11.3211
▁Water	-11.3212
▁كنند	-11.3213
▁مور	-11.3214
▁ناب	-11.3214
اسی	-11.3214
▁Fly	-11.3216
3-	-11.3217
▁CMYK	-11.3219
▁بگ	-11.3224
▁PT	-11.3225
▁بقا	-11.3225
▁فلاش	-11.323
▁XXX	-11.3231
cn	-11.3231
▁مهاجرین	-11.3231
▁رومیزی	-11.3237
▁علف	-11.3238
▁بدانیم	-11.324
بت	-11.3243
▁پاور	-11.3244
▁نامی	-11.3245
▁دال	-11.325
550	-11.325
ویی	-11.3251
▁نمايش	-11.3254
ترا	-11.3254
▁5.8	-11.3255
▁پنجاه	-11.3256
▁نمایشگاهی	-11.3256
▁نکردنی	-11.3257
▁یکپارچگی	-11.3263
▁تبیین	-11.3263
▁نحو	-11.3265
▁MK	-11.3271
▁مولکول	-11.3271
▁ba	-11.3277
كس	-11.3278
▁سوره	-11.328
▁سرتاسر	-11.328
▁گنجانده	-11.328
▁کاره	-11.3283
▁شستن	-11.3287
əf	-11.3287
▁سلب	-11.3288
630	-11.329
▁سوئیچینگ	-11.3296
▁حراج	-11.3298
LM	-11.3298
عت	-11.33
KVA	-11.3301
▁غم	-11.3301
▁سوز	-11.3301
▁لوبیا	-11.3306
▁آمریكا	-11.3306
▁ارواح	-11.3306
▁ابریشمی	-11.3306
▁صبا	-11.331
▁GA	-11.3312
▁بيش	-11.3317
▁خاصیت	-11.3318
visa	-11.332
hu	-11.3322
▁هکتار	-11.3324
▁تورنتو	-11.3333
▁امداد	-11.3334
مل	-11.3336
▁دماسنج	-11.3337
▁اکس	-11.3337
002	-11.334
▁Büt	-11.3341
▁ذ	-11.3343
▁میخ	-11.3346
▁پرتال	-11.3346
▁are	-11.3349
▁2200	-11.3354
▁گیلاس	-11.3359
▁مواجهه	-11.3361
bb	-11.3362
▁نینجا	-11.3367
▁کربنی	-11.3373
▁انفجاری	-11.3377
▁سالگی	-11.3378
▁1.7	-11.3382
▁بانوان	-11.3386
ud	-11.3389
ري	-11.3394
▁Can	-11.3396
iv	-11.3396
▁نارسایی	-11.3403
▁عاطفی	-11.3405
▁-10	-11.3408
▁مباحث	-11.3411
▁ناشناخته	-11.3411
▁پتو	-11.3413
vo	-11.3413
▁روبات	-11.3413
کور	-11.3415
پت	-11.3418
▁ویسکوزیته	-11.342
LS	-11.3421
▁CSGO	-11.3432
▁UPC	-11.3435
▁5.1	-11.3436
▁موتورسیکلت	-11.3438
▁همۀ	-11.344
EA	-11.344
▁مص	-11.3445
▁پژو	-11.3445
▁ناصر	-11.3446
zin	-11.3447
▁افغانی	-11.345
▁ساب	-11.3453
▁YouTube	-11.3456
▁حج	-11.346
1.0	-11.3461
یشن	-11.3463
▁6.	-11.3466
▁بدنسازان	-11.3469
▁نگاری	-11.3469
▁1999	-11.3472
▁متابولیسم	-11.3473
ach	-11.3479
▁سنگهای	-11.3479
▁فایرفاکس	-11.3482
▁مصارف	-11.3482
▁سانترال	-11.3482
▁چراغهای	-11.3482
▁تکثیر	-11.3482
▁اصطلاحات	-11.3483
▁SF	-11.3485
▁انقلابی	-11.3486
ale	-11.3488
▁کوتاهی	-11.3488
▁همچنين	-11.3491
▁کیلومتری	-11.3491
▁TFT	-11.3495
ینی	-11.3496
▁تقاطع	-11.35
نان	-11.3503
▁185	-11.3504
ise	-11.3506
▁خرس	-11.3512
▁امگا	-11.3513
▁آو	-11.3514
اکس	-11.3514
▁عمان	-11.3515
650	-11.3515
ver	-11.3519
▁کتابهای	-11.3523
▁Cu	-11.3523
▁پرتغالی	-11.3524
▁ماری	-11.3525
▁واقعاً	-11.3526
▁فرشتگان	-11.3527
▁1385	-11.3527
▁ناباروری	-11.3528
▁925	-11.3531
▁رندر	-11.3533
ris	-11.3536
▁تلفات	-11.3537
▁قله	-11.3542
▁کوشش	-11.3549
▁درخشش	-11.3553
ks	-11.3557
du	-11.356
▁UNS	-11.3564
▁نمايد	-11.3565
RC	-11.3567
▁سوالی	-11.3569
▁الوهیت	-11.3571
▁نخبگان	-11.3571
▁استیک	-11.3571
▁0.02	-11.3571
▁پالایشگاه	-11.3573
▁دستورات	-11.3576
▁LG	-11.3579
▁ارقام	-11.358
▁EPDM	-11.358
▁کنتراست	-11.358
▁خواستم	-11.3581
▁Star	-11.3589
CI	-11.3592
▁سگی	-11.3592
▁دادم	-11.3593
▁20000	-11.3596
201	-11.3604
▁بارش	-11.3606
▁هالووین	-11.3607
-45	-11.3612
▁Fu	-11.3612
▁27500	-11.3615
▁Sch	-11.3615
▁دموکراتیک	-11.3617
▁پالپ	-11.3619
.15	-11.3622
▁EMS	-11.3623
kan	-11.3626
۱۳	-11.3627
▁زندانیان	-11.3632
▁موز	-11.3633
▁شمشیر	-11.3635
▁Media	-11.3635
▁کلم	-11.3638
▁تلخ	-11.3638
▁مق	-11.3638
▁کتبی	-11.3641
مات	-11.3642
▁بیمارستانی	-11.3645
▁دامپزشکی	-11.3653
▁ترم	-11.366
▁کرایه	-11.3662
▁3.1	-11.3662
▁سنتر	-11.3663
▁دسی	-11.3665
▁2100	-11.3666
▁EPS	-11.3667
ess	-11.3667
▁الب	-11.367
▁سایبان	-11.367
▁یهودی	-11.367
▁3.8	-11.3671
▁مرتضی	-11.3674
▁کودکی	-11.3679
▁86-	-11.3679
▁الح	-11.368
▁PCS	-11.368
▁روزرسانی	-11.3683
▁تابستانی	-11.3683
▁نعوظ	-11.3688
وو	-11.3695
▁اتمی	-11.3697
▁نردبان	-11.3697
▁افق	-11.37
ze	-11.3701
▁100000	-11.3702
▁گپ	-11.3702
▁مسأله	-11.3706
دون	-11.371
are	-11.3715
-600	-11.3715
▁درگیری	-11.3716
▁جداره	-11.3718
ring	-11.3719
▁کارآفرینی	-11.3719
▁دریل	-11.372
▁دوازده	-11.3721
▁تشکیلات	-11.3722
ware	-11.3722
▁قایقرانی	-11.3725
▁سیلیکا	-11.3726
انو	-11.3727
1.6	-11.3727
▁آبگرم	-11.3729
▁آه	-11.3729
▁سرباز	-11.373
▁هیلز	-11.3732
نک	-11.3732
لینگ	-11.3734
ight	-11.3734
san	-11.3734
134	-11.3736
ind	-11.3736
▁TPU	-11.3738
▁2.7	-11.3742
▁جیپیاس	-11.3743
▁مگاپاسکال	-11.3743
▁ممتاز	-11.3743
od	-11.3743
EX	-11.3743
▁Bank	-11.3744
▁مختصات	-11.3745
▁سخنران	-11.3746
▁GO	-11.3747
دید	-11.3751
▁سي	-11.3751
▁واژگان	-11.3752
▁هدفمند	-11.3754
▁206	-11.3757
ve	-11.3757
▁داوران	-11.3757
▁نیت	-11.3764
ستا	-11.3768
TV	-11.3769
▁صورتحساب	-11.3772
▁متا	-11.3776
▁شایان	-11.3776
▁برتری	-11.378
▁VI	-11.3783
PP	-11.3784
▁تاکتیکی	-11.3787
۳۰	-11.379
▁بوسیدن	-11.3791
FE	-11.3793
▁عبدال	-11.3795
▁تلقی	-11.3797
▁تس	-11.3797
▁المللي	-11.3797
ورد	-11.3798
▁1250	-11.3798
▁COA	-11.38
SO	-11.3802
▁10.1	-11.3805
▁131	-11.3806
▁نعمت	-11.3807
▁محصولی	-11.3809
▁DMX	-11.3809
KN	-11.381
▁خمش	-11.3811
راه	-11.3814
▁سوپ	-11.3815
▁اردوگاه	-11.3825
▁تابلوهای	-11.3826
▁طیور	-11.3827
▁قصر	-11.3827
tan	-11.3828
▁Long	-11.3828
▁میکروسکوپ	-11.383
▁0.15	-11.3831
▁فیل	-11.3831
▁اشتها	-11.3833
▁City	-11.3834
▁مزه	-11.3834
cy	-11.3836
▁DR	-11.3841
ble	-11.3842
▁تفاهم	-11.3843
▁Beauty	-11.3843
▁اسپیندل	-11.3843
▁عادلانه	-11.3844
▁مقوایی	-11.3844
▁خودروی	-11.3857
▁جست	-11.386
▁جهنم	-11.3862
▁Mon	-11.3864
▁مدافع	-11.3865
uploads	-11.3871
▁رفاهی	-11.3873
▁Metal	-11.3875
ual	-11.3875
۲۰	-11.3878
▁منگنز	-11.388
▁کتانی	-11.3885
RI	-11.3886
▁نوارهای	-11.3888
▁پاناسونیک	-11.3889
▁مارپیچ	-11.3892
king	-11.3897
▁تف	-11.3897
▁USA	-11.3898
▁نشاسته	-11.3899
db	-11.3899
van	-11.3899
▁چشمان	-11.39
▁شا	-11.3902
▁520	-11.3903
▁مشخصی	-11.3904
▁آکوستیک	-11.3908
▁سانسور	-11.3908
▁URL	-11.391
▁شعاعی	-11.3911
▁حاکمیت	-11.3912
▁تکاملی	-11.3914
ism	-11.3917
▁پیمایش	-11.3917
▁لجن	-11.3919
▁قاعده	-11.3922
▁سواد	-11.3925
▁LS	-11.393
رهای	-11.3931
بول	-11.3931
-00	-11.3934
▁تداوم	-11.3936
▁تصادف	-11.3938
▁فیلتراسیون	-11.3939
▁کشید	-11.3942
▁پره	-11.3946
▁IV	-11.3946
▁کراتین	-11.3946
▁بم	-11.3948
▁Comp	-11.3951
▁He	-11.3952
▁Design	-11.3952
▁برکت	-11.3953
▁نئوپرن	-11.3954
▁نوروز	-11.3955
▁ناخالصی	-11.3957
▁دا	-11.3958
▁SB	-11.3958
▁مجری	-11.3958
ren	-11.3961
▁اعزام	-11.3964
ill	-11.3966
▁اخیرا	-11.3969
mon	-11.3969
▁Security	-11.3973
▁سلیقه	-11.3973
▁تعدیل	-11.3973
135	-11.3975
▁پروازهای	-11.3979
▁شرعی	-11.3984
▁رأی	-11.3992
▁IM	-11.3992
▁ریه	-11.3992
ls	-11.3998
▁JS	-11.3998
pp	-11.4
▁بگذارد	-11.4002
▁آخرين	-11.4004
CS	-11.4005
▁داوطلب	-11.4005
▁كن	-11.4006
gg	-11.4007
▁تیک	-11.4013
▁لس	-11.4013
یکا	-11.4015
▁بیکینی	-11.4016
▁sp	-11.4016
ow	-11.4018
▁ناف	-11.4019
▁ادبی	-11.4019
▁ولنتاین	-11.402
ug	-11.402
تونید	-11.4021
ave	-11.4022
کال	-11.4022
▁تزئینات	-11.4022
▁ویستا	-11.4024
▁مسافری	-11.4025
ness	-11.4026
▁حسی	-11.4028
▁متغیرهای	-11.4029
▁گرمی	-11.4035
▁فجر	-11.4039
دختر	-11.4039
▁HR	-11.404
اتیک	-11.404
▁ميان	-11.4041
▁Pa	-11.4041
DO	-11.4041
▁FRP	-11.4042
▁سخنان	-11.4043
▁CoA	-11.4047
▁فرایندهای	-11.4048
▁آقا	-11.405
▁طعمه	-11.4052
▁OR	-11.4052
▁شاتل	-11.4052
431	-11.4056
AppsApk	-11.4057
▁تعطیل	-11.4057
VA	-11.406
ندگی	-11.4061
یات	-11.4062
▁لیس	-11.4063
▁جاذب	-11.4064
▁هيچ	-11.4064
▁Euro	-11.4064
▁مواقع	-11.4067
▁هالوژن	-11.4067
▁CB	-11.4068
▁6061	-11.4068
▁رومانی	-11.4068
▁جذابیت	-11.407
ev	-11.4071
312	-11.4071
مع	-11.4077
وین	-11.408
۱۵	-11.4083
▁FL	-11.4086
▁4.0.3	-11.409
NC	-11.4094
▁جن	-11.4095
▁توافقنامه	-11.4096
▁سهامداران	-11.4097
▁حکمت	-11.4097
▁مطمئنا	-11.4098
040	-11.4103
▁بیابید	-11.4104
▁قائم	-11.4104
▁دربارۀ	-11.4104
▁VC	-11.4107
▁دستباف	-11.4107
وي	-11.4107
sch	-11.4109
▁HA	-11.4111
lock	-11.4112
▁هل	-11.4116
▁هیوندای	-11.4116
▁اسمز	-11.412
▁پرستش	-11.4127
▁Po	-11.413
▁DB	-11.4133
▁چدن	-11.4134
▁سرنگ	-11.414
ole	-11.4141
▁FEC	-11.4143
▁بیوگرافی	-11.4146
▁لوی	-11.4148
▁تفریح	-11.4151
▁قید	-11.4152
▁TD	-11.4153
▁پرتغال	-11.4154
ندگان	-11.4155
کون	-11.4156
ولا	-11.4157
▁رام	-11.416
gi	-11.4165
▁خطاهای	-11.4166
▁168	-11.4167
▁هضم	-11.417
▁فتح	-11.4172
II	-11.4173
▁مخالفت	-11.4175
▁بژ	-11.4176
▁AF	-11.4177
▁ض	-11.4178
▁AAA	-11.4178
BR	-11.4178
▁ترانه	-11.4179
▁رئيس	-11.418
▁FTTH	-11.418
▁Box	-11.418
ئي	-11.4181
▁مشتقات	-11.4183
form	-11.4183
▁سردرد	-11.4191
▁ar	-11.4192
.11	-11.4193
▁فتیش	-11.4196
▁فروشگاهی	-11.4197
▁کنيد	-11.4198
اده	-11.4198
▁آلاینده	-11.4199
سکی	-11.4208
▁گال	-11.4209
▁روبروی	-11.4213
▁بنده	-11.4214
▁مشتق	-11.4216
▁نگارش	-11.4216
▁640	-11.4222
▁ژنتیکی	-11.4222
▁134	-11.4224
▁خار	-11.4226
▁بپردازید	-11.4228
▁گوهر	-11.4228
▁شونده	-11.4229
▁سنین	-11.4234
,500	-11.4234
▁System	-11.4243
رها	-11.4243
▁0.03	-11.4246
▁مسنجر	-11.4247
▁شکستگی	-11.425
ush	-11.426
▁سلف	-11.4266
▁br	-11.4267
5.5	-11.4267
▁LF	-11.4269
▁315	-11.427
▁٢	-11.427
▁شماری	-11.4272
▁ES	-11.4273
▁عقد	-11.4275
▁گریه	-11.4278
▁Eco	-11.428
ost	-11.4283
▁انبساط	-11.4285
▁راستی	-11.4287
content	-11.4288
▁بانوی	-11.429
▁7000	-11.4292
TB	-11.4293
▁نفیس	-11.4294
▁متراکم	-11.4295
▁معمار	-11.4296
▁XM	-11.4298
▁بیو	-11.4299
р	-11.4302
▁ششمین	-11.4303
▁فور	-11.4306
av	-11.4307
دری	-11.4307
▁پژوهشي	-11.4311
▁ساعتی	-11.4312
لون	-11.4313
▁LTE	-11.4313
▁وفا	-11.4318
▁Te	-11.4322
▁Domain	-11.4324
▁مستقیماً	-11.4325
▁بحرانی	-11.4326
▁Gu	-11.4326
▁بتوان	-11.4327
▁خالق	-11.4328
▁اندکی	-11.4328
▁حاج	-11.433
▁نهم	-11.4331
دین	-11.4333
▁زهکشی	-11.4333
▁نیسان	-11.4334
▁پارلمان	-11.4335
▁تیرانداز	-11.4338
▁آهک	-11.434
امین	-11.434
دگی	-11.4342
▁کوچکی	-11.4343
مس	-11.4344
▁بازیگر	-11.4344
▁7-	-11.4344
▁man	-11.4345
▁Cap	-11.4345
pu	-11.4346
▁براون	-11.4346
▁FI	-11.435
▁پیشگام	-11.435
▁لوسیون	-11.4353
يست	-11.4353
▁روس	-11.436
UR	-11.436
▁کامپوننت	-11.4362
کام	-11.4364
▁کارگزاری	-11.4368
9.5	-11.4369
▁احاطه	-11.4372
گون	-11.4372
▁مولفه	-11.4374
▁پایش	-11.4377
mat	-11.4377
106	-11.438
▁تقلید	-11.4382
▁اطلس	-11.4382
▁بیز	-11.4382
▁خور	-11.4382
▁so	-11.4383
▁UP	-11.4383
▁ذاتی	-11.4385
OL	-11.4385
▁جداساز	-11.4391
▁سیویلیکا	-11.4391
▁مانیکور	-11.4392
HD	-11.4392
yn	-11.4394
-29	-11.4395
▁مادری	-11.4396
▁مسیحیان	-11.4397
▁کیا	-11.4398
▁پالایش	-11.4399
wa	-11.4401
▁Islamic	-11.4401
▁روایات	-11.4401
▁FU	-11.4404
▁ml	-11.4408
.7	-11.4409
▁گرانبها	-11.4411
▁کول	-11.4412
▁ژان	-11.4412
▁غلات	-11.4412
ical	-11.4412
▁خوابگاه	-11.4414
askar	-11.4414
▁کارگیری	-11.4414
حی	-11.4415
▁هوشمندانه	-11.4416
▁پیغام	-11.4421
▁bit	-11.4421
avi	-11.4421
▁اعمار	-11.4422
▁0912	-11.4424
▁SSL	-11.4429
▁مثلث	-11.4429
▁TUV	-11.4437
٠	-11.4438
▁جاودان	-11.444
▁صدر	-11.444
▁شگفتی	-11.4441
▁خاردار	-11.4441
▁پي	-11.4443
UN	-11.4444
▁630	-11.4445
▁استروئیدی	-11.4445
▁MTP	-11.4448
ارا	-11.4449
▁pre	-11.446
▁نارگیل	-11.446
▁Kutools	-11.446
hr	-11.446
یکو	-11.4461
▁SO	-11.4463
230	-11.4468
uc	-11.4469
▁u	-11.4469
MPa	-11.447
6.5	-11.447
▁رساله	-11.4472
▁تسلیم	-11.4472
5.0	-11.4476
tar	-11.448
soshi	-11.4483
▁شسته	-11.4487
▁مندان	-11.4491
▁آرت	-11.4492
▁مسن	-11.4492
lic	-11.4495
▁information	-11.4499
▁کارمزد	-11.4499
▁پاسداران	-11.4499
۳۵	-11.4499
▁Review	-11.4499
▁تیروئید	-11.45
chi	-11.4502
red	-11.4503
▁چشمگیری	-11.4503
▁منع	-11.4504
top	-11.4505
▁کمیت	-11.4505
▁زنبور	-11.4506
▁جلیقه	-11.4509
▁پروبیوتیک	-11.4509
▁هولوگرافی	-11.4509
▁ad	-11.451
١	-11.4512
محصولات	-11.4515
TC	-11.4518
▁Ana	-11.4519
123	-11.4519
▁استادیوم	-11.452
▁Word	-11.452
▁مبرد	-11.452
ros	-11.4521
▁دستکاری	-11.4521
۱۱	-11.4523
▁نزدیکترین	-11.4523
▁اشتباهات	-11.4523
▁بخصوص	-11.4528
▁لومن	-11.4532
▁دريافت	-11.4538
▁پناهجویان	-11.4539
باز	-11.454
195	-11.454
COM	-11.454
▁We	-11.4541
▁ترين	-11.4543
▁میمون	-11.4544
▁غیرقانونی	-11.4548
▁Pack	-11.4548
▁معطر	-11.4548
▁فراگیر	-11.4551
▁محروم	-11.4557
▁اشتیاق	-11.4558
▁دادیم	-11.4558
▁حسابرسی	-11.456
▁نامرئی	-11.4568
▁راهبردی	-11.4572
▁آلرژی	-11.4574
▁oC	-11.4574
▁بیابان	-11.4575
▁Feb	-11.4577
▁شامپاین	-11.4578
▁خاور	-11.4578
led	-11.458
▁استارت	-11.4583
▁محصولاتی	-11.4583
▁Rikoooo	-11.4588
▁4.4	-11.4593
▁لوگوی	-11.4596
ez	-11.4597
▁اعضاء	-11.4598
▁انکار	-11.46
زد	-11.4604
▁As	-11.4606
▁لاو	-11.4607
▁آکسفورد	-11.4607
▁هلدینگ	-11.4607
رام	-11.4614
▁بیماریهای	-11.4619
old	-11.462
میل	-11.4622
▁مرجعی	-11.4623
▁30000	-11.4623
▁افتادن	-11.4623
▁وار	-11.4624
▁FCC	-11.4625
خان	-11.4626
▁سلیمان	-11.4627
▁لعاب	-11.4631
▁سرما	-11.4632
ano	-11.4632
ized	-11.4632
▁گازدار	-11.4632
داران	-11.4644
▁مركز	-11.4644
▁جزو	-11.4645
ella	-11.4645
▁بافر	-11.4646
▁بهزیستی	-11.4647
▁اسماعیل	-11.465
pin	-11.4652
▁استعلام	-11.4657
▁156	-11.4657
▁الکترون	-11.4658
▁عدلیه	-11.466
▁راهبرد	-11.4664
کند	-11.4664
ورا	-11.4666
GHz	-11.4666
▁فسفر	-11.4667
▁بالون	-11.4667
▁اسکاتلند	-11.4667
▁مبنی	-11.4667
▁مارتین	-11.4668
▁طبقات	-11.4668
▁can	-11.4669
▁کابلی	-11.4671
▁ریش	-11.4675
▁پهن	-11.4678
▁بگیریم	-11.4678
▁IE	-11.4681
ودی	-11.4681
.20	-11.4682
▁مشکلاتی	-11.4683
hk	-11.4686
▁EU	-11.4686
▁صنايع	-11.4687
▁بسازید	-11.4687
512	-11.4689
▁رسان	-11.4692
تماس	-11.4694
▁Inter	-11.4694
▁مادرید	-11.4696
▁میکنم	-11.4697
▁آسایش	-11.4697
▁موظف	-11.4697
ping	-11.4699
▁مخصوصا	-11.4703
▁هلال	-11.4704
▁لبنی	-11.4706
gr	-11.4707
ley	-11.4709
▁چين	-11.4709
▁Pan	-11.4711
AI	-11.4712
ونا	-11.4712
404	-11.4715
▁جسیکا	-11.4717
ینه	-11.4718
iss	-11.4719
▁گروههای	-11.4723
▁CL	-11.4723
▁کسر	-11.4723
▁توجیه	-11.4724
▁Hielscher	-11.4727
يس	-11.4733
▁تومور	-11.4736
▁Du	-11.4742
▁512	-11.4742
▁بلوز	-11.4743
▁شنوایی	-11.4747
▁game	-11.4749
▁بول	-11.475
▁التهابی	-11.4752
▁Pass	-11.4753
sha	-11.4753
▁زر	-11.4757
▁اذیت	-11.4757
▁تعبیه	-11.4757
▁خوشبختانه	-11.4757
▁شوروی	-11.4759
▁مارینا	-11.4762
ust	-11.4762
▁شکلی	-11.4762
▁افزايش	-11.4768
▁CI	-11.4772
▁دیابتی	-11.4774
▁آتن	-11.4775
▁متشکرم	-11.4778
▁محصور	-11.4778
ans	-11.4779
IL	-11.4783
▁PTC	-11.4784
▁راجع	-11.4784
▁CIF	-11.4792
ii	-11.4793
▁بادبانی	-11.4793
▁اسپرد	-11.4794
▁Fa	-11.4794
▁4.1	-11.4795
nt	-11.4796
PH	-11.4797
▁عذاب	-11.4798
▁World	-11.48
▁Blue	-11.48
IE	-11.4802
▁DD	-11.4804
ax	-11.4805
▁فيلم	-11.4808
ted	-11.4809
▁قرون	-11.481
▁قبلاً	-11.481
قدیمی	-11.4811
ala	-11.4815
▁گرگان	-11.4818
▁2-3	-11.4818
▁PN	-11.4821
▁یونی	-11.4821
ender	-11.4822
▁124	-11.4823
▁حدی	-11.4824
▁داشبورد	-11.4828
▁اجزاء	-11.4828
ونگ	-11.483
▁پرت	-11.4832
▁نحوی	-11.4833
▁بنای	-11.4835
▁KW	-11.4837
▁اُ	-11.4839
sen	-11.4839
يده	-11.484
270	-11.4841
▁Sc	-11.4842
سیل	-11.4846
ero	-11.4848
عه	-11.4849
▁ستارگان	-11.4849
▁غذاخوری	-11.4849
py	-11.4849
زمان	-11.4849
fi	-11.4851
▁بلندترین	-11.4853
▁وینچ	-11.4857
▁سمنان	-11.4859
▁Pe	-11.4864
▁OE	-11.4865
▁کارآموزی	-11.4866
▁افشای	-11.4869
eu	-11.487
ose	-11.4872
▁پیمانکاران	-11.4874
▁مستر	-11.4883
▁205	-11.4884
▁War	-11.4884
▁157	-11.4885
▁نوا	-11.4887
pi	-11.4887
▁گرید	-11.4888
▁Tech	-11.4889
▁اپی	-11.489
che	-11.4892
▁ABB	-11.4893
▁عن	-11.4893
GO	-11.4902
▁الأ	-11.4904
ida	-11.4904
▁Gold	-11.4905
▁دکترای	-11.4908
▁Visa	-11.4916
▁پژوهشگاه	-11.4921
▁Best	-11.4921
1.	-11.4923
-400	-11.4927
▁2.6	-11.4927
-36	-11.4928
▁Board	-11.493
▁بوکس	-11.4937
▁Pi	-11.4937
▁حشره	-11.494
▁مفتول	-11.4941
▁کات	-11.4942
▁مهاجرتی	-11.4947
ایش	-11.4947
ene	-11.4948
MI	-11.4948
Pro	-11.4951
▁حشرات	-11.4951
▁خودکارآمدی	-11.4951
▁نخواهید	-11.4951
▁عجله	-11.4951
▁تجرب	-11.4953
▁Lu	-11.4956
ö	-11.4959
inch	-11.4961
▁یواس	-11.4962
▁خر	-11.4962
335	-11.4968
▁زبانی	-11.4969
▁اتباع	-11.4971
▁نامناسب	-11.4971
▁بیکاری	-11.4972
ولین	-11.4973
▁انگشتان	-11.4978
ature	-11.498
▁Shi	-11.4987
▁گیریم	-11.4989
▁شیرآلات	-11.4992
▁پیوندها	-11.4995
▁سرپرستی	-11.4997
قر	-11.4999
▁گرمایی	-11.5
▁ریف	-11.5001
▁DIP	-11.5002
نور	-11.5002
▁ناهموار	-11.5002
LD	-11.5003
▁بهایی	-11.5007
▁تحمیل	-11.5013
▁نخواهند	-11.5013
▁نشستن	-11.5013
وج	-11.5014
▁وین	-11.5014
HQ	-11.5016
▁تشریفات	-11.5024
▁158	-11.5027
▁اپرا	-11.5029
▁لایت	-11.503
▁تلفظ	-11.5033
يب	-11.5034
▁پلیر	-11.5037
▁مرزهای	-11.5042
▁تفلون	-11.5044
▁آبنوس	-11.5044
GA	-11.5046
▁جهش	-11.5048
▁And	-11.5049
حال	-11.505
ele	-11.5052
▁تثلیث	-11.5054
▁داوطلبان	-11.5056
▁جیمز	-11.5056
▁سازي	-11.5057
▁فقرات	-11.5059
-48	-11.506
▁هولوگرام	-11.5064
زاد	-11.5066
eri	-11.5067
▁قدمت	-11.5069
ons	-11.5069
▁MI	-11.5069
خواه	-11.5072
▁وزنه	-11.5073
▁67,3	-11.5075
▁دانشیار	-11.5077
-1396	-11.5078
▁آبزیان	-11.5078
5.000	-11.5081
8000	-11.5084
pl	-11.5084
▁ارزی	-11.5084
رگ	-11.5086
▁my	-11.5087
▁الن	-11.5088
▁کشتار	-11.509
ایر	-11.509
▁مرکب	-11.5093
▁RSS	-11.5095
▁فقیر	-11.5097
▁ناظر	-11.5098
▁طلاق	-11.5098
▁اله	-11.5099
▁وفادار	-11.5103
▁مثلاً	-11.5103
▁ISUZU	-11.5106
▁پروفسور	-11.5106
▁تاریکی	-11.5107
▁Forex	-11.5108
▁کلوپ	-11.5111
ff	-11.512
▁Archiv	-11.5126
▁White	-11.5127
▁اسپیرال	-11.5127
▁Iranian	-11.5129
DR	-11.5131
نوع	-11.5132
dis	-11.5133
8.5	-11.5134
▁title	-11.5137
▁مولیبدن	-11.5137
▁میکروفون	-11.5138
▁خودپرداز	-11.514
▁بدل	-11.5141
▁Steel	-11.5142
▁ED	-11.5143
▁قیام	-11.5144
▁data	-11.5146
▁مایکل	-11.5147
▁پالم	-11.5148
▁اسرار	-11.5148
▁ترور	-11.5153
▁Library	-11.5158
▁رگرسیون	-11.5158
▁ناپدید	-11.5158
▁برزیلی	-11.516
ade	-11.5165
سیس	-11.5169
LT	-11.5171
VI	-11.5172
▁رانش	-11.5175
▁آرش	-11.5175
1-1	-11.5178
▁ونزوئلا	-11.5179
▁مکارم	-11.518
▁دوزی	-11.5182
▁ایالتی	-11.5188
880	-11.5189
jo	-11.519
▁ارشاد	-11.519
5-	-11.5193
▁تعاونی	-11.5195
▁PO	-11.5196
▁فورد	-11.5198
▁MAX	-11.52
▁شرايط	-11.52
▁نانوذرات	-11.52
▁عبارات	-11.52
▁ادب	-11.5201
GE	-11.5203
▁پیامدهای	-11.5204
▁تیغ	-11.5205
▁1.9	-11.5208
▁طلسم	-11.5211
▁اسلواکی	-11.5211
▁1996	-11.5211
▁زور	-11.5213
ain	-11.5214
▁شمسی	-11.5215
▁بنی	-11.5217
SH	-11.5218
▁میکروب	-11.5219
شد	-11.5221
▁Bi	-11.5222
بور	-11.5223
▁DNA	-11.5223
▁Dis	-11.5224
تز	-11.5226
▁مانی	-11.5226
▁كم	-11.523
▁پرنعمت	-11.5232
▁کج	-11.5233
▁جانسون	-11.5234
▁8.5	-11.5236
DM	-11.5239
▁سخنگوی	-11.5239
▁4.7	-11.5239
▁روپیه	-11.5243
▁Dongguan	-11.5243
▁عج	-11.5244
▁مبله	-11.5247
gar	-11.5248
▁Ab	-11.5248
▁پخته	-11.5251
▁نوسانات	-11.5251
▁نظافت	-11.5253
sta	-11.5253
430	-11.5253
▁ختم	-11.5254
▁فلپ	-11.5255
▁فول	-11.5257
▁سونی	-11.5262
015	-11.5262
▁BB	-11.5267
بال	-11.5272
▁GL	-11.5273
▁1990	-11.5273
▁تضعیف	-11.5274
▁AB	-11.5275
▁USP	-11.5279
▁پن	-11.528
yo	-11.5282
▁Soft	-11.5284
▁ته	-11.5284
▁همت	-11.5285
▁عیار	-11.5286
ola	-11.5287
▁مصطفی	-11.5288
▁زی	-11.5288
porn	-11.529
hy	-11.5291
▁هوس	-11.5293
▁PD	-11.5295
ath	-11.5296
▁عصب	-11.5296
▁PAR	-11.5296
▁دیزنی	-11.5297
lon	-11.5298
▁Cart	-11.5304
▁الکترواستاتیک	-11.5306
▁تمایز	-11.5307
▁سیستان	-11.5307
▁اسکان	-11.5311
رف	-11.5312
▁عناوین	-11.5317
▁رسالت	-11.5319
6000	-11.5321
2004	-11.5323
fer	-11.5324
▁تیمی	-11.5324
St	-11.5325
190	-11.5328
▁Ω	-11.533
▁پارکت	-11.5331
▁EB	-11.5333
▁سپری	-11.5335
MT	-11.5336
PO	-11.5336
▁----	-11.5337
▁مهاجر	-11.534
شرکت	-11.5341
▁اراک	-11.5344
▁رهایی	-11.5344
▁کارگردانی	-11.5346
ore	-11.5347
▁ویرجین	-11.5347
▁صحرایی	-11.5348
AG	-11.5349
لم	-11.5349
▁دارن	-11.535
▁تج	-11.5351
▁موافق	-11.5351
رات	-11.5355
mar	-11.5355
▁التحصیلان	-11.5357
▁خزر	-11.5359
▁دایورت	-11.536
▁المپیک	-11.536
▁سرپوشیده	-11.536
▁پرداز	-11.5362
▁HE	-11.5363
▁آقایان	-11.5364
▁Roll	-11.5369
hua	-11.5369
دۀ	-11.5369
960	-11.537
▁بلوچستان	-11.537
▁کای	-11.5371
hin	-11.5371
▁اسکار	-11.5373
dd	-11.5373
▁صالح	-11.5374
▁You	-11.5374
▁1024	-11.5375
▁هدفون	-11.5375
▁نگهبان	-11.5376
▁پیمانکار	-11.5376
▁SI	-11.5376
DP	-11.5377
▁معلوماتی	-11.5381
▁راهرو	-11.5384
طر	-11.5385
▁پمپاژ	-11.5386
▁Test	-11.5391
▁IEEE	-11.5392
▁دودکش	-11.5392
▁احیا	-11.5393
▁متهم	-11.5393
▁انتقادات	-11.5396
HC	-11.54
▁290	-11.54
▁ظرافت	-11.5402
▁بدیهی	-11.5403
.8	-11.5404
زین	-11.5406
رال	-11.5409
▁ژورنال	-11.541
▁دلپذیر	-11.5411
▁بیلبورد	-11.5413
▁کمپرسی	-11.5413
▁پاش	-11.5417
▁قوت	-11.5419
▁آبادی	-11.542
▁نیازمندی	-11.542
▁ضربان	-11.5421
▁ایام	-11.5421
▁یعقوب	-11.5424
▁کاملی	-11.5425
▁آلو	-11.5427
136	-11.5428
َّ	-11.5431
▁دیفرانسیل	-11.5435
▁متقاطع	-11.5435
▁جمیرا	-11.5435
▁جنگی	-11.5436
▁کاندوم	-11.5437
▁مراکش	-11.5437
▁ماهیچه	-11.5438
005	-11.5438
▁گنده	-11.5439
کشورها	-11.5441
▁Net	-11.5442
▁نیکی	-11.5445
▁contact	-11.5445
▁مسواک	-11.5446
▁SPC	-11.5453
یابی	-11.5453
▁ولیعصر	-11.5456
▁اتمسفر	-11.5456
▁مکاتبات	-11.5458
▁پدال	-11.5459
▁BC	-11.546
▁Mr	-11.5462
▁اردن	-11.5462
▁149	-11.5465
رش	-11.5466
▁بیاورید	-11.5467
▁International	-11.5467
▁تاون	-11.5467
▁افراطی	-11.5468
▁th	-11.5469
▁لیستی	-11.5472
ima	-11.5473
▁ابی	-11.5477
▁Juego	-11.5478
▁Dianabol	-11.5478
ND	-11.5478
▁پالیسی	-11.5478
▁وحشت	-11.5481
▁پهلوی	-11.5481
▁چسبنده	-11.5483
▁TE	-11.5483
zi	-11.5488
▁محيط	-11.5489
▁اقامتی	-11.549
▁میکروبی	-11.549
▁cryptocurrency	-11.5491
▁ML	-11.5491
ji	-11.5492
رق	-11.5492
▁خوار	-11.5496
▁آنا	-11.5497
▁زبانهای	-11.55
▁Cummins	-11.55
▁آبمیوه	-11.55
▁شاندونگ	-11.55
▁مارجین	-11.55
▁TF	-11.5501
▁ژئو	-11.5503
▁متخلخل	-11.5511
LED	-11.5512
305	-11.5515
▁Grill	-11.5516
▁رسند	-11.5517
▁BV	-11.552
▁امامت	-11.552
▁Tehran	-11.5521
▁Jeux	-11.5521
▁Pelit	-11.5522
FI	-11.5523
▁امتیازات	-11.5524
rs	-11.5526
▁SEO	-11.5527
▁Reader	-11.5528
▁Gen	-11.5528
▁178	-11.5528
▁ويژه	-11.5532
▁نیمکت	-11.5533
▁زین	-11.5535
▁جانبازان	-11.5535
▁فرمانده	-11.5536
▁داراي	-11.5537
▁TA	-11.5538
▁تمبر	-11.5538
▁پوشاند	-11.5539
▁تعقیب	-11.5543
▁فلورسنت	-11.5543
▁Limited	-11.5543
ull	-11.5545
qui	-11.5546
پرس	-11.5546
خوان	-11.5548
301	-11.5549
▁Ag	-11.5551
وق	-11.5552
▁متاتریدر	-11.5554
▁پوزیشن	-11.5554
▁الکلی	-11.5554
▁ایزوله	-11.5555
atch	-11.5558
▁بردار	-11.5559
BC	-11.5559
▁سوزش	-11.556
▁Standard	-11.556
▁تناسلی	-11.5565
▁صربستان	-11.5565
tel	-11.5567
OP	-11.557
▁Mag	-11.5573
.13	-11.5574
▁تصدی	-11.5575
▁Th	-11.5576
▁رمان	-11.5577
▁شاتر	-11.5577
▁ادعای	-11.5578
▁ملکه	-11.5579
▁زراعت	-11.5587
.264	-11.5587
▁Tuber	-11.5588
▁صنعتي	-11.5588
▁عرق	-11.5588
▁001	-11.5591
▁159	-11.5593
FA	-11.5595
ازی	-11.5597
▁نداریم	-11.5598
▁کیان	-11.5598
▁لوستر	-11.5599
▁دوستیابی	-11.56
Mo	-11.5602
▁اع	-11.5604
-800	-11.5604
▁دارندگان	-11.5605
▁زیرآلبوم	-11.5609
يش	-11.5613
▁King	-11.5613
▁خلاص	-11.5614
▁MH	-11.5618
▁کنسانتره	-11.562
▁ANSI	-11.562
▁هپاتیت	-11.562
▁Markets	-11.5623
har	-11.5624
▁صدف	-11.5624
▁انداختن	-11.5628
یار	-11.5629
esh	-11.5629
tt	-11.563
▁مرتبه	-11.5634
TH	-11.5635
▁142	-11.5637
اض	-11.5639
▁کاما	-11.5642
▁سول	-11.5642
باشد	-11.5645
▁متریک	-11.5645
▁فوقانی	-11.5646
▁انسانهای	-11.5647
▁مسئولیتی	-11.5647
ics	-11.5649
▁لثه	-11.5653
▁میتسوبیشی	-11.5653
▁ولسوالی	-11.5653
رج	-11.5657
▁dr	-11.5658
▁اینگونه	-11.5658
321	-11.5659
▁سانتا	-11.5661
▁سپاس	-11.5668
شر	-11.5673
▁Boldenone	-11.5675
▁Ray	-11.5675
▁انسداد	-11.5675
▁from	-11.5675
▁گذارند	-11.5676
▁هیدرولیز	-11.5676
▁افزود	-11.5681
▁808	-11.5684
▁درگذشت	-11.5684
▁GBP	-11.5685
▁استارتاپ	-11.5686
und	-11.5686
اطلاعات	-11.5686
▁ملامین	-11.5688
▁شهردار	-11.569
▁PL	-11.569
▁خرم	-11.5691
cho	-11.5694
ating	-11.5695
▁کسری	-11.5695
▁ارکستر	-11.5697
▁الفبا	-11.5698
▁اختلافات	-11.57
▁معناست	-11.57
▁افزون	-11.5703
▁195	-11.5704
.30	-11.5704
ser	-11.5706
uff	-11.5708
▁آنیتا	-11.5708
▁توانی	-11.5709
log	-11.571
▁منطبق	-11.5712
▁ATM	-11.5712
▁پروتز	-11.5713
▁Core	-11.5717
▁ندارم	-11.5719
▁Green	-11.5719
▁واژن	-11.5722
▁that	-11.5722
.16	-11.5724
زر	-11.5727
▁سراسری	-11.5727
▁مفتخر	-11.5729
▁ائتلاف	-11.573
▁حصول	-11.573
.19	-11.5731
cial	-11.5737
▁انستیتو	-11.5738
▁دبستان	-11.5742
▁زمين	-11.5743
▁اجتماع	-11.5743
کلی	-11.5743
LO	-11.5745
▁چندان	-11.5746
▁147	-11.5746
▁استوار	-11.5746
▁قربانیان	-11.5747
▁عرفانی	-11.5748
كو	-11.5749
▁up	-11.5749
131	-11.575
▁اسیدی	-11.5753
الت	-11.5753
▁دنيا	-11.5756
▁غشایی	-11.5761
▁مردی	-11.5761
▁نخل	-11.5762
اما	-11.5763
▁لحظات	-11.5765
▁بتونی	-11.5766
▁143	-11.5766
▁زمستانی	-11.5766
شیر	-11.5768
▁137	-11.5768
▁خبرنگاران	-11.577
RF	-11.5773
gan	-11.5774
▁رسوم	-11.5776
▁بوته	-11.5776
▁حجاب	-11.5776
cam	-11.5776
فین	-11.5778
rpm	-11.5782
▁اجلاس	-11.5786
its	-11.5787
▁ساتن	-11.5788
▁دستگیر	-11.5788
▁Tor	-11.5789
▁تصمیمات	-11.5796
▁اواسط	-11.5797
▁بلاکچین	-11.5797
▁WiFi	-11.5797
▁آيا	-11.5798
▁چیپ	-11.5798
▁ساختارهای	-11.5799
cl	-11.5799
▁تقریبی	-11.5807
▁پیاز	-11.5808
▁اتلاف	-11.5808
▁مستعار	-11.5808
▁تنه	-11.5809
▁Java	-11.5809
▁ویترین	-11.5811
▁قیامت	-11.5813
103	-11.5813
cu	-11.5815
▁جعفر	-11.5817
PR	-11.582
▁موضع	-11.582
▁مبارزات	-11.5821
▁انتقادی	-11.5824
آباد	-11.5826
▁50000	-11.5826
▁8.0	-11.583
▁GLONASS	-11.5831
▁هیدروکلراید	-11.5831
▁درمورد	-11.5832
▁داور	-11.5834
▁مخلوقات	-11.5834
▁گرفتم	-11.5834
OT	-11.5836
▁شیلی	-11.5836
▁TX	-11.5837
ریا	-11.5838
▁VS	-11.5839
▁LAN	-11.584
▁تأخیر	-11.5842
▁تون	-11.5843
▁NW	-11.5845
▁بازبینی	-11.5845
▁السا	-11.5846
▁دنباله	-11.5848
vis	-11.5849
▁فواید	-11.5853
▁ببندید	-11.5854
▁مستطیلی	-11.5854
4.0	-11.5858
▁خبره	-11.5858
▁COB	-11.5859
yan	-11.5859
۴۰	-11.586
▁we	-11.5861
▁جرمی	-11.5861
▁Port	-11.5862
112	-11.5864
▁آندرویید	-11.5864
▁وقایع	-11.5864
▁SSD	-11.5865
ox	-11.5866
▁زیرنویس	-11.5869
tec	-11.587
▁بابت	-11.5871
▁1-3	-11.5874
▁Bl	-11.5875
كه	-11.5879
▁درحال	-11.5879
ə	-11.588
سته	-11.5881
PI	-11.5884
▁مهمتر	-11.5886
▁زو	-11.5892
▁پاد	-11.5894
▁265	-11.5894
▁اپراتورهای	-11.5894
▁ECG	-11.5895
▁تائید	-11.5895
▁Ja	-11.5897
▁۱۳۹۱	-11.5899
▁1997	-11.59
▁گویم	-11.59
▁340	-11.5901
tin	-11.5903
▁شمس	-11.5908
▁فنیل	-11.5909
▁مربیگری	-11.591
▁جزییات	-11.5911
▁Paper	-11.5912
▁توپی	-11.5915
cent	-11.5917
كر	-11.5917
مش	-11.5919
of	-11.592
صد	-11.592
▁Apr	-11.592
▁پاسارگاد	-11.5921
int	-11.5925
▁گیج	-11.5927
.0.1	-11.5929
▁اولی	-11.5931
▁HL	-11.5933
TRA	-11.5933
3.0	-11.5934
▁صنفی	-11.5936
▁معناداری	-11.5938
▁Winstrol	-11.5943
▁تحسین	-11.5944
▁HQ	-11.5945
▁7.1	-11.5947
▁ادم	-11.5948
▁آموزشگاه	-11.5949
کاران	-11.5952
yu	-11.5953
▁اسکله	-11.5955
▁کوسن	-11.5955
▁مؤسسات	-11.5957
▁اسکلت	-11.5957
205	-11.5958
▁پارت	-11.5961
▁مقاومتی	-11.5967
▁HT	-11.5969
▁پرسید	-11.597
▁AN	-11.597
▁گفتم	-11.5971
▁انتها	-11.5974
▁نشین	-11.5975
▁گذرواژه	-11.5978
▁همسران	-11.5981
▁خامنه	-11.5981
ski	-11.5982
▁کنسولی	-11.5983
▁BR	-11.5984
▁دن	-11.5985
▁202	-11.5986
▁شناس	-11.599
بک	-11.5992
▁آموخته	-11.5994
▁325	-11.5995
▁احتمالاً	-11.5995
BI	-11.5996
ky	-11.5996
▁niv	-11.5997
▁138	-11.5997
▁ویدیوی	-11.6
▁nbsp	-11.6
▁HB	-11.6
tv	-11.6001
▁شیء	-11.6001
▁بالن	-11.6002
▁ais	-11.6003
ings	-11.6005
▁ببرند	-11.6005
▁Sky	-11.6007
▁مشمول	-11.6013
▁آرین	-11.6016
▁148	-11.6017
▁خرما	-11.6018
▁275	-11.6019
▁دسر	-11.6021
▁Sub	-11.6023
▁فلکس	-11.6024
بیت	-11.6025
gu	-11.6029
▁متقاعد	-11.6035
▁پلک	-11.6036
▁WC	-11.6037
▁176	-11.6037
صورت	-11.6038
ake	-11.6039
▁PI	-11.6039
▁Poly	-11.6041
داشت	-11.6045
▁رغم	-11.6046
▁ندرت	-11.6046
▁مرمت	-11.6046
▁قهرمانی	-11.6048
▁وطن	-11.6051
▁Contact	-11.6052
▁پیروان	-11.6052
▁اج	-11.6055
▁قاجار	-11.6058
▁منازل	-11.6058
▁Chi	-11.6058
▁کیو	-11.6059
▁مساله	-11.606
▁سودآور	-11.6062
مار	-11.6062
▁مطب	-11.6064
ship	-11.6065
▁پاشش	-11.6066
▁لغزنده	-11.6069
▁دمیدن	-11.6071
▁بگیرم	-11.6074
▁بش	-11.6074
▁چو	-11.6076
۱۴	-11.6076
uck	-11.6077
▁افشا	-11.6079
EE	-11.608
460	-11.6083
▁نگری	-11.6083
1200	-11.6089
▁معرفت	-11.6089
▁1384	-11.6089
▁پیتر	-11.609
▁Glass	-11.6092
▁Hardcover	-11.6092
▁جعفری	-11.6094
▁8-	-11.6105
▁تد	-11.6105
▁متفرقه	-11.6105
▁DT	-11.6107
▁عدل	-11.6108
▁Su	-11.6109
▁تکنیکی	-11.6115
ns	-11.6115
▁گیس	-11.6116
▁تش	-11.6121
▁Xin	-11.6121
▁UT	-11.6122
▁الص	-11.6122
▁فال	-11.6123
276	-11.6123
▁ناراحت	-11.6124
▁ماهان	-11.6126
▁بینش	-11.6127
▁iPad	-11.6127
▁سیلو	-11.6127
cer	-11.6127
لز	-11.6131
▁Hard	-11.6135
▁tr	-11.6136
▁خاکی	-11.6137
CP	-11.6137
aa	-11.614
دوست	-11.614
401	-11.6142
▁FMUSER	-11.6143
▁برانگیز	-11.6145
▁سخنرانان	-11.6146
RP	-11.6148
▁Ke	-11.6148
▁SQL	-11.615
▁Electric	-11.615
▁نگین	-11.615
▁DM	-11.6151
▁مفهومی	-11.6151
▁LA	-11.6151
▁خرپا	-11.6151
▁فود	-11.6152
▁دینامیک	-11.6152
وکس	-11.6152
▁تندیس	-11.6153
lab	-11.6153
ؤ	-11.6158
گذار	-11.6161
▁شهوانی	-11.6161
▁ذات	-11.6162
011	-11.6165
برگ	-11.6167
WA	-11.6167
▁برخورداری	-11.6167
▁گستره	-11.6169
▁1383	-11.6171
▁Hu	-11.6175
▁مقیم	-11.6175
▁نانوایی	-11.6176
چشم	-11.6182
گروه	-11.6183
▁اتم	-11.6183
▁دردناک	-11.6185
▁مزارع	-11.6185
007	-11.6187
▁همجنس	-11.6187
▁Master	-11.6193
▁میهن	-11.6193
203	-11.6196
▁وکیوم	-11.6196
شما	-11.6197
press	-11.6198
یوس	-11.6198
LL	-11.6198
▁215	-11.6199
gal	-11.6199
▁رمزگشایی	-11.62
▁جنایت	-11.6202
ترين	-11.6206
▁EM	-11.6206
آر	-11.6206
▁ESD	-11.6207
▁ابزاری	-11.6209
▁1900	-11.6212
fu	-11.6215
▁قر	-11.6215
▁رجوی	-11.622
ology	-11.6221
ding	-11.6221
▁الکلام	-11.6222
app	-11.6225
▁ویال	-11.6225
164	-11.6225
▁ارتعاشی	-11.6226
▁کوچکترین	-11.6227
▁آوریم	-11.6228
ava	-11.6231
▁دندانی	-11.6231
▁گار	-11.6232
HS	-11.6232
▁مدارهای	-11.6232
▁Xiaomi	-11.6233
▁سموم	-11.6234
▁ملیت	-11.6234
▁Info	-11.6236
گرام	-11.6239
▁Del	-11.6239
▁NI	-11.6239
▁EAS	-11.624
▁استار	-11.6243
▁قاچاق	-11.6243
▁شربت	-11.6245
▁لبنیات	-11.6247
لات	-11.6248
shan	-11.6251
ket	-11.6251
▁ماندگاری	-11.6251
ONE	-11.6252
كن	-11.6253
▁القدیم	-11.6255
▁غشای	-11.6257
وگرافی	-11.6261
▁pa	-11.6262
▁Card	-11.6263
▁عبادت	-11.6266
▁۱۳۹۰	-11.6267
▁حالیکه	-11.6267
zer	-11.627
▁136	-11.6271
tom	-11.6273
əsi	-11.6274
نوس	-11.6277
▁دیفیوزر	-11.6278
▁کارهایی	-11.6278
▁تروریسم	-11.6278
▁اصیل	-11.6278
▁پناهنده	-11.6279
▁آنکارا	-11.6279
vel	-11.6279
▁PTZ	-11.6279
▁فرق	-11.6279
▁1,2	-11.628
کات	-11.6284
▁هوازی	-11.6284
ني	-11.6286
ü	-11.6287
▁موسس	-11.6289
ink	-11.629
▁كتاب	-11.629
▁الجزایر	-11.629
▁فروردين	-11.629
▁ونکوور	-11.629
▁اشعار	-11.629
▁گردی	-11.629
▁فانوس	-11.629
▁Med	-11.6291
bs	-11.6292
vs	-11.6292
▁۴۵	-11.6296
▁کاس	-11.6297
▁370	-11.6297
ail	-11.6301
▁Yu	-11.6301
▁سوختگی	-11.6302
▁پایانی	-11.6303
▁2.9	-11.6304
▁تصدیق	-11.6304
▁ممنوعیت	-11.6305
hai	-11.6308
▁پرداختی	-11.6309
توان	-11.6309
9.99	-11.631
گير	-11.6313
▁DTH	-11.6319
▁تالاب	-11.632
use	-11.632
▁KN	-11.6322
▁235	-11.6323
▁بازدیدهای	-11.6324
▁Software	-11.6325
▁خلوت	-11.6326
▁iran	-11.6332
▁آستر	-11.6333
.14	-11.6335
▁جادوگر	-11.6336
▁نوسازی	-11.6338
▁RAM	-11.6338
▁گوگرد	-11.6339
uz	-11.6343
▁وود	-11.6344
▁Line	-11.6344
جد	-11.6347
PL	-11.6347
▁باش	-11.6347
▁عملکردهای	-11.6348
rate	-11.6349
▁۶۰	-11.6349
▁رونمایی	-11.635
روی	-11.635
IM	-11.6351
هدف	-11.6352
▁پیشگامان	-11.6355
204	-11.6355
▁هفتاد	-11.6355
▁0.75	-11.6356
▁Ca	-11.6359
RT	-11.6362
▁پشه	-11.6363
▁آفریقایی	-11.6366
▁شه	-11.6366
▁هیپ	-11.6368
میر	-11.6368
▁Filter	-11.6373
030	-11.6376
▁هواپیماهای	-11.638
tek	-11.6381
▁عبد	-11.6382
-33	-11.6382
▁هواشناسی	-11.6384
▁خواهی	-11.6389
حه	-11.6389
202	-11.6389
▁ساکنین	-11.6392
▁عمرانی	-11.6393
PT	-11.6396
▁بیسکویت	-11.6396
▁باری	-11.6398
▁PID	-11.6399
▁منسوجات	-11.6408
▁سجاد	-11.6408
▁خرگوش	-11.6408
▁Page	-11.6409
▁نرمافزار	-11.641
Org	-11.6417
▁فرستادن	-11.6419
▁Cava	-11.6419
▁الس	-11.6421
▁فردوسی	-11.6424
ple	-11.643
▁پیچیدگی	-11.6433
▁قصه	-11.6435
▁State	-11.6435
ura	-11.6436
Tube	-11.6437
▁CN	-11.6438
phone	-11.6438
▁پوهن	-11.6443
▁هدایا	-11.6446
▁ویزیت	-11.6449
▁APP	-11.6451
660	-11.6452
▁XLPE	-11.6456
▁یهودا	-11.646
رای	-11.6461
▁SHR	-11.6461
۴۵	-11.6462
قل	-11.6462
▁0.55	-11.6462
▁پلیت	-11.6462
▁BT	-11.6463
BIZ	-11.6465
فور	-11.6467
▁سقط	-11.6467
lot	-11.6468
▁اسامی	-11.6469
▁آگاهانه	-11.6471
▁Work	-11.6471
▁PCI	-11.6471
▁اعظم	-11.6479
▁Transfer	-11.648
▁جسمانی	-11.6481
7000	-11.6481
▁سردبیر	-11.6482
657	-11.6484
▁1399	-11.6485
FC	-11.6486
▁مهندسي	-11.6489
درمانی	-11.6489
▁انتگرال	-11.6491
▁ناخوشایند	-11.6491
▁زیارت	-11.6491
▁گرگ	-11.6492
▁هرمزگان	-11.6492
kin	-11.6492
▁اهم	-11.6492
▁نظارتی	-11.6492
▁Sea	-11.6494
▁بازدیدها	-11.6494
▁ro	-11.6496
▁مجاور	-11.6498
▁دفن	-11.6499
ومی	-11.6499
▁حرم	-11.65
▁برابری	-11.6501
▁950	-11.6502
▁بعدا	-11.6502
▁الق	-11.6503
یپ	-11.6503
▁3200	-11.6504
ندر	-11.6505
▁گمرکی	-11.6507
og	-11.6508
▁مکزیکی	-11.6509
▁قراردادی	-11.6509
▁بازیبازی	-11.6511
▁app	-11.6512
▁Panel	-11.6514
▁گور	-11.6514
▁Pvc	-11.6516
▁کاف	-11.6517
▁آنقدر	-11.6518
▁ایوان	-11.6519
215	-11.652
mmx	-11.6522
▁قبض	-11.6527
▁یادبود	-11.6528
▁گسل	-11.6528
ائو	-11.6529
▁TOP	-11.653
izer	-11.6533
جل	-11.6535
aq	-11.6536
▁مسئولین	-11.6539
2.	-11.6542
▁ميشود	-11.6542
RM	-11.6543
▁بیس	-11.6545
▁گناهان	-11.6546
▁قبر	-11.6546
۲۱	-11.6548
221	-11.6549
▁دیپارتمنت	-11.6552
▁تاثیرگذار	-11.6553
▁نرسیده	-11.6553
▁طولی	-11.6554
▁141	-11.6554
▁استناد	-11.6556
▁ونیز	-11.6559
-88	-11.6559
▁کنندۀ	-11.6561
789	-11.6562
▁SN	-11.6563
▁سور	-11.6567
▁لل	-11.6568
فرم	-11.6569
▁ممنون	-11.657
▁kg	-11.6571
▁شورش	-11.6572
▁کنش	-11.6573
▁MV	-11.6573
▁اکانت	-11.6576
ژاپنی	-11.6577
▁se	-11.6579
ama	-11.6581
▁1064	-11.6585
▁جیر	-11.6593
▁FT	-11.6595
▁یکتا	-11.6598
▁شمشیربازی	-11.66
▁همینطور	-11.6601
▁گذراندن	-11.6601
▁Self	-11.6603
▁MAP	-11.6604
▁گرافیت	-11.6605
NT	-11.6611
ition	-11.6612
tes	-11.6612
▁غلاف	-11.6612
▁ساری	-11.6612
کسی	-11.6613
▁طرفین	-11.6614
▁پژوهشنامه	-11.6615
▁ایلام	-11.662
als	-11.662
eo	-11.662
▁مداری	-11.6622
▁TN	-11.6624
▁OpenELEC	-11.6624
▁طبل	-11.6628
▁EL	-11.6628
080	-11.6629
max	-11.6631
▁زرین	-11.6633
▁موتوری	-11.6634
▁Chrome	-11.6636
▁هاب	-11.6636
▁روانشناختی	-11.6636
▁پریز	-11.6637
je	-11.6637
▁نامنظم	-11.6637
▁Ga	-11.6637
pan	-11.6638
4.2	-11.6641
over	-11.6643
BO	-11.6645
▁کمیک	-11.6646
▁اعتراف	-11.6648
▁Jin	-11.6649
▁اثری	-11.665
▁فرماید	-11.6653
▁نود	-11.6654
▁آز	-11.6656
▁شاهین	-11.6657
نال	-11.6657
▁عزیزم	-11.6657
▁GI	-11.6657
▁ارت	-11.6658
▁Material	-11.6658
▁درصدی	-11.6659
▁لک	-11.666
وود	-11.666
▁PHP	-11.666
▁سپهر	-11.666
▁انعقاد	-11.6661
▁معجزه	-11.6661
▁چیدمان	-11.6661
269	-11.6661
▁Fabric	-11.6661
core	-11.6661
ux	-11.6662
bus	-11.6664
las	-11.6666
▁LD	-11.6668
▁غدد	-11.6673
▁متوالی	-11.6673
▁termin	-11.6674
ami	-11.6676
احت	-11.6679
ize	-11.6682
aw	-11.6683
▁شلواری	-11.6683
▁شخصیتی	-11.6685
ونیک	-11.6685
▁وسعت	-11.6685
▁راکتور	-11.6688
280	-11.6688
▁پسوند	-11.6689
▁mo	-11.6693
▁جار	-11.6695
▁Park	-11.6695
bra	-11.6696
▁قا	-11.6697
▁Br	-11.6703
▁شعب	-11.6703
▁سبزی	-11.6704
▁SAE	-11.6706
▁ملي	-11.6709
▁اصالت	-11.6709
▁هشتمین	-11.6716
▁آلومینا	-11.6718
▁Ho	-11.6719
tube	-11.6725
table	-11.6726
▁1382	-11.6727
▁BO	-11.6728
ven	-11.6728
▁اشکالات	-11.6731
ناز	-11.6731
▁ACCURL	-11.6734
▁علامه	-11.6734
▁دیو	-11.6736
▁افسر	-11.6737
سار	-11.6739
▁بزرگنمایی	-11.674
▁داران	-11.674
▁تنظیمی	-11.6742
▁معرف	-11.6743
▁پستون	-11.6745
▁پرینت	-11.6746
▁PVDF	-11.6747
▁پینگ	-11.675
برد	-11.675
-2019	-11.6754
▁رقمی	-11.6755
▁بشریت	-11.6755
ock	-11.6758
▁شایستگی	-11.6759
▁آفتابگردان	-11.6759
▁خرج	-11.6762
▁UN	-11.6767
▁کوانتومی	-11.6767
▁جاز	-11.6768
▁کاریابی	-11.677
▁وحشتناک	-11.6771
-2017	-11.6771
vin	-11.6772
ُر	-11.6772
سیستم	-11.6773
رول	-11.6774
▁بنام	-11.6777
blar	-11.6777
113	-11.6777
▁بلو	-11.6778
▁میهمان	-11.6781
▁اثاث	-11.6782
▁بودیم	-11.6783
OO	-11.6785
▁رویایی	-11.6786
▁انار	-11.6788
▁دي	-11.679
▁شیری	-11.6791
▁عنکبوتی	-11.6792
▁بالاتری	-11.6794
▁کامپوزیتی	-11.6795
0.8	-11.6795
▁اولتراسوند	-11.6796
▁full	-11.6796
▁گرو	-11.6797
▁xə	-11.6798
▁سرشار	-11.6798
CR	-11.6798
▁Player	-11.6804
AF	-11.6807
▁Adobe	-11.6808
▁نیشابور	-11.6808
LY	-11.6808
ماه	-11.6809
nan	-11.6811
▁فلور	-11.6812
▁سفتی	-11.6813
سکو	-11.6815
▁حک	-11.6816
▁سوپر	-11.6817
2018	-11.682
پژوهشی	-11.682
▁پدید	-11.682
▁توماس	-11.6821
▁it	-11.6826
خا	-11.6829
▁ترسیم	-11.6832
ati	-11.6832
▁اهدای	-11.6835
▁146	-11.6837
▁ART	-11.6838
▁رباتها	-11.684
منت	-11.6843
▁type	-11.6844
صف	-11.6845
▁إ	-11.685
▁داعش	-11.6857
▁سلطه	-11.6858
▁حمايت	-11.6858
-1397	-11.6859
TER	-11.686
▁ترمو	-11.6862
▁460	-11.6863
يق	-11.6863
▁ساکت	-11.6863
▁بیند	-11.6865
تازه	-11.6866
▁نیکو	-11.6869
▁احراز	-11.687
▁610	-11.6871
▁کشیش	-11.6875
TT	-11.6875
▁خارش	-11.6876
▁TG	-11.688
▁AG	-11.688
▁Cal	-11.6882
▁لهجه	-11.6883
▁نزدیکتر	-11.6886
2.4	-11.6887
▁ابدی	-11.6889
▁Out	-11.6889
Porn	-11.6891
▁KA	-11.6891
▁اوست	-11.6892
KA	-11.6892
CD	-11.6894
▁منشأ	-11.6895
▁گلوکز	-11.6895
520	-11.6896
▁رزرواسیون	-11.6897
▁مشتريان	-11.6897
480	-11.69
▁مشابهی	-11.6901
▁3.4	-11.6901
.18	-11.6901
▁کوهستان	-11.6903
▁مولد	-11.6906
003	-11.6906
hor	-11.6907
▁تنباکو	-11.6907
▁اظهارات	-11.6907
▁كيش	-11.6908
ier	-11.6908
med	-11.6911
EP	-11.6913
oma	-11.6913
▁Em	-11.6914
▁HC	-11.6916
▁NEW	-11.6917
▁منقضی	-11.692
ria	-11.692
620	-11.6921
▁وکار	-11.6924
▁inter	-11.6924
▁الو	-11.6925
OM	-11.6927
▁قومی	-11.693
یتا	-11.6931
امی	-11.6933
▁139	-11.6933
▁مندرج	-11.6933
▁هبی	-11.6935
۱۸	-11.6935
▁305	-11.6936
▁سار	-11.6938
▁آرزوی	-11.6938
▁gr	-11.6938
ank	-11.694
▁Logic	-11.6941
مادر	-11.6942
▁اندیش	-11.6942
▁ساير	-11.6945
▁خاطره	-11.6948
▁لن	-11.6949
▁دونده	-11.6949
▁بده	-11.6951
ّه	-11.6952
▁Cor	-11.6953
▁RAL	-11.6956
▁احسان	-11.6958
▁آمینو	-11.6962
۱۶	-11.6964
test	-11.6964
▁آفت	-11.6965
ect	-11.6965
▁میرزا	-11.6968
▁1050	-11.6968
-44	-11.6969
▁لایسنس	-11.697
▁نگارخانه	-11.697
room	-11.6971
▁مامایی	-11.6972
EM	-11.6974
▁عاری	-11.6975
▁زمانها	-11.6976
SM	-11.6977
پول	-11.698
▁جغرافیا	-11.6981
سیون	-11.6981
▁Enterprise	-11.6983
بوک	-11.6987
▁طبخ	-11.6987
▁AU	-11.699
211	-11.6994
ریل	-11.6995
▁امری	-11.6995
▁حومه	-11.6995
▁فتوولتائیک	-11.6995
استر	-11.6995
▁Double	-11.6995
▁بمانید	-11.6995
▁عمارت	-11.6996
ايي	-11.6997
RD	-11.6998
▁کاپ	-11.7
▁ولوو	-11.7001
AY	-11.7003
▁ND	-11.7005
▁دزدان	-11.7005
len	-11.7006
▁خواه	-11.7006
▁188	-11.7006
ورت	-11.7007
SU	-11.7007
▁لرستان	-11.7008
▁الکساندر	-11.7008
لن	-11.701
▁164	-11.7015
▁برا	-11.7018
▁Ph	-11.7023
▁متی	-11.7024
BE	-11.7025
وژن	-11.7028
par	-11.7032
▁BP	-11.7032
▁Ri	-11.7033
▁قاعدگی	-11.7033
▁və	-11.7034
▁ریاضیات	-11.7035
▁گا	-11.704
▁انعکاس	-11.704
▁ملزومات	-11.7046
▁مشاورین	-11.7047
▁میلگرد	-11.7049
وما	-11.7049
▁کرا	-11.7049
▁208	-11.705
▁باریج	-11.705
EI	-11.7052
▁اولين	-11.7057
▁ثروتمند	-11.7058
▁شم	-11.7058
lt	-11.7058
▁تشریح	-11.7058
شون	-11.7058
▁رضایتمندی	-11.7059
▁کیست	-11.7061
▁دوازدهم	-11.7064
۶۰	-11.7064
▁کانونی	-11.7065
▁3.9	-11.7066
▁رمزگذار	-11.7066
▁اعتقادی	-11.7071
▁فایلهای	-11.7071
▁مردمان	-11.7072
▁ER	-11.7073
▁داود	-11.7073
▁زون	-11.7079
▁خودکشی	-11.7079
▁IPS	-11.7079
▁اسد	-11.708
ire	-11.708
▁جلبک	-11.7081
▁کبدی	-11.7085
▁Is	-11.7085
▁انگل	-11.7087
▁هموار	-11.7089
▁نکند	-11.7089
▁تصوير	-11.7089
sky	-11.7091
▁web	-11.7093
▁dis	-11.7099
340	-11.7099
▁پدران	-11.71
▁Ali	-11.7101
▁آسم	-11.7102
133	-11.7103
▁مگنت	-11.7104
▁خوشحالم	-11.7106
▁دریافتی	-11.711
▁بخواهد	-11.7112
▁ma	-11.7115
▁دقیقاً	-11.7115
▁415	-11.7116
عب	-11.7117
▁page	-11.7117
۰۰	-11.7118
شاه	-11.712
▁آمستردام	-11.7122
نویس	-11.7123
▁باله	-11.7125
805	-11.7129
▁مرجانی	-11.713
▁پارامترها	-11.7132
▁ne	-11.7133
▁عارضه	-11.7135
115	-11.7136
9.00	-11.7138
▁کشنده	-11.7139
▁MR	-11.7142
▁۰۴	-11.7143
▁152	-11.7143
▁عظیمی	-11.7146
▁تاییدیه	-11.7147
▁جداکننده	-11.7149
▁کیم	-11.7149
▁زمانبندی	-11.715
▁مقداری	-11.715
▁کارا	-11.7151
BL	-11.7151
iran	-11.7153
▁منفرد	-11.7154
side	-11.7158
▁برفی	-11.7159
▁منصوب	-11.716
▁iPhone	-11.716
نما	-11.7161
▁جوانه	-11.7161
▁خريد	-11.7163
▁معلول	-11.7163
▁نینا	-11.7164
333	-11.7165
▁GMO	-11.7166
▁کورس	-11.7168
▁دانا	-11.7171
▁سپاهان	-11.7172
▁ملکی	-11.7173
▁مقاطع	-11.7173
▁گودال	-11.7175
▁اکرم	-11.7177
▁Par	-11.718
ets	-11.7181
▁تیزر	-11.7181
▁حدس	-11.7181
▁5.2	-11.7182
دیس	-11.7183
▁فواصل	-11.7186
LF	-11.7186
▁خوی	-11.7189
▁چرخدار	-11.7189
▁Us	-11.719
روم	-11.7193
▁5050	-11.7195
▁LR	-11.7196
▁رسانده	-11.7196
▁له	-11.7199
itfield	-11.7199
▁EV	-11.72
7.0	-11.7202
▁ایست	-11.7209
▁براش	-11.7212
▁روسيه	-11.7212
▁مارکتینگ	-11.7213
tle	-11.7214
house	-11.7217
▁فرقه	-11.7217
▁رولر	-11.7219
▁هاشمی	-11.7222
▁شدیم	-11.7225
▁مودار	-11.7226
zo	-11.7228
▁هندسی	-11.7229
▁اقلیم	-11.723
▁Products	-11.723
load	-11.7233
▁1280	-11.7233
▁FB	-11.7235
▁کیهان	-11.7237
▁جنیفر	-11.7238
▁لود	-11.7243
▁12.5	-11.7243
▁405	-11.7244
▁دای	-11.7245
▁تجسم	-11.7246
▁RA	-11.7249
▁اَ	-11.725
▁فرمولاسیون	-11.7251
311	-11.7256
▁EPC	-11.726
▁530	-11.7261
1.4	-11.7261
▁هندوستان	-11.7264
▁گرین	-11.7264
▁غرور	-11.7264
ریت	-11.7264
روس	-11.7268
▁FF	-11.7269
her	-11.727
355	-11.7271
▁انتخاباتی	-11.7271
060	-11.7272
▁Control	-11.7273
▁ندا	-11.7275
▁معافیت	-11.7277
low	-11.7278
▁گریتینگ	-11.7278
▁1380	-11.7279
▁فاکتورهای	-11.7282
▁کارفرمای	-11.7282
خته	-11.7286
▁بنگلادش	-11.7289
▁شورت	-11.7296
▁تأسیسات	-11.7296
▁دوستداران	-11.7297
▁1995	-11.7297
▁اقلیمی	-11.7298
۲۵	-11.7298
▁ارتوپدی	-11.7298
2.2	-11.73
004	-11.73
ture	-11.7301
الله	-11.7301
▁Global	-11.7301
▁YG	-11.7308
▁Ultra	-11.731
ries	-11.731
▁مقر	-11.7314
▁ارگونومیک	-11.7315
▁اراضی	-11.7315
▁ژلاتین	-11.7315
▁۳۵	-11.7323
متر	-11.7324
-98	-11.7324
▁الهیات	-11.7326
▁شوی	-11.7328
▁بازنگری	-11.7328
▁Durabolin	-11.7333
mu	-11.7335
1800	-11.7335
▁تروریست	-11.7337
▁نمایشنامه	-11.7338
▁عکاس	-11.7339
▁سفره	-11.734
▁کارکردهای	-11.734
▁اصرار	-11.7341
▁ناقص	-11.7341
▁مرسوم	-11.7342
▁خانوار	-11.7342
٢	-11.7342
▁داربست	-11.7343
bin	-11.7345
ization	-11.7346
work	-11.7346
▁بدی	-11.7347
▁پستال	-11.735
بات	-11.7352
▁255	-11.7352
dan	-11.7352
ّی	-11.7352
▁رگولاتور	-11.7354
meter	-11.7355
▁Baya	-11.7358
▁UC	-11.7359
یج	-11.736
▁كر	-11.7361
▁TL	-11.7361
▁خامه	-11.7362
▁شمش	-11.7364
pos	-11.7366
یگ	-11.7367
▁تفلیس	-11.7368
▁فشاری	-11.737
▁گوی	-11.737
-55	-11.7373
177	-11.7377
-240	-11.7377
vid	-11.7378
▁تنبل	-11.7378
▁سفال	-11.7379
▁۲۰۱۶	-11.7381
▁تضاد	-11.7381
▁بازتابنده	-11.7381
▁گرمایشی	-11.7383
▁321	-11.7384
▁دایناسور	-11.7386
▁تق	-11.7386
یِ	-11.7387
006	-11.7387
▁MAC	-11.7387
▁5.3	-11.7389
cr	-11.7391
▁bo	-11.7392
▁Enigma	-11.7393
ələr	-11.7394
ora	-11.7394
▁نکرد	-11.7395
sc	-11.7395
▁مین	-11.7397
610	-11.7399
PSK	-11.74
▁Uni	-11.74
050	-11.7401
-65	-11.7402
▁لند	-11.7402
ər	-11.7404
VPN	-11.7404
فنلاندی	-11.7404
▁مستعد	-11.7407
▁نقدینگی	-11.7407
▁بیاورد	-11.7409
۰۴	-11.7409
▁مشروط	-11.741
▁Bag	-11.7411
▁شلوغ	-11.7416
FO	-11.7419
الات	-11.742
özü	-11.742
▁عابر	-11.742
▁Cha	-11.7425
▁Cloud	-11.7426
dia	-11.7429
اوی	-11.7429
Mn	-11.743
▁-30	-11.743
زیبا	-11.743
لي	-11.7431
خط	-11.7433
▁فارنهایت	-11.7433
▁بیوتکنولوژی	-11.7433
▁Jammer	-11.7433
▁درشت	-11.7434
▁هویج	-11.7434
۳۶	-11.7438
▁ث	-11.7439
▁وقف	-11.7441
▁courier	-11.7446
▁تطابق	-11.7446
▁onun	-11.7448
▁Vol	-11.7449
▁فصلی	-11.7449
FF	-11.745
▁عزت	-11.745
▁سپ	-11.7454
▁7.0	-11.7456
▁روحیه	-11.7456
LP	-11.7458
▁متوسطه	-11.7459
▁اوضاع	-11.7459
▁فرسودگی	-11.7459
▁ارضایی	-11.746
▁لاس	-11.7461
ولت	-11.7463
▁IF	-11.7464
dar	-11.7465
▁Sk	-11.7466
440	-11.7467
▁IOS	-11.7467
خدمات	-11.747
▁GMT	-11.7472
▁سیترات	-11.7473
▁ستم	-11.7475
▁ترانزیستور	-11.7475
315	-11.7477
▁اسکرو	-11.748
▁ایل	-11.748
kh	-11.7481
2500	-11.7483
sion	-11.7484
▁لیلا	-11.7484
وید	-11.7486
▁سانتریفوژ	-11.7486
▁مدیسون	-11.7486
sy	-11.7487
▁بیستم	-11.7487
ound	-11.749
time	-11.7496
▁مبادلات	-11.7499
▁مدفوع	-11.7499
▁items	-11.7501
ئل	-11.7502
-1395	-11.7503
▁مبنا	-11.7507
for	-11.7509
▁Direct	-11.7511
فق	-11.7511
اران	-11.7511
▁اقبال	-11.7512
▁آغوش	-11.7512
▁آنگاه	-11.7513
▁گریت	-11.7514
▁Sunny	-11.7514
rin	-11.7515
یور	-11.7515
pack	-11.7517
▁امتحانات	-11.7518
▁2300	-11.7519
▁Edge	-11.752
-2018	-11.7521
مای	-11.7523
▁660	-11.7523
met	-11.7524
وات	-11.7524
vent	-11.7526
▁تلنگر	-11.7526
▁پیوندهای	-11.7527
▁منفجر	-11.7529
▁vi	-11.753
توم	-11.7535
▁۰۲	-11.7536
303	-11.7537
FS	-11.7537
▁میباشند	-11.7538
▁Philosophy	-11.7539
▁میلیمتری	-11.7542
▁TH	-11.7543
۴۴	-11.7543
▁ژله	-11.7544
▁PLA	-11.7544
▁بودایی	-11.7545
دیم	-11.7554
هارد	-11.7556
▁برگرفته	-11.7557
▁چنگ	-11.7558
▁باغبانی	-11.7559
▁کرونا	-11.7559
▁RD	-11.7559
۸۶	-11.7566
▁ترسناک	-11.7566
صر	-11.7566
▁تردد	-11.7568
▁151	-11.7568
▁سرود	-11.7568
▁مرغوب	-11.7569
▁Ac	-11.757
ائ	-11.7571
▁MF	-11.7572
ستی	-11.7572
▁دشواری	-11.7573
▁FH	-11.7576
▁TO	-11.7577
▁4.6	-11.7578
▁JY	-11.7579
▁طا	-11.7579
▁چینگدائو	-11.7579
▁گمراه	-11.7579
▁فرفری	-11.7579
▁غده	-11.758
▁اتکا	-11.7581
▁کراس	-11.7586
▁ON	-11.7587
▁جیبی	-11.7588
▁جری	-11.7588
▁خطاب	-11.7589
FR	-11.7589
kHz	-11.759
▁شاشیدن	-11.759
۱۲	-11.7591
▁باقیمانده	-11.7592
▁tracker	-11.7592
▁بندرعباس	-11.7592
▁مشکوک	-11.7593
▁Sm	-11.7596
▁شهاب	-11.7597
ika	-11.7597
▁فریاد	-11.7599
پرداز	-11.7602
8.0	-11.7603
Pa	-11.7605
▁عاج	-11.7605
▁مستلزم	-11.7606
▁قاضی	-11.7606
347	-11.761
یق	-11.7611
▁Die	-11.7611
▁دارک	-11.7613
هوای	-11.7616
▁Des	-11.7617
950	-11.7617
▁گفتمان	-11.7619
oli	-11.762
مپ	-11.762
▁تح	-11.7621
▁باشی	-11.7628
▁بخشید	-11.763
▁تابعه	-11.7631
▁صادرکنندگان	-11.7633
▁نامگذاری	-11.7637
ثر	-11.764
ular	-11.7643
▁LE	-11.7646
▁جانشین	-11.7647
▁اتانول	-11.7648
▁اینجایی	-11.7648
rit	-11.7648
▁استرداد	-11.7648
▁اتر	-11.7648
▁اردو	-11.7652
▁خبرهای	-11.7653
▁0.0	-11.7653
▁آندروژن	-11.7655
▁معلوم	-11.7657
▁Pay	-11.7658
ریز	-11.7659
▁بنیانگذار	-11.7661
oll	-11.7662
-64	-11.7663
▁Company	-11.7664
▁رولینگ	-11.7668
▁دانشگاهها	-11.7672
▁متعاقب	-11.7673
▁کارائیب	-11.7673
▁Display	-11.7673
ram	-11.7673
▁افتتاحیه	-11.7676
▁کدو	-11.7677
▁Far	-11.7678
▁Head	-11.7679
122	-11.7681
png	-11.7683
شناس	-11.7684
Me	-11.7686
470	-11.7686
▁Telegram	-11.7686
▁فقدان	-11.7687
▁time	-11.7688
▁WA	-11.7688
SD	-11.7688
bu	-11.769
▁Time	-11.769
rad	-11.7691
ONG	-11.7692
-62	-11.7694
▁کینگ	-11.7694
▁بسپار	-11.7699
▁Pen	-11.77
▁الاسلام	-11.77
▁Wall	-11.7701
▁Exchange	-11.7704
▁بلک	-11.7705
SR	-11.7706
▁دندانپزشک	-11.7708
▁km	-11.7709
▁دریغ	-11.7709
▁bar	-11.771
▁مود	-11.7712
▁شیرهای	-11.7713
▁استون	-11.7713
▁بولدوزر	-11.7713
▁Over	-11.7714
pm	-11.7717
▁کریس	-11.7719
▁سرطانی	-11.772
208	-11.772
▁Lin	-11.772
5-1	-11.7721
Cl	-11.7723
720	-11.7726
▁سازمانهای	-11.7726
▁۰۵	-11.773
▁احیای	-11.773
▁نصف	-11.773
▁HK	-11.7736
▁تراورتن	-11.7741
▁ماهیانه	-11.7742
شم	-11.7743
▁هتلهای	-11.7743
▁سایبری	-11.7744
wood	-11.7744
▁پايان	-11.7746
▁بنیادین	-11.7746
▁پنی	-11.7747
۱۷	-11.7747
▁1550	-11.775
510	-11.7752
▁الر	-11.7752
▁برنامۀ	-11.7752
▁دوختن	-11.7752
▁Premium	-11.7754
▁دكتر	-11.7754
▁Motor	-11.7755
▁Tai	-11.7756
▁شناختن	-11.7757
▁الج	-11.7758
HK	-11.776
▁فازی	-11.776
bot	-11.7761
▁همين	-11.7763
▁ورزشکار	-11.7765
▁متراژ	-11.7765
ort	-11.7767
▁اتوکلاو	-11.7768
▁امپدانس	-11.7768
▁اخ	-11.7769
ations	-11.7769
▁لیبل	-11.777
دشت	-11.777
▁باکتریایی	-11.7771
۱۹	-11.7775
▁یمن	-11.7777
▁بخت	-11.7779
don	-11.778
▁کاتولوگ	-11.7781
▁شلاق	-11.7782
▁دوبل	-11.7784
206	-11.7784
▁540	-11.7785
▁MX	-11.7786
▁Ru	-11.7786
▁DI	-11.7789
▁car	-11.7794
▁۰۱	-11.7796
▁su	-11.7798
▁شکارچی	-11.7803
▁دلتا	-11.7805
▁ارگ	-11.7806
اك	-11.7806
▁Wire	-11.7806
▁في	-11.7807
▁Ste	-11.7807
صلى	-11.7807
▁فوکوس	-11.7809
▁153	-11.781
دي	-11.7811
▁میشه	-11.7813
▁واگذار	-11.7814
▁Res	-11.7815
▁بنگاه	-11.7818
كي	-11.7819
▁CSS	-11.7819
ili	-11.7819
یۀ	-11.7821
مبر	-11.7822
امد	-11.7822
▁تهوع	-11.7822
▁LiFePO	-11.7823
▁مخملی	-11.7823
▁جمهوري	-11.7824
▁YA	-11.7827
▁افزارها	-11.7829
▁شوق	-11.7829
▁سربار	-11.7832
ژی	-11.7833
▁سلولز	-11.7833
▁Bur	-11.7835
14001	-11.7835
▁ببین	-11.7836
book	-11.7836
▁پشتوانه	-11.7836
▁4500	-11.7837
▁متریال	-11.7841
tex	-11.7841
▁HDD	-11.7842
▁هول	-11.7845
▁6.3	-11.7848
▁صفت	-11.7849
ایت	-11.7849
هی	-11.7851
▁استانی	-11.7852
▁نمایی	-11.7852
۲۸	-11.7856
▁بیسیم	-11.7856
یك	-11.7857
خش	-11.7857
گز	-11.7858
▁بوس	-11.786
▁بدترین	-11.7863
▁After	-11.7864
▁q	-11.7864
▁ورژن	-11.7864
▁حامله	-11.7869
وسی	-11.7869
free	-11.787
▁پف	-11.7874
▁عمومي	-11.7874
▁عواقب	-11.7877
▁OFF	-11.7879
▁استرالیایی	-11.7882
▁167	-11.7888
▁۸۸	-11.7888
▁تورنت	-11.7889
▁اکت	-11.7889
▁ترانزیت	-11.7891
▁فستیوال	-11.7891
▁LT	-11.7892
▁اینتل	-11.7892
NS	-11.7893
▁سلیمانی	-11.7893
▁337	-11.7894
ویر	-11.7898
▁کوی	-11.7899
▁بافتنی	-11.7901
▁صادقی	-11.7904
▁آمدند	-11.7904
▁Galaxy	-11.7905
▁Research	-11.7905
▁ابراهیمی	-11.7905
shi	-11.7906
▁بسیج	-11.7906
nic	-11.7907
گه	-11.7907
قت	-11.7909
air	-11.7913
▁كو	-11.7914
▁یگانه	-11.7915
۹۰	-11.7917
▁245	-11.7918
▁نوازی	-11.7923
2.6	-11.7924
۹۱	-11.7925
00000	-11.7926
▁آموزه	-11.7929
▁بروکر	-11.7929
▁طبع	-11.793
pt	-11.7931
104	-11.7933
▁زایی	-11.7933
▁سینت	-11.7934
ویت	-11.7935
▁بلیت	-11.7935
▁SPSS	-11.7936
Al	-11.7939
▁ECU	-11.7939
▁Tele	-11.7942
▁مقرر	-11.7944
KHz	-11.7944
▁12000	-11.7944
▁BK	-11.7945
▁دهکده	-11.7947
▁BE	-11.7948
▁خروس	-11.7949
ric	-11.795
▁PSA	-11.795
تار	-11.7951
▁جر	-11.7951
▁گیل	-11.7952
▁کریمی	-11.7953
▁ارس	-11.796
▁ارديبهشت	-11.796
▁Medical	-11.7961
UM	-11.7961
▁194	-11.7961
▁درود	-11.7961
▁فیض	-11.7961
▁فوراً	-11.7962
▁ماکرو	-11.7962
۷۱	-11.7964
▁ERW	-11.7965
▁Apple	-11.7969
sm	-11.7969
راد	-11.7974
▁رادیکال	-11.7974
▁رقیق	-11.7974
▁شناسنامه	-11.7974
▁همگانی	-11.7978
▁CZ	-11.7979
val	-11.7979
▁کانتر	-11.798
ont	-11.798
3.2	-11.7984
طب	-11.7987
▁اختلاط	-11.7988
۹۴	-11.799
▁اپتیکال	-11.7991
FX	-11.7991
زید	-11.7992
ever	-11.7992
▁دمو	-11.7996
▁شناسان	-11.7999
▁Cam	-11.8002
▁cFos	-11.8002
▁سوگند	-11.8002
▁7.	-11.8003
▁CU	-11.8003
-52	-11.8004
-34	-11.8004
▁اِ	-11.8005
▁مگاپیکسل	-11.8014
▁برندها	-11.8014
▁فست	-11.8015
▁مکالمات	-11.8016
▁فرهاد	-11.8016
▁الاغ	-11.802
▁الزام	-11.8023
▁مُ	-11.8023
260	-11.8028
021	-11.8029
▁مترادف	-11.803
▁Digital	-11.803
▁گردهمایی	-11.803
139	-11.8031
▁نسیم	-11.8032
mic	-11.8032
ood	-11.8032
▁1,0	-11.8034
ible	-11.8038
▁نشینی	-11.804
شور	-11.8043
رۀ	-11.8043
▁dildo	-11.8044
▁Apk	-11.8046
ALI	-11.8048
hen	-11.8049
عم	-11.805
سنگ	-11.805
uri	-11.8053
-75	-11.8054
▁مالت	-11.8055
▁هلیکوپتر	-11.8058
▁صریح	-11.8058
▁داماک	-11.8059
▁ارزشیابی	-11.806
▁Solar	-11.8062
ایران	-11.8063
▁تربت	-11.8066
▁رید	-11.8068
▁فرماندار	-11.8068
اتر	-11.8068
hz	-11.8069
▁بخشهای	-11.807
xi	-11.8071
▁لایحه	-11.8072
▁یار	-11.8075
▁Price	-11.8076
▁بوتیک	-11.8076
قي	-11.8078
▁TK	-11.808
ori	-11.808
▁تلفیقی	-11.8082
▁هزاره	-11.8085
▁لم	-11.8085
▁Vessoft	-11.8086
▁بیومتریک	-11.8086
اگ	-11.8087
▁177	-11.8089
▁کاروان	-11.8092
▁sh	-11.8093
▁کاه	-11.8094
صل	-11.8094
▁بیکران	-11.8096
▁Masteron	-11.8099
AE	-11.81
▁مقصود	-11.81
▁مسلم	-11.81
▁حامد	-11.81
▁آبگرمکن	-11.8101
CrMo	-11.8101
▁وگاس	-11.8104
▁Real	-11.8104
عا	-11.8104
▁1381	-11.8107
dc	-11.8107
▁ياد	-11.8109
▁میلان	-11.8109
sin	-11.8112
▁ماشين	-11.8112
ینو	-11.8113
▁SCH	-11.8113
▁فل	-11.8114
چین	-11.8114
▁ویجت	-11.8116
▁فرماندهی	-11.8116
138	-11.8116
لب	-11.8118
▁چیپس	-11.812
iu	-11.812
▁کانن	-11.8121
▁سینوسی	-11.8122
ena	-11.8124
▁Speed	-11.8124
▁212	-11.8127
▁دغدغه	-11.8128
▁نگستن	-11.8128
▁منفعل	-11.8128
▁بخرید	-11.813
▁آنجلس	-11.8131
ral	-11.8134
.9	-11.8138
▁ویژگیهای	-11.8139
▁خدایان	-11.814
▁پوسیدگی	-11.8142
▁توی	-11.8143
▁هدست	-11.8145
▁سرفه	-11.8148
▁تك	-11.8149
▁کارد	-11.8155
▁احادیث	-11.8156
▁تسویه	-11.8157
سور	-11.8158
▁Hand	-11.8158
▁بدهند	-11.8159
ball	-11.816
▁کشاورز	-11.8162
▁پیشینه	-11.8162
sis	-11.8167
▁ارسالی	-11.8168
▁Pu	-11.8169
▁ووفر	-11.8171
▁کیهانی	-11.8171
▁بگذارند	-11.8172
▁دایمی	-11.8173
well	-11.8174
tai	-11.8176
▁na	-11.8176
▁ترافیکی	-11.8178
▁Fr	-11.8178
▁پلاتین	-11.818
▁اندک	-11.8183
▁ترشح	-11.8183
▁نامطلوب	-11.8185
▁LSZH	-11.8185
▁BOPP	-11.8185
▁سکتور	-11.8186
▁Center	-11.8188
▁Add	-11.8191
ste	-11.8191
145	-11.8191
▁Aqua	-11.8195
▁371	-11.8196
bol	-11.8198
1.3	-11.8199
وتو	-11.8201
ابزار	-11.8202
▁صمیمی	-11.8202
▁چا	-11.8205
els	-11.8207
yr	-11.8208
▁مز	-11.8209
▁مخلوق	-11.8209
▁نیازها	-11.8211
▁ماریا	-11.8212
▁بلی	-11.8212
cus	-11.8212
rain	-11.8213
▁صمیمانه	-11.8213
▁شفاهی	-11.8213
▁چندرسانه	-11.8215
مانی	-11.8215
▁تونس	-11.8219
▁بینیم	-11.8221
br	-11.8222
cast	-11.8223
Co	-11.8225
▁اطاعت	-11.8227
▁رویا	-11.8234
ئن	-11.8234
▁برندگان	-11.8235
▁هد	-11.8236
IF	-11.8236
▁کارتونی	-11.824
-160	-11.8241
▁۰۳	-11.8242
▁Tu	-11.8242
▁انتقام	-11.8242
▁تجهيزات	-11.8242
▁دورۀ	-11.8243
999	-11.8245
IO	-11.8245
NET	-11.8246
-51	-11.8247
شک	-11.8249
افت	-11.825
▁فولیکول	-11.825
▁ip	-11.8253
▁آمونیاک	-11.8256
gram	-11.8257
nes	-11.8257
▁اندونزیایی	-11.8258
009	-11.8258
rent	-11.8259
▁7.2	-11.8259
▁سپاسگزارم	-11.8259
▁آری	-11.8259
▁مسیحیت	-11.826
▁6500	-11.826
▁CTN	-11.8262
Com	-11.8263
Si	-11.8266
▁مخالفان	-11.8267
▁2700	-11.8267
ld	-11.8268
يع	-11.8269
tre	-11.8269
فیلد	-11.8269
▁TimeTec	-11.827
درباره	-11.8273
▁SV	-11.8274
▁par	-11.8275
▁هلو	-11.8279
▁post	-11.8284
▁Isuzu	-11.8285
▁العظم	-11.8285
▁مذاهب	-11.8285
▁BCAA	-11.8285
▁ید	-11.8286
ذر	-11.8289
▁نهاده	-11.8289
▁دینامیکی	-11.829
CL	-11.8292
▁۳۲	-11.8293
008	-11.8294
▁ha	-11.8298
BB	-11.8299
188	-11.8304
▁قرض	-11.8307
▁ERP	-11.8311
موس	-11.8312
▁درخواستی	-11.8313
▁MCD	-11.8314
حر	-11.8315
▁وحید	-11.8316
▁ظ	-11.8319
mark	-11.8321
▁سلطان	-11.8321
016	-11.8323
155	-11.8325
▁معیوب	-11.8328
▁اصغر	-11.8328
xBet	-11.8328
▁زياد	-11.8328
HA	-11.8328
▁بارانی	-11.8329
▁فیلیپس	-11.833
▁سوری	-11.8331
dr	-11.8332
▁داره	-11.8334
▁تاک	-11.8336
▁نسبتاً	-11.8338
DN	-11.8338
▁دستاورد	-11.834
228	-11.834
▁ملاحظات	-11.8342
▁نهفته	-11.8344
▁Bu	-11.8345
▁بجای	-11.8346
▁Fin	-11.8348
▁گذرد	-11.8352
۲۳	-11.8354
▁File	-11.8354
-42	-11.8354
▁سویه	-11.8354
cheng	-11.8356
▁about	-11.8357
▁Sal	-11.8357
▁زودرس	-11.8357
▁End	-11.8359
تمام	-11.8359
▁لاله	-11.836
لوس	-11.8361
RU	-11.8362
▁مبتدی	-11.8364
▁تاثیرات	-11.8365
۶۶	-11.8366
نورد	-11.8366
▁InfoFinland	-11.8371
▁بفرد	-11.8372
▁فلسفی	-11.8374
▁out	-11.8375
8.1	-11.8375
پان	-11.8376
-58	-11.8378
kN	-11.8379
▁Cool	-11.8383
نون	-11.8384
▁زنجبیل	-11.8386
▁شارجه	-11.8386
▁pH	-11.8386
▁مری	-11.8386
ومتر	-11.8387
2019	-11.8387
▁عباسی	-11.8388
دال	-11.8389
pen	-11.8393
▁ژو	-11.8393
nn	-11.8394
۲۶	-11.8397
▁نویسد	-11.8399
▁VA	-11.8406
▁DSP	-11.8406
137	-11.8407
▁Ya	-11.841
▁زینتی	-11.8412
پرو	-11.8412
▁نزولی	-11.8413
▁فیزیوتراپی	-11.8415
1300	-11.8416
▁اسنک	-11.8417
nu	-11.8417
خالکوبی	-11.8417
109	-11.8418
stone	-11.842
212	-11.842
025	-11.8424
ذا	-11.8424
▁187	-11.8428
▁Land	-11.8429
▁گیگابیت	-11.8429
▁بردارید	-11.8431
▁معتقدیم	-11.8432
کنند	-11.8433
▁Har	-11.8435
▁میانجی	-11.8436
des	-11.8436
ندی	-11.8439
▁LO	-11.844
-180	-11.844
▁ارتودنسی	-11.8444
ایا	-11.8444
▁POP	-11.8445
375	-11.8445
▁آداپتورهای	-11.8456
▁غذاها	-11.8456
▁منافذ	-11.8458
▁آنالایزر	-11.8458
▁ملزم	-11.8458
▁جلویی	-11.8458
ute	-11.8459
qu	-11.846
fo	-11.8463
.17	-11.8466
3.6	-11.8468
▁شارپ	-11.8469
8.2	-11.847
▁جریمه	-11.8473
▁میدهند	-11.8474
cha	-11.8475
▁چشمی	-11.8476
.35	-11.8476
▁بعدها	-11.8478
حق	-11.848
مد	-11.8481
رینگ	-11.8481
▁امروزی	-11.8483
156	-11.8483
▁Char	-11.8483
▁زیباترین	-11.8485
▁وسترن	-11.8489
▁Cisco	-11.8489
۹۶	-11.8495
▁1,1	-11.8496
▁مشتریانمان	-11.8496
▁۰۷	-11.8497
290	-11.8499
ju	-11.8499
ئون	-11.8499
▁آشپز	-11.85
وتی	-11.85
▁سکولار	-11.8502
▁زشت	-11.8503
تول	-11.8504
▁دستشویی	-11.8505
We	-11.8506
▁قرائتی	-11.8508
TU	-11.8509
yi	-11.8509
head	-11.851
فصلنامه	-11.8512
▁Mil	-11.8512
▁تالیف	-11.8512
640	-11.8513
▁هوافضا	-11.8514
▁پانسمان	-11.8517
▁پورنوگرافی	-11.8517
گرفت	-11.8517
een	-11.8519
group	-11.8521
▁Coin	-11.8523
▁هیبرید	-11.8524
زیر	-11.8524
ژو	-11.8528
175	-11.8529
▁كامل	-11.853
شید	-11.8533
▁حاملگی	-11.8533
▁da	-11.8536
يون	-11.8537
▁پیدایش	-11.8538
▁همسرم	-11.8545
▁language	-11.8546
▁اختراعات	-11.8548
▁سطر	-11.8548
▁1,3	-11.855
cs	-11.8552
وله	-11.8555
▁مقطعی	-11.8556
۲۴	-11.8557
تف	-11.8557
▁display	-11.8558
cell	-11.8559
▁۱۳۹۹	-11.8561
▁بویژه	-11.8561
-3-	-11.8562
▁317	-11.8565
117	-11.8565
▁PST	-11.8567
نم	-11.8569
6-	-11.857
▁خانمها	-11.8571
▁NT	-11.8572
via	-11.8572
اکی	-11.8574
▁NuVid	-11.8576
▁pvc	-11.8576
▁استیشن	-11.8576
▁خیز	-11.8576
▁اتیل	-11.8576
▁یونسکو	-11.8576
ازول	-11.8581
▁BMS	-11.8587
▁162	-11.859
▁معماران	-11.859
▁دغدغة	-11.859
▁فلوریدا	-11.859
▁آمريکا	-11.859
▁کیمیا	-11.8591
▁شومینه	-11.8591
▁۲۰۱۵	-11.8591
▁بحرین	-11.8592
6.2	-11.8595
افی	-11.8597
▁رولکس	-11.8597
▁ایستادن	-11.8597
▁کشاورزان	-11.8597
▁اعلانات	-11.8598
▁حدودی	-11.86
▁نم	-11.8602
▁آسا	-11.8604
▁عینکی	-11.8604
▁صافی	-11.8604
▁207	-11.8604
▁مختص	-11.8607
آمد	-11.8607
▁جنگلی	-11.861
ula	-11.8611
222	-11.8611
▁قاسم	-11.8612
▁204	-11.8613
▁تدریجی	-11.8614
▁۳۳	-11.8615
▁غربال	-11.8618
HR	-11.8619
▁نبافته	-11.862
▁پیاپی	-11.862
۳۸	-11.862
▁شرکتها	-11.8622
رك	-11.8624
nin	-11.8625
حد	-11.8628
VE	-11.8629
DB	-11.863
-250	-11.8631
▁مزایده	-11.8635
▁map	-11.8635
▁680	-11.8636
GI	-11.8637
حل	-11.8637
▁اسکرابر	-11.8638
▁کتری	-11.8642
Base	-11.8644
▁یکنواختی	-11.8644
▁ساختگی	-11.8647
▁سیما	-11.8648
▁LibreELEC	-11.865
▁جرایم	-11.865
▁ثمر	-11.865
▁امریکایی	-11.8653
▁po	-11.8654
▁1700	-11.8654
▁0.001	-11.8655
گردان	-11.8656
▁کنیا	-11.8657
▁الکترونی	-11.8661
▁JA	-11.8664
▁اکسپلورر	-11.8665
▁آلبانی	-11.8665
▁1350	-11.8665
MHZ	-11.8666
cher	-11.8667
▁همکف	-11.8668
کوس	-11.8672
▁داستانی	-11.8673
uro	-11.8679
▁توله	-11.8679
▁پیشگیرانه	-11.8679
▁اسهال	-11.868
▁پدرش	-11.868
▁كيفيت	-11.868
▁GPRS	-11.8681
کوب	-11.8682
▁Wood	-11.8682
▁یاس	-11.8683
▁LI	-11.8683
▁دون	-11.8684
▁وزارتخانه	-11.8684
قد	-11.8687
▁رابرت	-11.8687
ming	-11.8687
yuan	-11.8691
▁Fleetguard	-11.8694
▁کوش	-11.8695
▁پیروز	-11.8696
اص	-11.8696
▁پانزدهم	-11.8696
استفاده	-11.8699
▁شافت	-11.8699
▁مونت	-11.87
chat	-11.8704
3.8	-11.8707
▁2600	-11.8708
▁Cypionate	-11.8709
▁خسارات	-11.8709
▁بشویید	-11.8709
▁رقیب	-11.8709
▁AZ	-11.8711
▁CY	-11.8711
▁فاش	-11.8712
▁8.2	-11.8712
▁Han	-11.8713
▁1310	-11.8715
رید	-11.8715
-38	-11.8717
اهی	-11.8718
▁سالمند	-11.872
▁همگن	-11.872
ارین	-11.8722
▁Oil	-11.8724
▁۱۳۸۹	-11.8724
UL	-11.8725
شدن	-11.8725
▁PoE	-11.8727
2017	-11.8729
905	-11.8731
rt	-11.8732
mail	-11.8732
▁GC	-11.8733
▁گرفتگی	-11.8734
روش	-11.8734
▁سمیت	-11.8736
▁Single	-11.8739
▁استایرن	-11.8739
▁برشی	-11.874
▁توانمندسازی	-11.874
▁نبوت	-11.874
▁یکم	-11.874
▁TB	-11.8741
▁166	-11.8742
207	-11.8743
▁روت	-11.8743
▁760	-11.8744
▁Europe	-11.8744
▁Hua	-11.8747
cur	-11.8749
▁شین	-11.8749
ENT	-11.875
▁620	-11.875
▁صعودی	-11.8754
▁email	-11.8755
الم	-11.8756
▁خب	-11.8758
▁امپراتوری	-11.8758
ors	-11.876
▁Link	-11.8762
▁HY	-11.8764
▁کوا	-11.8769
cor	-11.877
▁کارآفرینان	-11.8773
▁کیس	-11.8774
▁NBR	-11.8775
▁اح	-11.8776
▁هیبریدی	-11.8777
خور	-11.8777
VR	-11.8779
▁Che	-11.8782
▁حاجی	-11.8782
▁Slot	-11.8784
▁رزیدنس	-11.8784
▁گرمسیری	-11.8784
▁زاگرس	-11.8784
▁Post	-11.8785
ves	-11.8785
▁WhatsApp	-11.8785
▁ac	-11.8785
225	-11.8786
▁9.5	-11.8787
ایل	-11.8787
▁1-10	-11.879
اخبار	-11.879
▁this	-11.879
▁حجت	-11.8791
فروش	-11.8793
▁GF	-11.8793
▁تایی	-11.8796
▁غنا	-11.8796
▁رادار	-11.8798
-110	-11.8799
▁انحلال	-11.8799
▁بروند	-11.8804
▁Temp	-11.8804
▁زمرد	-11.8808
عاد	-11.8809
نش	-11.8809
▁گروپ	-11.8815
▁بوئینگ	-11.8815
▁978-964-	-11.8815
▁ادارۀ	-11.8816
NE	-11.8816
▁شجاع	-11.8817
ضی	-11.8817
▁فلو	-11.8817
days	-11.8819
▁Screen	-11.8821
▁۴۴	-11.8823
کتور	-11.8828
▁نواز	-11.8828
▁شتر	-11.883
▁163	-11.883
▁over	-11.8831
▁ذره	-11.8833
▁کانتون	-11.8834
▁منصور	-11.8835
دستگاه	-11.8836
xin	-11.8836
▁Studio	-11.8836
ery	-11.8837
▁چرانی	-11.8842
▁Code	-11.8842
т	-11.8844
▁تعيين	-11.8845
▁number	-11.8845
▁House	-11.8846
▁شانزدهم	-11.8847
لار	-11.8848
▁Rock	-11.8852
▁كمك	-11.8854
▁Com	-11.8857
▁چن	-11.8859
GSM	-11.886
▁CCD	-11.886
▁قيمت	-11.886
▁MetaTrader	-11.886
▁ممیزی	-11.886
▁ریوی	-11.8863
sing	-11.8865
▁560	-11.8865
▁اجراي	-11.8867
lor	-11.8868
▁فورت	-11.887
▁برپا	-11.8873
▁درصورت	-11.8875
▁دیزاین	-11.8875
▁شباهت	-11.8875
▁کرکره	-11.8876
مهر	-11.8877
▁آلن	-11.8882
ove	-11.8883
790	-11.8886
▁نوزدهم	-11.8889
▁ex	-11.889
پای	-11.8891
▁پاراگراف	-11.8891
▁Canada	-11.8891
▁Fiber	-11.8892
▁all	-11.8893
▁Ask	-11.8894
▁BW	-11.8896
▁برسند	-11.8897
▁محدودیتی	-11.8897
▁ژنو	-11.8898
tain	-11.8898
▁جابه	-11.8899
▁لای	-11.8899
rea	-11.89
▁هایشان	-11.89
ult	-11.8901
▁پرشین	-11.8903
▁زيبا	-11.8906
ase	-11.8907
راس	-11.8908
▁IPTV	-11.8908
9.2	-11.8909
▁هالید	-11.8913
بورگ	-11.8913
▁بیولوژیک	-11.8913
نظر	-11.8914
یسی	-11.8915
ينه	-11.8918
▁xxx	-11.8919
▁Bay	-11.8922
▁معلولیت	-11.8922
▁تخمک	-11.8923
▁تکنالوژی	-11.8926
nc	-11.8927
▁Business	-11.8927
ایم	-11.893
لیت	-11.8931
▁سیزدهم	-11.8931
▁جورج	-11.8933
▁طریقه	-11.8934
ایز	-11.8935
▁تأثیرات	-11.8935
▁Total	-11.8937
سپ	-11.8937
▁اقلیت	-11.8938
▁باقر	-11.8938
▁مرغداری	-11.8939
▁Phone	-11.8939
▁گرداند	-11.894
▁10.5	-11.894
HI	-11.8941
▁ویل	-11.8941
▁علاقمند	-11.8941
▁کارنامه	-11.8943
▁خواستید	-11.8943
▁شیل	-11.8944
-95	-11.8944
▁شنی	-11.8947
▁جمال	-11.8947
▁led	-11.8947
ku	-11.8947
fin	-11.8951
▁چوپان	-11.8952
▁جیوه	-11.8953
ویا	-11.8954
▁Professional	-11.8955
▁شخصا	-11.8957
▁انگشتی	-11.8958
151	-11.8958
▁Duk	-11.8959
▁چل	-11.8962
كا	-11.8962
▁15000	-11.8964
▁آغازین	-11.8967
BT	-11.897
edu	-11.8971
▁سلولیت	-11.8972
ful	-11.8973
▁اینتر	-11.8974
▁گز	-11.8975
▁ta	-11.8977
▁EXW	-11.8977
▁fr	-11.8978
с	-11.8979
خص	-11.898
132	-11.8981
▁یی	-11.8982
▁قبایل	-11.8982
▁مهیا	-11.8983
▁رضی	-11.8983
آوری	-11.8985
۳۱	-11.8985
رضا	-11.8986
▁Inflatable	-11.8988
▁Ki	-11.8988
▁1-5	-11.899
▁منبت	-11.899
▁mi	-11.899
9.000	-11.8991
▁Ser	-11.8992
▁کولین	-11.8994
▁قضا	-11.8994
ساک	-11.8995
▁TvBoxShow	-11.8998
▁playstore	-11.8998
▁لنت	-11.8998
▁VPS	-11.9002
▁حوا	-11.9003
▁لیلی	-11.9003
▁دخترانه	-11.9005
RN	-11.9006
▁آوردند	-11.9006
rk	-11.9011
اچ	-11.9011
▁بریتیش	-11.9013
▁زندگي	-11.9014
▁تحقيقات	-11.9015
▁go	-11.9017
▁کشورهایی	-11.9018
▁رنگهای	-11.9019
▁2800	-11.902
▁دینار	-11.9022
▁ربا	-11.9025
stan	-11.9028
▁WER	-11.9028
▁he	-11.9028
▁Department	-11.9028
▁برخلاف	-11.9028
▁بیتکوین	-11.9028
▁مجرد	-11.9029
090	-11.9031
▁پرهیز	-11.9031
▁صداهای	-11.9031
▁بنابر	-11.9032
▁Cell	-11.9032
▁Maxi	-11.9034
▁NY	-11.9035
▁قل	-11.9035
rm	-11.9037
FP	-11.9038
▁تجار	-11.9039
▁فضل	-11.9039
imi	-11.9041
tw	-11.9041
▁September	-11.9044
▁دروپال	-11.9044
▁مورگان	-11.9045
128	-11.9046
▁SY	-11.9046
-46	-11.9048
▁پرتوهای	-11.9048
▁CW	-11.9051
▁متد	-11.9053
▁تشکل	-11.9055
▁۰۰۰	-11.9055
▁۰۸	-11.9056
▁اسکلتی	-11.9057
adi	-11.9058
▁Official	-11.9059
▁ازبکستان	-11.9059
▁Instagram	-11.9059
▁حوضچه	-11.906
▁خبرها	-11.906
▁فلکسو	-11.9062
ape	-11.9063
rr	-11.9063
▁YAG	-11.9066
▁228	-11.9066
▁Drive	-11.9066
▁دستاوردها	-11.9067
▁استثنای	-11.9069
ِن	-11.907
TN	-11.907
ppm	-11.9072
بون	-11.9073
طی	-11.9073
▁شکوفه	-11.9075
▁معایب	-11.9075
▁نتوانست	-11.9075
▁Laser	-11.9075
▁پادشاهان	-11.9076
▁صندل	-11.9078
▁عطا	-11.9079
▁تدارک	-11.9079
▁سیستماتیک	-11.908
▁حیدریه	-11.9083
▁ریو	-11.9083
▁POM	-11.9084
▁free	-11.9084
off	-11.9088
▁باورهای	-11.909
▁هجری	-11.909
▁talet	-11.9091
▁قریب	-11.9091
fr	-11.9092
▁لان	-11.9093
▁شریعتی	-11.9093
▁سکوی	-11.9093
▁دانمارکی	-11.9094
▁Plan	-11.9095
▁Mu	-11.9098
▁دردسر	-11.91
kV	-11.9103
▁ECO	-11.9103
▁تصاویری	-11.9104
iya	-11.9104
▁سرکه	-11.9105
ais	-11.9105
▁اکوسیستم	-11.9106
▁ارگونومی	-11.9107
159	-11.9111
0.7	-11.9111
▁فرستاد	-11.9112
▁جنگنده	-11.9112
فات	-11.9113
▁کیفری	-11.9115
▁سیره	-11.9115
▁گون	-11.9117
یاب	-11.9119
▁لاکچری	-11.9122
▁محاوره	-11.9122
یلا	-11.9123
ATE	-11.9124
▁وسطی	-11.9125
▁VHF	-11.9126
▁Rack	-11.9127
182	-11.9128
▁Excel	-11.9128
▁BM	-11.9131
▁قالی	-11.9132
▁شاگردان	-11.9135
▁پاسخگوی	-11.9137
▁Casino	-11.9137
▁مخمر	-11.9138
▁نداد	-11.9138
▁ساشا	-11.9138
الین	-11.9139
▁نابودی	-11.9139
▁آقاي	-11.914
۷۵	-11.9142
▁توالی	-11.9144
▁بقای	-11.9144
▁عموما	-11.9144
چند	-11.9145
▁رومی	-11.9145
▁1.25	-11.915
▁سودان	-11.9151
قو	-11.9151
▁صلاح	-11.9152
▁سرای	-11.9153
▁Pertanyaan	-11.9153
▁TopCools	-11.9153
▁کارآزمایی	-11.9153
▁Mount	-11.9153
▁qu	-11.9154
▁نکن	-11.9155
▁پیشتاز	-11.9156
▁گيري	-11.9156
▁خش	-11.9156
▁بلاک	-11.9157
▁هوم	-11.9158
▁پروپان	-11.916
oy	-11.9161
lex	-11.9161
▁التحصیلی	-11.9162
ration	-11.9163
▁پزو	-11.9166
▁اتهامات	-11.9166
▁مچی	-11.9166
▁طنز	-11.9169
چو	-11.9172
وست	-11.9176
zz	-11.9178
html	-11.9178
▁ago	-11.9179
▁لیک	-11.9179
▁پویایی	-11.918
▁Industrial	-11.9184
▁Information	-11.9184
▁لوکزامبورگ	-11.9184
▁خدمه	-11.9184
۲۲	-11.9184
▁Bel	-11.9186
▁OPP	-11.9186
▁Dan	-11.9188
▁مهربانی	-11.9189
۲۷	-11.9189
▁صفا	-11.9191
▁WS	-11.9191
▁تخمیر	-11.9193
▁532	-11.9195
▁کارگری	-11.9196
▁داو	-11.9198
▁كاهش	-11.92
عد	-11.9201
▁فايل	-11.9202
proof	-11.9204
▁Kit	-11.9206
▁تایم	-11.9207
▁عود	-11.921
▁1992	-11.9214
وران	-11.9215
▁همجنسگرا	-11.9216
▁ja	-11.9216
▁Lock	-11.9216
BPH	-11.9217
ord	-11.9219
275	-11.922
▁میدانی	-11.9222
▁۹۰	-11.9222
۳۷	-11.9224
sex	-11.9226
میک	-11.9229
▁پردازی	-11.923
▁Outdoor	-11.9231
▁CMOS	-11.9232
▁باسکول	-11.9232
جنس	-11.9236
▁سیلیکونی	-11.9236
▁0.04	-11.9237
▁بندگان	-11.9241
192	-11.9242
▁سایتهای	-11.9243
▁358	-11.9243
▁154	-11.9243
pay	-11.9244
6.0	-11.9245
▁win	-11.9246
oni	-11.9246
▁آروماتراپی	-11.9247
▁متعارف	-11.9247
▁مجتبی	-11.9247
▁کیلوولت	-11.9248
4.3	-11.9248
▁اقساط	-11.9251
-56	-11.9251
▁191	-11.9252
▁Er	-11.9258
▁Valve	-11.9258
۹۵	-11.9259
▁ICC	-11.926
▁470	-11.9263
▁تول	-11.9264
118	-11.9265
▁معانی	-11.9271
۵۶	-11.9272
▁CAN	-11.9273
▁استفراغ	-11.9273
▁Vo	-11.9274
view	-11.9274
▁تیتان	-11.9279
▁یوتلست	-11.9279
▁روادید	-11.9279
▁390	-11.9281
▁زحمت	-11.9282
سیم	-11.9285
▁بادامک	-11.9285
بیل	-11.9285
▁فلا	-11.9285
▁4.9	-11.9285
ras	-11.9285
ita	-11.9286
▁ملات	-11.9288
▁9000	-11.9288
Ex	-11.9289
▁تغيير	-11.9291
308	-11.9291
▁جولیا	-11.9292
eth	-11.9293
▁غلیظ	-11.9295
209	-11.9297
▁Science	-11.93
زند	-11.9302
اگر	-11.9304
ریس	-11.9306
Ch	-11.9306
life	-11.9308
▁Infinite	-11.931
▁زراعی	-11.931
▁کمونيست	-11.931
▁تهيه	-11.9311
▁حاکی	-11.9311
▁ببینیم	-11.9312
▁سنگزنی	-11.9313
▁EML	-11.9313
▁جهانگردی	-11.9314
GN	-11.9315
▁برایتان	-11.9318
▁PF	-11.9318
▁Safe	-11.9318
زبان	-11.9319
▁Jo	-11.9319
▁AMP	-11.9321
▁بدانند	-11.9321
▁cl	-11.9324
پستان	-11.9325
▁Gate	-11.9325
رسی	-11.9326
▁هات	-11.9327
▁آچار	-11.9327
▁تلفیق	-11.933
يى	-11.9332
615	-11.9333
ative	-11.9334
▁مب	-11.9335
▁بانی	-11.9336
013	-11.9337
kW	-11.9338
▁سران	-11.9338
ert	-11.9338
▁Mesh	-11.9338
▁نیستم	-11.934
انش	-11.9342
▁علاءالدین	-11.9342
▁رج	-11.9343
▁هال	-11.9343
field	-11.9343
back	-11.9343
یزاسیون	-11.9345
bor	-11.9347
116	-11.9353
▁فلت	-11.9353
▁امكان	-11.9356
▁مبدأ	-11.9358
▁ملحق	-11.9358
▁تلفکس	-11.9359
▁تراشکاری	-11.9359
▁SRB	-11.936
▁انبارداری	-11.9362
FL	-11.9364
din	-11.9366
▁بخشش	-11.9366
▁جستجوگر	-11.9368
يسم	-11.9368
▁DU	-11.9371
oil	-11.9372
▁Mor	-11.9372
▁معاملۀ	-11.9374
▁مرتکب	-11.9374
▁لگن	-11.9375
GS	-11.9379
مي	-11.9379
bl	-11.938
▁1994	-11.9385
▁Tag	-11.9385
▁Mark	-11.9388
▁مطهری	-11.9388
▁بیرجند	-11.939
▁Nd	-11.9391
▁عقلانی	-11.9392
▁بیچ	-11.9392
tri	-11.9393
-3000	-11.9394
▁KP	-11.9396
▁غیاب	-11.9396
▁فتو	-11.9397
۲۹	-11.9397
HT	-11.9398
▁فهمید	-11.94
▁دبستانی	-11.9405
▁انسجام	-11.9406
▁LM	-11.9409
▁کارل	-11.941
▁NM	-11.9412
▁دزدگیر	-11.9412
▁خورنده	-11.9413
▁Mpa	-11.9416
▁301	-11.9418
تاب	-11.9419
ّر	-11.9421
▁Sl	-11.9424
▁تهدیدات	-11.9424
▁۲۰۰	-11.9427
▁محافظتی	-11.9427
▁ctn	-11.9429
▁سست	-11.9429
▁گمان	-11.9429
▁باکیفیت	-11.943
▁ریخت	-11.9432
3.	-11.9433
▁YH	-11.9435
▁کلبه	-11.9437
▁questions	-11.9438
▁اخطار	-11.9438
▁انتصاب	-11.9438
▁فتوشاپ	-11.9438
530	-11.9439
▁6.2	-11.944
ساخت	-11.944
▁لي	-11.9442
▁سوشی	-11.9442
زم	-11.9442
▁6.1	-11.9443
▁GH	-11.9443
▁پژوهشگر	-11.9443
▁شفای	-11.9444
▁back	-11.9448
▁نیروگاهی	-11.945
▁183	-11.945
سول	-11.9451
▁محاصره	-11.9454
مک	-11.9455
▁سرويس	-11.9455
801	-11.9456
▁Coil	-11.9457
ally	-11.9457
uo	-11.9459
▁بە	-11.9461
Electronic	-11.9461
-66	-11.9462
▁سیستمعامل	-11.9462
arm	-11.9463
▁HSE	-11.9463
▁فیش	-11.9466
▁لزوما	-11.9468
0.1	-11.9468
▁هلی	-11.9468
▁معادلات	-11.9469
ِر	-11.947
۰۲۱	-11.9471
▁جراحان	-11.9471
▁Servo	-11.9472
н	-11.9472
▁میسر	-11.9475
▁224	-11.9476
▁اشلی	-11.9479
▁NFC	-11.9479
860	-11.9481
۷۹	-11.9481
mal	-11.9482
باد	-11.9483
WS	-11.9486
کیر	-11.9486
▁هلسینکی	-11.9487
▁باشکوه	-11.9487
▁بیلیارد	-11.9487
▁خا	-11.9487
▁لیو	-11.9487
ira	-11.9487
خو	-11.9489
▁وادار	-11.949
▁HTC	-11.9492
▁تیوب	-11.9492
▁اسکو	-11.9492
ینگتون	-11.9494
▁186	-11.9494
▁میگو	-11.9495
HE	-11.9498
▁Zhong	-11.9498
▁TCP	-11.9501
▁Ci	-11.9502
df	-11.9503
▁نماييد	-11.9503
▁کاتالیزور	-11.9503
▁تحریف	-11.9503
▁Facebook	-11.9503
▁جنایی	-11.9504
▁Big	-11.9505
▁پیرمرد	-11.9508
گویی	-11.9509
سری	-11.9512
نین	-11.9513
▁sc	-11.9516
▁news	-11.9516
shop	-11.9517
▁روستاهای	-11.9518
▁جمجمه	-11.9519
▁ایسلند	-11.9519
▁قائل	-11.952
▁فایده	-11.9523
▁رقبای	-11.9527
لوازم	-11.9529
▁pm	-11.9529
rc	-11.9529
▁کوبا	-11.9532
fc	-11.9532
▁باشه	-11.9535
▁Certified	-11.9535
1.8	-11.9536
▁FPC	-11.9539
▁فورج	-11.9539
.0.0	-11.9546
▁پیشانی	-11.9547
nia	-11.9547
▁عاملی	-11.9547
306	-11.955
▁هزينه	-11.9552
▁GD	-11.9552
▁غیرمستقیم	-11.9552
▁Program	-11.9552
▁ضمانتنامه	-11.9553
3200	-11.9556
▁زاهدان	-11.9556
▁آند	-11.9559
▁Tab	-11.9559
ANG	-11.9559
▁وَ	-11.956
▁مول	-11.956
▁کوب	-11.9563
ame	-11.9563
▁355	-11.9564
▁دانشمند	-11.9564
▁بختیاری	-11.9568
▁ناپایدار	-11.9568
▁هیتاچی	-11.9568
▁XY	-11.9568
▁کوئست	-11.9568
▁هرات	-11.9569
▁حبیب	-11.957
▁چهارراه	-11.9571
▁FSC	-11.9572
▁موها	-11.9572
▁GIS	-11.9572
عل	-11.9572
▁نوردی	-11.9578
▁RM	-11.9578
▁الش	-11.958
NP	-11.958
▁Series	-11.9581
▁بازدهی	-11.9581
▁نار	-11.9583
▁تردمیل	-11.9584
▁مداخلات	-11.9584
▁کاویتاسیون	-11.9584
▁مسلط	-11.9585
▁5.6	-11.9585
▁ري	-11.9588
▁ترجم	-11.9588
۹۸	-11.959
▁طالبان	-11.959
▁مرمریت	-11.959
▁PDA	-11.9592
▁NB	-11.9592
▁980	-11.9593
▁زنند	-11.9593
▁رازی	-11.9593
▁دلاری	-11.9594
▁کنه	-11.9596
eal	-11.9599
illa	-11.9602
طبیعی	-11.9607
▁184	-11.9607
▁cr	-11.9608
▁نفرت	-11.9609
WD	-11.961
▁199	-11.961
▁Kar	-11.9611
▁189	-11.9612
AK	-11.9613
114	-11.9616
▁دیدگاهی	-11.9617
row	-11.9619
▁صحی	-11.962
▁Show	-11.9621
AU	-11.9624
▁گذاري	-11.9625
▁علاقمندان	-11.9625
rat	-11.9626
▁فریت	-11.9626
▁HI	-11.9627
▁best	-11.9631
ein	-11.9631
-220	-11.9632
▁استخوانی	-11.9633
▁افکن	-11.9633
▁Paypal	-11.9633
▁تاجیکستان	-11.9633
▁کاتالیست	-11.9634
▁امّا	-11.9634
▁تخمدان	-11.9636
▁هندسه	-11.9636
▁رژ	-11.9639
▁ET	-11.9639
▁173	-11.9642
سلام	-11.9642
PRO	-11.9643
يف	-11.9644
▁مجروح	-11.965
▁نزاع	-11.965
▁نظير	-11.965
▁172	-11.965
tz	-11.965
▁چيز	-11.965
▁HRC	-11.9651
▁345	-11.9651
▁پرینترهای	-11.9652
▁پولیس	-11.9653
oon	-11.9653
▁پاتریک	-11.9655
▁اروپای	-11.9656
FM	-11.9657
▁سین	-11.9657
پذیری	-11.9658
▁رئال	-11.9661
یری	-11.9663
لّ	-11.9664
▁پانزده	-11.9665
▁سنسو	-11.9665
▁219	-11.9665
run	-11.9666
ema	-11.9666
▁سنندج	-11.9666
▁فرانکفورت	-11.9666
019	-11.9669
Sh	-11.9671
.80	-11.9671
pr	-11.9673
▁سیلیس	-11.9674
Net	-11.9675
▁عمد	-11.9676
▁روشنی	-11.968
▁بارز	-11.9682
▁Foundation	-11.9683
▁پارگی	-11.9683
TL	-11.9683
▁North	-11.9684
گرایی	-11.9686
سازان	-11.9686
▁وانت	-11.9689
▁جون	-11.9689
▁آبرسانی	-11.969
▁Money	-11.9693
▁رویاهای	-11.9694
▁IB	-11.9699
▁Girl	-11.9699
UP	-11.9703
171	-11.9704
▁کین	-11.9707
▁پولیش	-11.9711
▁HV	-11.9712
▁فندق	-11.9716
▁فایروال	-11.9716
251	-11.9717
▁چشمک	-11.9717
▁دستان	-11.9717
▁FJ	-11.9721
▁رزمی	-11.9721
1500	-11.9722
▁باطل	-11.9723
▁روال	-11.9724
▁179	-11.9726
▁if	-11.9728
.49	-11.9728
uf	-11.9731
▁مثانه	-11.9732
▁منصفانه	-11.9732
▁بررسي	-11.9732
163	-11.9732
▁الحاق	-11.9736
▁آمید	-11.9738
▁هرمز	-11.9738
▁510	-11.9739
▁Sta	-11.9742
یکی	-11.9746
LI	-11.9746
pers	-11.9747
▁NS	-11.9747
هندی	-11.9748
▁سرچشمه	-11.9749
▁تغییراتی	-11.975
677	-11.975
cut	-11.9751
ere	-11.9751
▁واجب	-11.9751
▁کتابها	-11.9752
▁بازکن	-11.9753
▁اسپرت	-11.9754
▁Health	-11.9756
▁303	-11.9757
▁تمامي	-11.9757
ments	-11.976
▁علي	-11.9761
▁يكي	-11.9762
dBm	-11.9763
▁ارث	-11.9763
کد	-11.9764
----------------	-11.9766
▁کرواسی	-11.9766
▁لوتوس	-11.9767
سازي	-11.9767
ther	-11.9769
▁یونیون	-11.9769
012	-11.9769
▁کرسی	-11.9771
▁FTP	-11.9773
▁AUD	-11.9773
-85	-11.9775
▁Fire	-11.9777
▁پیرو	-11.9779
نگر	-11.978
▁سودآوری	-11.978
▁Hair	-11.978
▁بریده	-11.9781
۵۵	-11.9784
▁گویا	-11.9786
lit	-11.9786
▁CMS	-11.9794
141	-11.9796
▁بکر	-11.9797
▁صدق	-11.9798
▁Adjustment	-11.9799
▁WeTek	-11.9799
▁اسطوره	-11.9799
▁بگیر	-11.98
▁دات	-11.9803
فورد	-11.9804
▁دانیل	-11.9805
ode	-11.9806
▁hd	-11.9807
▁HTTPS	-11.9808
6.1	-11.981
▁کوچ	-11.981
▁بدوی	-11.9812
▁کارتهای	-11.9813
▁بیگ	-11.9814
▁مؤ	-11.9815
▁مرحوم	-11.9815
▁روایی	-11.9818
OX	-11.9819
▁آف	-11.9819
کنندگان	-11.9822
كل	-11.9823
mil	-11.9823
▁Pin	-11.9824
▁رویکردهای	-11.9825
▁خوابی	-11.9826
▁کون	-11.9826
▁بازارها	-11.9829
▁اکسی	-11.9829
▁پرطرفدار	-11.9831
9-	-11.9832
▁کامینز	-11.9832
▁Ze	-11.9832
▁برسانید	-11.9833
▁سياست	-11.9833
▁وسواس	-11.9833
▁ژوئیهٔ	-11.9835
▁name	-11.9836
ule	-11.9836
وکو	-11.9838
▁ناگهان	-11.9838
▁راهنماهای	-11.984
▁موعظه	-11.984
ارک	-11.9841
گيري	-11.9841
▁آش	-11.9842
560	-11.9843
▁پرستو	-11.9843
▁پایبندی	-11.9843
▁لوحی	-11.9843
▁مینماید	-11.9846
ck	-11.9846
lp	-11.9846
▁LP	-11.9847
بوت	-11.9847
win	-11.9847
rus	-11.985
▁افتخاری	-11.9854
▁BF	-11.9854
یّت	-11.9856
rah	-11.9857
▁کهن	-11.9859
▁10-15	-11.9859
▁ARM	-11.986
▁دوبار	-11.986
zh	-11.986
▁پردازند	-11.986
▁Life	-11.9862
▁نشتی	-11.9863
DF	-11.9864
▁AHD	-11.9864
▁مجوزهای	-11.9864
▁Hə	-11.9864
▁Ball	-11.9865
▁آمبولانس	-11.9866
▁کبالت	-11.9866
-2012	-11.9866
▁گرديد	-11.987
▁بوتان	-11.9871
▁Kə	-11.9871
کوه	-11.9872
▁بازدیدکننده	-11.9876
نچ	-11.9877
▁COP	-11.9877
181	-11.9877
313	-11.9877
لیا	-11.9882
▁اختصار	-11.9882
▁بپردازند	-11.9882
▁جمشید	-11.9883
▁آکریلیک	-11.9883
ken	-11.9883
▁زیرمجموعه	-11.9884
▁مسیریابی	-11.9884
070	-11.9885
▁قیف	-11.9886
▁شست	-11.9888
▁تکنو	-11.9889
.40	-11.989
▁174	-11.989
بوس	-11.9891
▁گرافن	-11.9892
سفارش	-11.9895
▁سکو	-11.9896
▁هرگاه	-11.9897
▁Ethereum	-11.9899
▁HOWO	-11.9899
▁جزئيات	-11.9899
▁مرتفع	-11.9899
▁کندانسور	-11.9899
119	-11.99
▁نبوی	-11.99
try	-11.9902
▁تقدیم	-11.9903
unt	-11.9906
▁بابک	-11.9907
▁Fo	-11.9908
وکسی	-11.991
▁هورمونی	-11.991
▁شال	-11.9913
▁TI	-11.9915
▁TOYOTA	-11.9916
▁کوهنوردی	-11.9916
▁دادگستری	-11.9916
▁جريان	-11.9916
فری	-11.9917
▁433	-11.9917
och	-11.9918
▁ننه	-11.9921
▁ني	-11.9923
▁FO	-11.9926
▁کاستور	-11.9927
▁182	-11.9928
▁کرانه	-11.9928
ville	-11.9929
سنجی	-11.9929
▁هوک	-11.993
157	-11.993
▁گزیده	-11.9933
▁رایانامه	-11.9933
▁گوساله	-11.9933
▁احمر	-11.9933
▁خیار	-11.9934
.0.2	-11.9935
جار	-11.9937
▁پلو	-11.9938
-71	-11.9939
asa	-11.9941
▁TOO	-11.9949
ette	-11.995
▁ناسازگار	-11.995
▁فروپاشی	-11.995
▁لنفوم	-11.995
▁موافقتنامه	-11.9951
▁حیطه	-11.9951
331	-11.9952
▁SJ	-11.9952
یدین	-11.9953
▁پرفروش	-11.9954
SN	-11.9954
سنج	-11.9955
▁193	-11.9955
مکان	-11.9955
ech	-11.9959
▁هفدهم	-11.996
▁گواه	-11.996
▁فراموشی	-11.9964
▁فیروزه	-11.9964
▁comp	-11.9964
▁اسپندکس	-11.9967
▁شصت	-11.9967
▁عقاب	-11.9969
ستیک	-11.997
▁Bal	-11.9972
▁مارکت	-11.9972
hao	-11.9973
تیل	-11.9975
▁قرضه	-11.9976
256	-11.9978
▁1980	-11.9979
▁تاس	-11.998
▁222	-11.9983
admin	-11.9983
▁استفتائات	-11.9984
▁بعید	-11.9984
▁Fast	-11.9985
▁ژ	-11.9986
▁آبزی	-11.9988
ept	-11.9989
▁استثنا	-11.999
▁Ethic	-11.9991
▁NH	-11.9994
-92	-11.9995
185	-11.9998
▁5-7	-11.9998
ماشین	-12
▁بیگانگان	-12.0001
▁علوی	-12.0001
▁pe	-12.0001
▁برسید	-12.0002
gy	-12.0002
خی	-12.0002
▁اخرین	-12.0002
760	-12.0004
3-1	-12.0006
▁آتشفشان	-12.0006
▁برخوردارند	-12.0008
KI	-12.0008
▁5.7	-12.0008
▁بیانگر	-12.0008
▁سلم	-12.0009
َا	-12.0009
▁Cross	-12.001
lim	-12.0011
▁اوبا	-12.0013
307	-12.0017
▁سک	-12.0017
▁بیلی	-12.0018
▁شیکاگو	-12.0018
▁اتوبان	-12.0019
▁Machinery	-12.0019
▁بهترين	-12.0021
oxy	-12.0022
KR	-12.0024
▁Manager	-12.0025
▁171	-12.0025
▁625	-12.0026
▁Set	-12.0027
De	-12.0028
ward	-12.0028
بس	-12.0028
▁راش	-12.0033
iga	-12.0033
▁نبی	-12.0034
▁توانا	-12.0034
ivi	-12.0035
▁LogmeOnce	-12.0035
▁سياسى	-12.0035
▁GHRP	-12.0035
179	-12.0036
▁اندوه	-12.0037
▁425	-12.0039
4.6	-12.0043
hl	-12.0044
fuck	-12.0044
▁YT	-12.0045
▁ماتیک	-12.0045
gin	-12.0045
mit	-12.0046
▁اساسنامه	-12.0047
▁کالی	-12.0047
▁Non	-12.0049
ao	-12.005
▁مجرای	-12.0052
▁دوبلین	-12.0052
▁Baby	-12.0052
▁علایم	-12.0053
▁Last	-12.0054
▁۷۰	-12.0054
▁AUTO	-12.0054
▁ژانویهٔ	-12.0059
▁اشیا	-12.0061
-97	-12.0061
▁کبود	-12.0061
elt	-12.0062
▁Flat	-12.0063
▁۳۶	-12.0064
▁213	-12.0065
▁Tra	-12.0066
4-1	-12.0067
▁islamquest	-12.0069
▁download	-12.0069
▁امتلاک	-12.0069
9,880	-12.0069
▁وسوسه	-12.0069
▁زيست	-12.007
▁linked	-12.007
ــــ	-12.007
▁رنو	-12.0071
هاست	-12.0073
▁پپتیدهای	-12.0073
GR	-12.0075
▁Comments	-12.0075
▁203	-12.0075
▁بازرگانان	-12.0075
▁mp	-12.008
▁IRR	-12.0083
▁xHamster	-12.0086
▁یانگ	-12.0087
nos	-12.0088
▁قراردادها	-12.0088
▁آفات	-12.009
▁IGF	-12.009
▁Hyper	-12.0091
▁نصر	-12.0093
rom	-12.0093
▁گشته	-12.0093
▁سما	-12.0096
▁ارزشهای	-12.0097
▁فرودگاهی	-12.0097
168	-12.0097
▁آموزشي	-12.0099
day	-12.01
▁كش	-12.01
▁فلک	-12.01
3.1	-12.01
▁سیمی	-12.0101
108	-12.0103
501	-12.0103
▁معاد	-12.0103
▁ابوظبی	-12.0104
▁تحقیر	-12.0104
دهد	-12.0104
▁روتاتور	-12.0104
▁کوکتل	-12.0104
▁دماوند	-12.0107
PER	-12.0107
174	-12.0108
▁Ir	-12.0109
▁شیعیان	-12.011
▁خمشی	-12.0112
Sex	-12.0115
7.2	-12.0116
▁سازهای	-12.0116
▁She	-12.0116
▁سیلاب	-12.0118
▁امان	-12.0119
▁Qalam	-12.0121
▁ابلاغ	-12.0121
get	-12.0121
▁چنين	-12.0122
▁خزنده	-12.0122
▁آک	-12.0123
سیت	-12.0123
۳۹	-12.0124
▁teen	-12.0126
601	-12.0127
ond	-12.0128
▁نوش	-12.0129
▁بخور	-12.0132
▁عنه	-12.0133
ناس	-12.0133
▁new	-12.0133
▁Inf	-12.0136
▁309	-12.0137
▁تعصب	-12.0138
▁سملینگک	-12.0138
▁VIIPLUS	-12.0138
▁عارف	-12.0138
▁SDI	-12.0138
▁Op	-12.0141
▁حواس	-12.0141
▁معلولین	-12.0142
ford	-12.0143
▁285	-12.0144
▁pl	-12.0144
▁Powered	-12.0144
▁کلا	-12.0145
▁Tags	-12.0145
▁Sw	-12.0145
▁رضایی	-12.0146
▁ماهنامه	-12.0147
berg	-12.0148
▁رحیمی	-12.0151
▁NF	-12.0151
psi	-12.0152
570	-12.0153
ارات	-12.0153
▁چاشنی	-12.0155
▁پیت	-12.0156
ولون	-12.0157
▁SG	-12.0157
▁Posted	-12.0157
▁Network	-12.0158
hui	-12.0161
نگو	-12.0162
قبل	-12.0163
652	-12.0164
ection	-12.0164
▁تص	-12.0166
▁LV	-12.0168
▁مادام	-12.017
▁روزگار	-12.017
▁تدبیر	-12.0173
▁توکیو	-12.0173
▁مجاهدین	-12.0174
▁Exp	-12.0175
▁شبكه	-12.0175
▁بانکوک	-12.0178
▁۴۲	-12.0179
▁CRI	-12.0179
▁انتزاعی	-12.018
gn	-12.0182
▁یکصد	-12.0182
▁شاعر	-12.0183
▁DH	-12.0186
▁DNS	-12.0186
▁یاران	-12.0187
▁580	-12.0188
▁رفسنجان	-12.019
▁زردچوبه	-12.019
master	-12.019
▁UPVC	-12.019
018	-12.0191
▁هاونا	-12.0194
sia	-12.0195
code	-12.0195
▁طرحهای	-12.0196
▁انگار	-12.0196
▁POL	-12.0198
166	-12.0198
▁همراهان	-12.0203
▁li	-12.0206
199	-12.0206
▁161	-12.0206
▁نئو	-12.0207
۰۵	-12.0207
▁Gallery	-12.0207
▁هموطنان	-12.0207
471	-12.0207
▁بشارت	-12.0207
mid	-12.0208
▁Hong	-12.0211
▁MPa	-12.0213
uan	-12.0215
ign	-12.0216
EST	-12.0216
▁پرنس	-12.0219
▁sub	-12.0224
▁عق	-12.0224
رفت	-12.0224
خل	-12.0224
▁Practical	-12.0225
▁کاتولیک	-12.0225
▁ZZ	-12.0226
Ray	-12.0227
▁Touch	-12.0227
197	-12.0228
2.3	-12.0228
ova	-12.023
▁POE	-12.023
▁شریان	-12.023
▁چرخان	-12.0231
گال	-12.0231
▁هریک	-12.0231
▁سردخانه	-12.0231
نول	-12.0235
fl	-12.0236
▁0.35	-12.0236
▁حفر	-12.0237
بینی	-12.0237
▁فرموله	-12.0239
▁هارتلی	-12.0242
▁Indoor	-12.0243
▁توبه	-12.0243
▁شرم	-12.0243
▁سوخته	-12.0243
▁سیمپسون	-12.0245
ney	-12.0245
right	-12.0246
bro	-12.0247
▁واحدها	-12.0248
۰۱	-12.0248
▁انت	-12.025
hm	-12.0252
▁CIP	-12.0253
ban	-12.0254
zu	-12.0256
▁گوارشی	-12.0258
▁Cy	-12.0258
یران	-12.0259
▁.....	-12.0265
▁209	-12.0268
6.3	-12.027
▁Grand	-12.0272
ato	-12.0274
▁گيرد	-12.0277
▁BI	-12.0278
▁1-8	-12.0278
▁باشيد	-12.0278
▁مادربرد	-12.0279
▁ver	-12.0279
▁1,5	-12.0279
-86	-12.0281
▁OT	-12.0284
▁227	-12.0285
▁not	-12.0287
▁معنادار	-12.0289
وزی	-12.029
▁گراف	-12.0291
TECH	-12.0291
طلوع	-12.0292
پذیر	-12.0292
▁بینند	-12.0293
9.0	-12.0294
▁Mysticism	-12.0295
▁دلبستگی	-12.0295
▁کستل	-12.0295
▁۳۸	-12.0295
▁Ge	-12.0297
ژه	-12.0298
▁۰۶	-12.0298
methyl	-12.0299
oid	-12.0299
158	-12.0302
down	-12.0303
soft	-12.0304
▁ميدان	-12.0306
0-0	-12.0309
▁رابطۀ	-12.0311
▁خرچنگ	-12.0312
▁عظمت	-12.0312
▁تجلیل	-12.0315
▁ایمیلی	-12.0315
▁گود	-12.0315
▁Round	-12.0316
▁جوانی	-12.0316
▁ab	-12.0317
▁مشاهدات	-12.0319
▁برعکس	-12.0319
▁هاپ	-12.0321
▁هور	-12.0323
جات	-12.0323
▁Nu	-12.0323
▁مَ	-12.0324
▁241	-12.0325
آور	-12.0326
▁پذير	-12.0328
▁375	-12.0328
▁اشرف	-12.0329
پال	-12.0329
▁Blythe	-12.033
▁اواپراتور	-12.033
▁انزلی	-12.033
▁رنگرزی	-12.033
▁محورهای	-12.0332
SON	-12.0332
▁مگس	-12.0332
GF	-12.0333
▁سعدی	-12.0333
▁UI	-12.0333
2.00	-12.0335
▁یادآور	-12.0336
▁کاناله	-12.0338
▁Os	-12.034
346	-12.0344
IMA	-12.0345
▁معتدل	-12.0347
▁آموخت	-12.0348
▁169	-12.0348
▁National	-12.0348
gs	-12.035
iva	-12.0352
cf	-12.0353
نشین	-12.0354
script	-12.0354
338	-12.0356
RPM	-12.0357
411	-12.0358
-1500	-12.0358
▁معتبرترین	-12.036
▁مم	-12.0362
730	-12.0363
▁مجدداً	-12.0363
eed	-12.0363
................	-12.0365
▁Language	-12.0365
▁منحرف	-12.0365
▁کاهنده	-12.0366
▁جنسیتی	-12.0366
▁حجیم	-12.0368
نمای	-12.0369
uch	-12.037
▁معتقدند	-12.037
▁رن	-12.0372
▁یکسال	-12.0372
▁شرکا	-12.0373
▁2835	-12.0376
▁RGBW	-12.0376
▁part	-12.038
طراحی	-12.038
▁شورا	-12.0381
▁غریبه	-12.0382
▁ذخایر	-12.0383
▁نیترات	-12.0383
▁هما	-12.0386
hel	-12.0386
▁حبس	-12.0386
eck	-12.0387
▁شکننده	-12.0387
▁مانور	-12.0387
▁3030	-12.0389
810	-12.0389
▁بازگرداند	-12.0392
▁لور	-12.0393
3.3	-12.0394
▁Deca	-12.0395
▁بزرگداشت	-12.0396
▁MG	-12.0397
▁بخوان	-12.0397
▁ریس	-12.0397
▁3-4	-12.0397
▁Para	-12.0399
▁بپردازد	-12.04
▁بازخوانی	-12.04
print	-12.0404
▁سون	-12.0404
▁VGA	-12.0405
▁قرنیه	-12.0406
▁IFC	-12.0407
▁2021	-12.0407
▁Bra	-12.0408
▁Im	-12.0408
▁آگ	-12.0412
دیو	-12.0412
▁دعای	-12.0413
▁trans	-12.0413
▁ساختمانهای	-12.0414
▁رانی	-12.0414
▁پيام	-12.0415
9.4	-12.0415
ean	-12.0416
BD	-12.0417
▁Square	-12.0418
▁XPressEntry	-12.0418
▁وکالت	-12.0418
RY	-12.042
▁مربا	-12.0421
زون	-12.0423
-63	-12.0423
▁ونک	-12.0426
▁آشکارسازهای	-12.0427
eel	-12.043
390	-12.0431
▁معینی	-12.0434
▁کبیر	-12.0436
AND	-12.0437
▁es	-12.0438
aff	-12.0443
▁Sam	-12.0446
▁جواز	-12.0447
▁واگذاری	-12.0448
۶۲	-12.0448
▁منفجره	-12.0449
017	-12.0449
read	-12.045
▁ZX	-12.0452
▁پذیرفت	-12.0454
اني	-12.0455
pon	-12.0456
580	-12.0461
▁Apartment	-12.0461
hp	-12.0463
UA	-12.0465
نوک	-12.0465
▁هجدهم	-12.0466
▁رسیدند	-12.0466
وجی	-12.0468
▁چابهار	-12.0471
▁عقاید	-12.0472
▁نپال	-12.0472
3.91	-12.0473
▁1991	-12.0473
چا	-12.0474
▁مدعی	-12.0475
▁جزوه	-12.0476
word	-12.0478
▁بازرس	-12.0478
▁کارگروه	-12.0478
▁نوید	-12.0479
▁شیفت	-12.0481
▁دزد	-12.0483
▁۳۷	-12.0484
rap	-12.0485
OU	-12.0488
▁آزمايشگاه	-12.049
کرد	-12.049
▁چهارچوب	-12.049
▁استخرهای	-12.0491
مرد	-12.0492
▁photo	-12.0492
▁ببینند	-12.0493
پین	-12.0495
▁232	-12.0495
▁المان	-12.0495
ido	-12.0496
▁216	-12.0499
▁پار	-12.0501
▁Gal	-12.0502
▁مورانشیا	-12.0506
▁AW	-12.0506
▁RV	-12.0506
▁خودگردان	-12.0507
▁مفاد	-12.0508
gang	-12.0509
▁نزن	-12.0509
.29	-12.0509
▁برید	-12.0518
▁رویش	-12.0519
▁8.8	-12.0519
انید	-12.052
لام	-12.052
▁انگیزی	-12.0522
▁Appointment	-12.0525
▁Virgin	-12.0525
▁بیاموزید	-12.0526
ory	-12.0527
▁FE	-12.0527
HO	-12.0528
▁آلت	-12.0528
,870	-12.0528
▁Def	-12.0529
-1200	-12.053
مز	-12.0535
dom	-12.0537
▁Ant	-12.0539
source	-12.0539
▁والا	-12.054
اث	-12.054
▁چاک	-12.0541
▁335	-12.0542
226	-12.0543
▁همیشگی	-12.0543
▁والیبال	-12.0543
▁عادات	-12.0543
▁Street	-12.0543
▁قزل	-12.0543
▁تیلز	-12.0546
aria	-12.0547
tp	-12.0548
▁Film	-12.055
طور	-12.0552
651	-12.0552
▁آنجل	-12.0554
▁مارپیچی	-12.0556
ij	-12.0557
▁CPA	-12.0557
▁Ce	-12.0559
xx	-12.056
▁عملا	-12.0561
▁خیانت	-12.0561
▁صدمات	-12.0562
▁میکرومتر	-12.0563
▁آکادمیک	-12.0566
▁فنون	-12.0567
▁لیفت	-12.0568
▁افشار	-12.0569
▁288	-12.0569
▁امی	-12.057
▁تضمینی	-12.0572
▁15-20	-12.0574
جین	-12.0575
ستین	-12.0575
▁راهبری	-12.0576
▁ریزه	-12.0577
▁Size	-12.0577
▁UFO	-12.0581
▁سرسبز	-12.0584
▁گیتس	-12.0592
▁WE	-12.0592
351	-12.0593
خانی	-12.0594
آی	-12.0595
▁Anonym	-12.0597
▁جاروبرقی	-12.0597
▁دوجداره	-12.0597
▁طراوت	-12.0597
▁خشمگین	-12.0597
▁گلی	-12.0598
511	-12.0599
▁Sport	-12.0601
It	-12.0605
▁Cup	-12.0605
▁ارتفاعات	-12.0606
▁sha	-12.0609
▁سوختن	-12.061
▁XML	-12.0612
SL	-12.0613
0.2	-12.0615
fit	-12.0615
▁متابولیک	-12.0615
▁ولایات	-12.0615
▁رجوع	-12.0615
▁کوسه	-12.0616
▁player	-12.0618
148	-12.0619
▁کلون	-12.062
▁دویدن	-12.0621
▁1220	-12.0622
aster	-12.0622
▁بيست	-12.0623
▁Run	-12.0624
▁غضروف	-12.0626
▁BY	-12.0626
▁پریدن	-12.0628
▁کمدی	-12.0629
.45	-12.0629
اتاق	-12.063
azi	-12.063
343	-12.0631
long	-12.0631
▁فني	-12.0633
▁Brush	-12.0633
▁حراجی	-12.0634
▁طهران	-12.0634
▁نیوز	-12.0635
▁du	-12.0636
mor	-12.0636
▁Next	-12.0636
014	-12.0636
▁بستگان	-12.0636
موت	-12.0637
▁روسری	-12.0637
gle	-12.0637
▁BL	-12.0642
325	-12.0644
ht	-12.0644
▁نداشتند	-12.0645
613	-12.0647
وسکوپ	-12.0647
web	-12.0648
▁1989	-12.0649
▁3600	-12.0649
370	-12.0649
▁آموزی	-12.065
▁بیاید	-12.0651
▁ادراری	-12.0651
▁ترموکوپل	-12.0651
▁مبهم	-12.0652
▁خزانه	-12.0653
▁ویکتوریا	-12.0654
▁نگرفته	-12.0656
ith	-12.0656
▁قو	-12.0661
▁ترویجی	-12.0662
▁رترو	-12.0663
ضا	-12.0665
▁خوشحالیم	-12.0665
▁سمینارها	-12.0666
603	-12.0667
utter	-12.0668
nit	-12.0669
▁Fiqh	-12.067
▁صنوبر	-12.067
▁پارادوکس	-12.067
▁بهمراه	-12.067
▁تاول	-12.0671
▁test	-12.0671
▁Plug	-12.0671
▁لیبرال	-12.0672
▁ko	-12.0673
▁HW	-12.0673
hol	-12.0673
باش	-12.0674
▁دليل	-12.0676
hd	-12.0677
▁پولها	-12.0677
میت	-12.0678
پون	-12.0678
▁1993	-12.0678
UV	-12.0679
▁ناو	-12.0679
emi	-12.068
781	-12.068
▁قرائت	-12.0681
سای	-12.0681
کتاب	-12.0682
▁-1	-12.0684
ارش	-12.0687
نشان	-12.0688
ona	-12.069
216	-12.0695
oh	-12.0697
▁کیپ	-12.0698
▁توریست	-12.0699
ui	-12.07
AO	-12.0701
ela	-12.0701
▁Theme	-12.0701
▁شهریار	-12.0702
▁سوزان	-12.0703
▁دیگهای	-12.0704
▁آنیل	-12.0705
▁دموکرات	-12.0705
▁بپذیرید	-12.0706
▁متأسف	-12.0706
لزبین	-12.0706
▁احوال	-12.0706
▁نیتریک	-12.0706
Play	-12.0707
nel	-12.0707
▁0.18	-12.0707
▁کوم	-12.0707
▁میرسد	-12.0709
vir	-12.0711
UB	-12.0716
IG	-12.0717
▁online	-12.0718
▁مرخصی	-12.0719
▁دانلودر	-12.0719
▁دراین	-12.0722
▁نجفی	-12.0723
▁انضباط	-12.0724
▁خواجه	-12.0724
LB	-12.0724
▁یاقوت	-12.0724
▁معنویت	-12.0725
407	-12.0727
ook	-12.0728
روان	-12.0728
▁تبار	-12.0728
▁اوره	-12.073
برت	-12.0731
۳۳	-12.0732
▁50-60	-12.0732
▁Base	-12.0733
pad	-12.0734
▁يافته	-12.0735
اتو	-12.0739
ark	-12.074
▁غر	-12.0741
نار	-12.0741
۰۶	-12.0742
يات	-12.0742
403	-12.0743
▁حمایتی	-12.0743
ym	-12.0743
▁Sil	-12.0746
▁بیننده	-12.0748
lip	-12.0748
▁مزاحم	-12.075
▁ka	-12.0751
▁القا	-12.0752
▁جنرال	-12.0755
wei	-12.0755
▁9.0	-12.0755
▁برروی	-12.0757
نمایی	-12.0758
ope	-12.0759
xml	-12.076
▁Abstract	-12.0761
انۀ	-12.0762
▁PMMA	-12.0762
tail	-12.0764
▁Fan	-12.0767
▁مکانهای	-12.0767
▁Sat	-12.0768
Gen	-12.0769
olo	-12.0771
eli	-12.0772
▁ماجراهای	-12.0772
820	-12.0773
▁عده	-12.0774
مرکز	-12.0775
▁سرگیجه	-12.0779
▁کاترپیلار	-12.0779
▁مساجد	-12.0779
▁کوثر	-12.078
▁نتواند	-12.078
▁استایل	-12.0781
▁آلیسون	-12.0782
mus	-12.0784
▁نداده	-12.0785
▁کوت	-12.0786
▁آفریده	-12.0787
شوند	-12.0788
7-1	-12.0788
▁بسط	-12.0789
▁شیرده	-12.0789
▁آبادان	-12.0789
▁بلخ	-12.079
▁استودیوی	-12.0791
▁فامیل	-12.0791
سیر	-12.0794
▁Ed	-12.0795
▁HO	-12.0796
609	-12.0797
▁336	-12.0798
▁Express	-12.0798
۰۹	-12.08
INE	-12.0801
234	-12.0802
▁198	-12.0802
▁Lead	-12.0803
chit	-12.0804
سیا	-12.0807
▁هراس	-12.0808
▁support	-12.0809
▁کارآفرین	-12.081
4.1	-12.081
ions	-12.0812
amine	-12.0813
▁1440	-12.0813
Plus	-12.0813
▁3003	-12.0813
aki	-12.0814
kva	-12.0815
▁MoneyGram	-12.0816
▁هیالورونیک	-12.0816
نتر	-12.0816
▁Project	-12.0817
▁آرماتور	-12.0818
▁باس	-12.0818
▁CRM	-12.0819
matic	-12.0823
701	-12.0824
▁1950	-12.0826
▁سلمان	-12.0826
▁KO	-12.0827
▁0.99	-12.0828
city	-12.0828
ua	-12.0828
▁مورب	-12.0828
▁Sy	-12.0831
675	-12.0831
618	-12.0833
OD	-12.0833
▁0.08	-12.0833
▁NTC	-12.0834
▁TalkEnglish	-12.0835
▁TDS	-12.0837
مدیریت	-12.0838
▁مرادی	-12.0838
cing	-12.0844
▁مسئولان	-12.0846
▁حول	-12.0847
▁ضدآب	-12.0848
here	-12.0849
xxx	-12.085
ome	-12.085
▁Sale	-12.0854
▁اسلب	-12.0855
▁Ak	-12.0857
▁ظاهرا	-12.0857
107	-12.0858
▁نوازش	-12.086
▁دیوارها	-12.0861
ادا	-12.0862
wall	-12.0865
▁Alt	-12.0865
▁Rd	-12.0865
▁قسمتی	-12.0866
سکا	-12.0866
▁فار	-12.0867
▁مختل	-12.087
▁str	-12.087
▁پژوهی	-12.087
▁Date	-12.0871
▁Drostanolone	-12.0872
▁ژئوویژن	-12.0872
-82	-12.0873
▁بروکسل	-12.0873
▁Hai	-12.0875
▁مسایل	-12.0875
▁del	-12.0876
▁تقی	-12.0876
eight	-12.0876
del	-12.0877
▁پولس	-12.0877
▁هایپر	-12.0878
▁تبلیغی	-12.0878
image	-12.0878
▁ChP	-12.088
▁بدر	-12.0881
▁768	-12.0884
▁کریک	-12.0885
mas	-12.0885
gas	-12.0887
ستند	-12.0889
▁254	-12.0889
▁بازنشانی	-12.089
▁توازن	-12.089
▁Wa	-12.0892
eld	-12.0892
پک	-12.0893
وگ	-12.0894
▁پاتر	-12.0895
1939	-12.0895
KO	-12.0897
▁آپارتمانهای	-12.0898
▁999	-12.0899
▁Services	-12.0899
iver	-12.09
▁دیس	-12.0901
▁نمایان	-12.0903
dle	-12.0904
▁۸۰	-12.0906
▁RP	-12.0907
▁CAM	-12.0907
▁SMA	-12.0908
▁FD	-12.0911
▁فروشان	-12.0912
0.9	-12.0913
▁181	-12.0914
rel	-12.0914
▁اسپم	-12.0915
▁مدول	-12.0917
▁پرشیا	-12.0921
.60	-12.0922
▁لار	-12.0923
هام	-12.0923
149	-12.0924
▁طیفی	-12.0925
▁آدری	-12.0925
▁نوجوانی	-12.0925
گشا	-12.0926
▁منشی	-12.0927
▁کورکومین	-12.0928
▁Body	-12.0928
▁لام	-12.0929
▁Tool	-12.093
▁ناتو	-12.0931
▁بید	-12.0931
▁اپتیکی	-12.0932
▁انتفاعی	-12.0934
▁فایر	-12.0939
▁شخصیتهای	-12.0941
▁فیزیولوژی	-12.0941
فس	-12.0942
1.7	-12.0942
▁شیلات	-12.0945
▁گاما	-12.0946
خیابان	-12.0947
-76	-12.0948
َم	-12.0949
▁490	-12.0949
▁كنندگان	-12.095
▁6.8	-12.095
▁بگوید	-12.0951
▁196	-12.0954
▁نکنند	-12.0954
▁fe	-12.0958
▁داون	-12.096
9.1	-12.096
▁تکنولوژیکی	-12.0963
بع	-12.0963
▁بینندگان	-12.0965
▁گرسنگی	-12.0965
mək	-12.0965
▁District	-12.0965
▁توهین	-12.0965
▁منشاء	-12.0965
▁Crypto	-12.0966
even	-12.0968
▁متکی	-12.0968
▁NR	-12.0969
▁Bas	-12.097
919	-12.0973
▁Sim	-12.0974
▁10.0	-12.0974
▁خوشگل	-12.0975
بیا	-12.0977
▁بلع	-12.0977
بست	-12.0978
▁مشروع	-12.0982
eep	-12.0983
▁214	-12.0983
▁ریچارد	-12.0984
▁سمپوزیوم	-12.0984
▁کازئین	-12.0984
▁Juice	-12.0984
▁آينده	-12.0984
▁کوچولو	-12.0984
▁Low	-12.0986
باس	-12.0986
▁اسارت	-12.0987
▁295	-12.0987
▁233	-12.0988
USD	-12.0989
888	-12.0989
Ni	-12.099
▁آهنربا	-12.0991
▁اينترنت	-12.0996
▁حا	-12.0999
▁ِ	-12.1
▁Quarter	-12.1003
▁بلاروس	-12.1004
bal	-12.1007
▁باغچه	-12.1008
▁آمین	-12.1013
اندیش	-12.1013
142	-12.1014
Ti	-12.1015
4.7	-12.1018
▁DMS	-12.1019
▁پهنه	-12.1019
▁FedEx	-12.1021
▁عقیده	-12.1022
▁Arm	-12.1023
فار	-12.1023
5.2	-12.1024
▁Sar	-12.1025
oss	-12.1025
▁Str	-12.1027
121	-12.1028
▁تأثیرگذار	-12.1029
وژ	-12.1029
▁معما	-12.103
▁Ju	-12.1031
tian	-12.1032
▁302	-12.1032
ease	-12.1034
nor	-12.1035
▁حیث	-12.1035
▁im	-12.1035
▁خارجي	-12.1036
-001	-12.1042
▁AMD	-12.1042
▁داشتیم	-12.1043
▁اط	-12.1044
▁تترا	-12.1044
▁داوود	-12.1045
كت	-12.1048
▁Geo	-12.1049
.65	-12.1049
▁5.4	-12.105
پست	-12.1051
▁Meter	-12.1051
IU	-12.1051
▁ايراني	-12.1052
198	-12.1053
▁اق	-12.1056
▁فرانت	-12.1056
▁5-10	-12.1056
▁کنف	-12.1059
▁حائز	-12.1059
▁مسلکی	-12.1059
▁هرزنامه	-12.1059
OI	-12.1061
▁مگاپیکسلی	-12.1062
▁ویرجینیا	-12.1062
▁رسانند	-12.1065
MU	-12.1067
had	-12.1068
▁الط	-12.1068
317	-12.1072
▁شدگان	-12.1073
ado	-12.1073
▁WF	-12.1075
سترون	-12.1077
▁تیانجین	-12.1078
▁قشر	-12.1079
▁نمودارهای	-12.1079
▁mar	-12.108
322	-12.1081
▁Day	-12.1081
▁پوکی	-12.1084
▁چانه	-12.1085
MR	-12.1086
▁ابد	-12.1088
▁بغل	-12.1093
▁سانت	-12.1095
309	-12.1095
▁key	-12.1096
▁Duplex	-12.1097
▁یهوه	-12.1098
▁رباط	-12.1098
▁دیگه	-12.1099
لباس	-12.11
anda	-12.1102
بط	-12.1104
key	-12.1105
▁پساب	-12.1105
▁شبح	-12.1106
▁مبتدیان	-12.1106
▁ترش	-12.1107
▁تهاجم	-12.111
۰۲	-12.111
▁ضلع	-12.111
▁۳۴	-12.1112
▁بنزینی	-12.1114
▁انباشت	-12.1114
▁فیوژن	-12.1114
▁برعهده	-12.1116
▁موریس	-12.1119
▁ببن	-12.1119
126	-12.1131
▁چاله	-12.1132
▁فرسوده	-12.1135
▁یائسگی	-12.1135
▁پدیدار	-12.1136
▁رهگیری	-12.1137
▁جهاني	-12.1138
▁EMC	-12.1139
▁Gh	-12.1141
▁1970	-12.1142
▁LH	-12.1142
6.4	-12.1142
برنامه	-12.1143
▁رایان	-12.1143
▁WD	-12.1143
▁عادل	-12.1144
▁مؤمنان	-12.1146
روف	-12.1146
▁Wind	-12.1147
-72	-12.1148
▁امولسیفایر	-12.1154
▁Engine	-12.1154
▁264	-12.1155
▁سیلیکات	-12.1155
▁كليه	-12.1156
▁Client	-12.1156
▁1379	-12.1157
▁زیرزمین	-12.1157
▁ho	-12.1159
▁Hack	-12.1161
▁نیترو	-12.1161
sl	-12.1162
▁مجارستانی	-12.1162
▁پایبند	-12.1164
▁دانسته	-12.1165
في	-12.1166
Cu	-12.1167
980	-12.1169
rfan	-12.1172
▁طلبی	-12.1172
▁Nor	-12.1174
▁Kiev	-12.1174
▁الإ	-12.1175
▁وبگاه	-12.1176
əl	-12.1177
دور	-12.1178
▁XXL	-12.118
DT	-12.1186
▁توانيد	-12.1186
▁لز	-12.1186
▁معتاد	-12.1187
▁املا	-12.1187
CU	-12.119
آم	-12.119
▁Analytics	-12.1193
▁Vinisus	-12.1193
▁تعارض	-12.1193
▁فرعون	-12.1193
▁فراورده	-12.1193
▁ساینس	-12.1194
▁Ly	-12.1195
▁وحشیانه	-12.1196
تیس	-12.1196
▁Custom	-12.1199
uv	-12.12
▁Indicator	-12.1202
ادر	-12.1204
وآ	-12.1205
▁FOR	-12.1205
▁مغ	-12.1206
▁گرانش	-12.1208
▁Flu	-12.121
▁الهه	-12.1211
bay	-12.1212
▁كوچك	-12.1212
▁Omni	-12.1212
▁HIFU	-12.1212
mount	-12.1213
▁گله	-12.1214
▁پلاسمای	-12.1215
931	-12.1216
▁لیز	-12.1217
▁وکلای	-12.1218
▁پویش	-12.1218
▁هولم	-12.1218
ities	-12.1218
356	-12.122
▁آفرین	-12.122
وارد	-12.122
▁Share	-12.1221
▁مرورگرهای	-12.1222
▁OF	-12.1222
▁عطف	-12.1223
دارد	-12.1223
▁امت	-12.1228
▁میانبر	-12.1229
جم	-12.1229
تواند	-12.123
.23	-12.1231
▁Finteza	-12.1231
▁پانوراما	-12.1231
▁دش	-12.1231
▁جلیل	-12.1232
031	-12.1234
▁نقاش	-12.1234
173	-12.1235
گین	-12.1238
▁ECN	-12.1239
▁سازمانها	-12.124
▁گلوتامین	-12.124
▁Cas	-12.1241
▁HG	-12.1242
▁229	-12.1242
▁رسما	-12.1244
▁هرز	-12.1244
▁شطرنج	-12.1245
▁ماشینی	-12.1246
▁پراپرتیز	-12.125
▁فحش	-12.125
▁فرید	-12.125
▁گلوبال	-12.1251
▁جناح	-12.1252
▁اعتبارات	-12.1253
▁с	-12.1255
۹۲	-12.1255
5.1	-12.1255
door	-12.1256
own	-12.1257
کشی	-12.1258
154	-12.1265
▁گلابی	-12.1265
▁بینم	-12.1265
▁آلزایمر	-12.127
▁آیلتس	-12.127
▁ترمیستور	-12.127
▁نیستیم	-12.1271
625	-12.1272
تیو	-12.1272
mes	-12.1272
خواهد	-12.1276
▁کربلا	-12.1276
توس	-12.128
▁پارسه	-12.128
▁نای	-12.1282
▁رمپ	-12.1283
▁داخلي	-12.1283
▁آستان	-12.1284
اخت	-12.1285
▁نویسان	-12.1286
▁Pictures	-12.1289
▁آستنیتی	-12.1289
▁persian	-12.1289
▁Shenzhen	-12.1289
چک	-12.129
777	-12.1291
2.8	-12.1294
▁نهمین	-12.1295
▁پارسا	-12.1297
▁اتفاقات	-12.1298
▁آبهای	-12.1298
▁پروپ	-12.1298
ification	-12.1299
▁پیگرد	-12.13
▁بنگ	-12.1301
oe	-12.1302
▁Ku	-12.1303
بين	-12.1305
▁کیلوگرمی	-12.1306
▁کلکسیون	-12.1308
▁بلندمدت	-12.1309
▁stars	-12.1311
▁گوزن	-12.1311
cker	-12.1313
▁نیش	-12.1315
▁217	-12.1316
▁خاندان	-12.1317
rac	-12.1318
یال	-12.1318
یستی	-12.1318
▁Clear	-12.132
▁code	-12.132
برا	-12.1321
وخ	-12.1321
SF	-12.1322
Link	-12.1324
گى	-12.1324
▁277	-12.1325
▁تعاملات	-12.1325
▁تجلی	-12.1326
▁Huawei	-12.1328
▁6.4	-12.1328
▁کبک	-12.1329
-43	-12.1329
▁بنظر	-12.133
▁چسبیده	-12.1331
▁همسان	-12.1335
nov	-12.1336
178	-12.1337
▁انس	-12.134
▁کاظمی	-12.1342
▁Ten	-12.1343
وئ	-12.1343
▁نینگبو	-12.1347
-2016	-12.1347
▁جملات	-12.1347
ctor	-12.1349
وع	-12.1349
▁AAC	-12.1351
host	-12.1351
▁زای	-12.1354
oj	-12.1354
▁1-1	-12.1357
▁Window	-12.1358
▁Je	-12.136
▁Digi	-12.1362
فان	-12.1366
▁اکسیدانی	-12.1367
▁بمنظور	-12.1367
▁تصميم	-12.1367
▁گذاریم	-12.1367
Di	-12.1368
▁افتادگی	-12.1369
نیت	-12.1369
rim	-12.1372
▁DVI	-12.1372
▁هایش	-12.1372
218	-12.1374
▁239	-12.1374
تکس	-12.1376
▁بودا	-12.1376
مید	-12.1379
▁Asia	-12.1379
▁صص	-12.138
غیر	-12.1381
nik	-12.1385
▁علیرغم	-12.1386
▁لابراتوار	-12.1386
▁باینری	-12.1387
▁ITIL	-12.1387
▁نجف	-12.1388
▁اصولی	-12.1388
loc	-12.1389
▁Nan	-12.139
231	-12.139
4.4	-12.139
▁Beach	-12.1391
▁پیوندی	-12.1392
▁بادکنکی	-12.1392
▁ایستا	-12.1397
227	-12.1397
ging	-12.1397
▁انبارها	-12.1401
▁مبلغی	-12.1401
127	-12.1402
▁ویلیام	-12.1404
▁دونالد	-12.1406
▁انلاین	-12.1406
▁دودویی	-12.1406
▁عواملی	-12.1407
zhou	-12.1408
147	-12.1408
▁مخمل	-12.1409
670	-12.141
-84	-12.141
5.00	-12.1411
ense	-12.1414
tis	-12.1415
▁CAR	-12.1417
778	-12.1417
درا	-12.1419
uss	-12.1422
bag	-12.1423
inder	-12.1425
ike	-12.1425
▁Komatsu	-12.1425
▁هاوایی	-12.1426
▁پیل	-12.1427
8.3	-12.1428
▁ميباشد	-12.1429
▁Villa	-12.143
▁عزیزی	-12.143
7.6	-12.1431
▁نس	-12.1431
آزما	-12.1436
hang	-12.1437
hat	-12.1438
الا	-12.1438
emo	-12.144
INA	-12.1441
▁Model	-12.1441
▁964	-12.1442
ارز	-12.1443
EF	-12.1444
▁۵۰۰	-12.1444
▁جابجا	-12.1445
▁CuSn	-12.1445
ايی	-12.1445
▁کاکائو	-12.1445
▁ü	-12.1446
▁بمانند	-12.1446
ico	-12.1446
▁بوتاکس	-12.1447
▁Gas	-12.1448
▁نوشتار	-12.1449
▁ساسان	-12.1449
▁آفریننده	-12.145
▁Ip	-12.1454
raz	-12.1455
▁گرفتیم	-12.1455
▁درایوهای	-12.1462
▁Ricoh	-12.1465
▁مجامع	-12.1465
▁Antenna	-12.1465
▁ونقل	-12.1465
▁بعلاوه	-12.1465
▁α	-12.1466
▁سياسي	-12.1466
▁باورند	-12.1467
▁دادرسی	-12.1468
Ltd	-12.1469
سایت	-12.1469
▁مط	-12.1469
9.6	-12.147
▁پلیستر	-12.1473
▁COM	-12.1476
217	-12.1477
Kw	-12.1478
▁سودا	-12.1479
▁и	-12.1479
▁سرویسهای	-12.148
سف	-12.1482
وح	-12.1483
▁Virtual	-12.1484
▁strapon	-12.1484
[...]
