<unk>	0
<s>	0
</s>	0
▁the	-2.86605
▁,	-3.1938
▁.	-3.25301
▁of	-3.60478
▁and	-3.70157
▁to	-3.71086
▁in	-3.98402
s	-4.0341
▁a	-4.08553
▁is	-4.39573
▁that	-4.64801
▁for	-4.66888
▁-	-4.82075
▁on	-4.94293
▁this	-5.01583
▁with	-5.08021
▁it	-5.0959
▁be	-5.11037
ed	-5.11178
▁are	-5.14412
▁we	-5.16147
▁i	-5.23879
ing	-5.26121
▁as	-5.3296
▁you	-5.33755
▁not	-5.41484
▁by	-5.44647
▁have	-5.47254
ly	-5.52933
▁will	-5.5358
▁from	-5.65281
▁'	-5.65454
▁at	-5.67793
▁or	-5.68231
▁an	-5.76097
▁which	-5.76659
▁has	-5.77868
▁)	-5.79024
▁(	-5.79844
d	-5.80384
▁can	-5.82044
▁all	-5.89963
▁our	-5.92049
▁your	-5.96569
▁european	-6.13
▁also	-6.13417
▁was	-6.13579
▁but	-6.21284
▁:	-6.21735
▁their	-6.29439
▁"	-6.30006
▁its	-6.31308
▁more	-6.31606
▁if	-6.34506
▁one	-6.34909
y	-6.35385
▁there	-6.3711
▁	-6.38375
▁would	-6.41012
▁been	-6.42226
▁’	-6.42676
▁they	-6.46912
▁should	-6.48037
▁do	-6.50526
▁new	-6.52175
▁mr	-6.55541
▁these	-6.55761
▁must	-6.56513
.	-6.58054
▁other	-6.628
▁commission	-6.65602
▁?	-6.65809
▁time	-6.675
▁about	-6.69876
▁so	-6.70413
▁president	-6.70835
▁hotel	-6.71189
▁very	-6.72956
▁like	-6.72976
▁us	-6.73642
▁what	-6.74534
▁only	-6.74623
▁no	-6.74845
▁when	-6.7815
▁up	-6.79398
▁any	-6.79826
▁who	-6.80399
▁people	-6.8576
e	-6.86176
▁my	-6.89651
▁information	-6.90069
▁first	-6.91254
▁some	-6.92072
▁out	-6.93347
▁parliament	-6.94445
▁union	-6.95205
▁use	-6.95475
▁member	-6.97716
▁may	-6.979
▁!	-6.99008
▁such	-6.993
▁states	-6.99465
▁he	-6.99966
▁need	-7.02005
▁report	-7.02141
▁than	-7.02533
▁support	-7.03205
▁were	-7.03999
▁his	-7.04498
▁work	-7.04556
▁make	-7.04642
▁into	-7.04932
▁now	-7.05686
t	-7.05805
▁well	-7.07533
▁most	-7.07906
▁europe	-7.08138
▁countries	-7.08678
▁world	-7.09527
▁many	-7.10564
▁take	-7.14012
▁them	-7.14144
▁important	-7.16976
▁council	-7.17505
▁between	-7.18244
▁two	-7.20844
▁eu	-7.22614
▁over	-7.23849
▁...	-7.25133
▁because	-7.2571
▁where	-7.26249
▁just	-7.26828
▁how	-7.27064
▁;	-7.27116
▁made	-7.27731
▁years	-7.2815
▁those	-7.28681
▁policy	-7.29393
▁after	-7.30193
▁international	-7.30292
▁year	-7.30315
▁/	-7.30781
▁way	-7.32178
▁development	-7.32758
▁however	-7.35169
▁right	-7.38518
▁here	-7.39019
▁system	-7.40064
▁–	-7.40343
▁being	-7.41403
▁public	-7.4157
▁even	-7.41658
▁through	-7.4184
▁good	-7.42079
▁had	-7.4255
▁see	-7.42949
▁part	-7.43087
▁under	-7.43463
▁order	-7.44812
▁am	-7.45856
▁economic	-7.47271
▁service	-7.47369
▁rights	-7.48397
▁does	-7.49579
▁services	-7.5003
▁therefore	-7.50659
▁market	-7.51543
▁place	-7.51678
▁group	-7.51999
▁free	-7.53567
▁great	-7.5363
▁both	-7.55035
▁want	-7.55395
▁available	-7.55438
▁same	-7.55486
▁%	-7.55535
▁area	-7.55649
▁within	-7.56515
▁then	-7.56783
a	-7.57357
▁find	-7.57411
es	-7.57658
n	-7.57717
▁national	-7.58193
▁could	-7.58213
▁number	-7.58551
▁country	-7.58775
▁each	-7.60274
▁rooms	-7.60999
▁political	-7.61248
▁before	-7.61281
▁against	-7.61731
▁human	-7.61877
▁“	-7.61941
▁used	-7.62087
▁today	-7.63064
▁possible	-7.63511
▁access	-7.63628
▁without	-7.64541
▁n	-7.64657
▁high	-7.6561
▁social	-7.66146
▁much	-7.66506
m	-7.66627
▁business	-7.66638
▁last	-7.66886
▁own	-7.6694
▁government	-7.67444
▁help	-7.68024
▁since	-7.68299
▁know	-7.68378
▁during	-7.6843
▁2	-7.69157
▁”	-7.69304
▁day	-7.69865
▁me	-7.70144
▁financial	-7.71313
▁point	-7.72312
▁1	-7.7351
▁long	-7.73624
▁still	-7.74124
▁de	-7.74217
▁site	-7.74304
▁large	-7.74946
▁products	-7.75472
▁room	-7.7554
▁canada	-7.75753
▁vote	-7.75794
▁committee	-7.75964
▁process	-7.76258
▁best	-7.76283
▁get	-7.76736
▁set	-7.7701
▁3	-7.77019
▁different	-7.77067
▁state	-7.779
▁community	-7.78011
▁view	-7.78104
▁provide	-7.79083
▁issue	-7.8007
▁future	-7.80208
▁level	-7.80209
▁every	-7.80255
▁health	-7.8111
▁think	-7.81797
▁say	-7.81804
er	-7.82313
▁members	-7.82606
▁second	-7.83053
▁fact	-7.832
▁including	-7.83459
▁believe	-7.83961
▁city	-7.84035
▁security	-7.84083
▁end	-7.84231
▁quality	-7.84413
able	-7.84744
▁her	-7.85016
▁already	-7.85104
▁house	-7.85415
▁ensure	-7.86215
▁too	-7.86767
▁while	-7.86973
▁case	-7.87415
▁course	-7.87418
th	-7.87755
▁said	-7.88332
▁agreement	-7.8848
▁question	-7.88977
▁based	-7.89042
▁why	-7.89127
▁able	-7.89708
'	-7.90134
▁increase	-7.90235
▁three	-7.9109
▁centre	-7.91203
▁offers	-7.92208
▁debate	-7.93146
▁commissioner	-7.93672
▁life	-7.94051
▁common	-7.94632
▁example	-7.95361
▁go	-7.96163
▁data	-7.96509
▁small	-7.97545
▁change	-7.97696
▁give	-7.98355
▁situation	-7.99048
o	-7.99122
▁means	-7.9975
▁next	-7.99762
▁proposal	-7.99905
▁energy	-8.00164
▁come	-8.01066
▁located	-8.01148
▁general	-8.01281
▁law	-8.01499
▁offer	-8.01664
▁few	-8.01922
▁clear	-8.02372
▁action	-8.02656
▁please	-8.03351
▁needs	-8.03992
▁become	-8.04183
▁women	-8.04244
▁budget	-8.04669
▁put	-8.0529
▁start	-8.05702
▁back	-8.05763
▁particular	-8.05813
▁s	-8.06321
▁given	-8.06399
▁open	-8.06798
▁real	-8.06809
▁list	-8.07483
▁areas	-8.07823
▁better	-8.085
▁children	-8.08845
▁using	-8.0889
▁problem	-8.08946
▁another	-8.09022
▁legal	-8.09042
▁company	-8.09253
▁research	-8.09515
▁citizens	-8.09768
▁4	-8.09853
▁taken	-8.0997
▁far	-8.10292
▁non	-8.10771
▁present	-8.1092
▁measures	-8.10949
▁full	-8.11331
▁local	-8.11395
▁trade	-8.11494
▁internet	-8.11641
▁further	-8.11729
▁5	-8.11777
▁hope	-8.12471
▁close	-8.1254
▁united	-8.1259
▁she	-8.13225
▁stay	-8.13371
▁necessary	-8.13872
▁e	-8.14276
▁working	-8.14385
▁shall	-8.14424
▁form	-8.14646
▁regard	-8.15306
▁whether	-8.15583
▁10	-8.15813
▁always	-8.15926
▁management	-8.16438
▁protection	-8.16475
▁per	-8.17059
▁welcome	-8.17159
▁project	-8.1728
▁again	-8.17525
▁problems	-8.17562
st	-8.17912
▁thank	-8.18105
▁enjoy	-8.18391
▁water	-8.18621
▁respect	-8.18829
▁issues	-8.19064
▁did	-8.191
▁food	-8.19797
▁environment	-8.19801
▁let	-8.20027
▁position	-8.20155
▁cooperation	-8.2017
ary	-8.20595
▁power	-8.20649
▁current	-8.20689
i	-8.2088
▁personal	-8.20966
▁old	-8.2104
▁making	-8.21325
▁page	-8.21364
▁allow	-8.22087
▁look	-8.22152
▁reach	-8.2234
▁web	-8.22369
▁special	-8.22551
▁terms	-8.22614
▁account	-8.22692
▁result	-8.23151
▁once	-8.23526
▁family	-8.23577
▁control	-8.23604
▁around	-8.23625
▁main	-8.23763
▁down	-8.23832
▁experience	-8.23925
▁industry	-8.24294
▁third	-8.24546
▁global	-8.25088
▁conditions	-8.25416
▁home	-8.2583
▁together	-8.25963
▁role	-8.2605
▁sector	-8.26087
▁directive	-8.26236
▁ask	-8.26313
▁play	-8.26728
▁among	-8.27704
▁air	-8.28125
▁consider	-8.28239
▁specific	-8.2853
▁subject	-8.29265
ies	-8.2946
▁private	-8.29842
▁certain	-8.29889
▁programme	-8.30075
▁million	-8.30497
▁contact	-8.30542
▁rules	-8.30862
▁following	-8.30903
▁major	-8.3098
▁region	-8.31139
▁several	-8.31207
▁m	-8.31246
▁wish	-8.31741
▁complete	-8.32695
▁activities	-8.32709
▁particularly	-8.32759
▁french	-8.3301
▁continue	-8.33141
▁done	-8.33391
▁decision	-8.33442
▁program	-8.33528
▁various	-8.33872
▁office	-8.34653
▁safety	-8.35629
▁term	-8.35894
▁call	-8.36246
▁less	-8.36299
▁resources	-8.36549
▁line	-8.36615
▁matter	-8.36751
▁create	-8.37368
▁minutes	-8.37449
▁really	-8.37598
▁total	-8.37599
▁companies	-8.37981
▁often	-8.38086
▁yet	-8.38729
▁name	-8.39019
▁production	-8.39517
▁difficult	-8.39812
▁tax	-8.40135
▁aim	-8.40336
▁single	-8.4035
▁approach	-8.40379
▁whole	-8.40399
▁d	-8.40401
▁growth	-8.40414
▁basis	-8.40539
▁website	-8.40541
▁click	-8.40837
▁include	-8.40988
▁online	-8.41921
▁resolution	-8.42084
▁central	-8.42334
▁provided	-8.42768
r	-8.42852
▁off	-8.43248
▁20	-8.43377
▁2009	-8.43774
▁product	-8.43851
▁especially	-8.4399
▁bar	-8.4434
▁un	-8.4441
2	-8.44419
▁act	-8.44754
▁crisis	-8.4481
▁days	-8.44889
▁provides	-8.45197
▁meeting	-8.45258
▁plan	-8.45283
▁transport	-8.45456
▁key	-8.45937
▁education	-8.45944
▁treaty	-8.46305
▁something	-8.46321
▁him	-8.46321
▁value	-8.46339
▁la	-8.46357
▁called	-8.46416
▁away	-8.46469
▁going	-8.46519
▁price	-8.46528
re	-8.46821
▁interest	-8.46832
▁until	-8.47123
▁money	-8.47192
▁least	-8.47202
▁systems	-8.47258
▁mrs	-8.47372
▁agree	-8.47642
▁having	-8.47741
▁rapporteur	-8.47746
▁modern	-8.47813
▁near	-8.48117
▁risk	-8.48279
▁institutions	-8.48616
▁hand	-8.48798
▁little	-8.48831
▁framework	-8.49147
▁check	-8.49747
▁facilities	-8.49877
▁opinion	-8.50152
▁opportunity	-8.50235
▁period	-8.50349
▁sure	-8.50524
▁forward	-8.50634
▁progress	-8.50764
▁heart	-8.50791
▁software	-8.50865
▁range	-8.50995
▁found	-8.51
▁design	-8.51343
▁15	-8.51348
▁required	-8.51403
▁amendments	-8.51725
▁try	-8.51881
▁staff	-8.51984
▁towards	-8.52045
▁itself	-8.52304
▁restaurant	-8.52383
▁france	-8.5261
com	-8.52848
▁network	-8.52892
▁effective	-8.52903
al	-8.53009
▁favour	-8.53127
▁due	-8.53174
▁canadian	-8.53343
▁strategy	-8.53371
▁$	-8.53666
▁meet	-8.53979
▁ladies	-8.54019
▁6	-8.54034
▁training	-8.54129
▁building	-8.54273
▁team	-8.5431
▁technology	-8.54486
c	-8.54685
▁game	-8.5506
▁wide	-8.55217
▁essential	-8.55224
▁things	-8.55243
▁individual	-8.55283
est	-8.55287
▁gentlemen	-8.55357
▁address	-8.55524
▁fully	-8.55552
▁location	-8.55745
▁b	-8.55835
▁party	-8.5588
▁short	-8.56044
▁aid	-8.56224
▁excellent	-8.56574
▁application	-8.56727
▁text	-8.56963
ity	-8.57015
▁rather	-8.57578
▁show	-8.57652
▁competition	-8.57688
▁society	-8.57777
▁hours	-8.57785
▁results	-8.57803
▁economy	-8.57815
▁live	-8.57884
▁madam	-8.57932
▁left	-8.58186
▁sea	-8.58193
▁visit	-8.58284
▁receive	-8.58357
▁easy	-8.58702
▁quite	-8.58728
▁cost	-8.58834
▁environmental	-8.59048
▁four	-8.59079
▁finally	-8.59145
▁kind	-8.59181
▁c	-8.59572
▁regional	-8.59629
▁court	-8.60089
▁person	-8.60332
▁questions	-8.60509
▁care	-8.60575
▁above	-8.60624
▁policies	-8.60763
▁presidency	-8.60768
▁taking	-8.60978
▁customers	-8.60997
▁addition	-8.6106
▁projects	-8.61375
▁according	-8.61406
▁legislation	-8.61541
▁amount	-8.61606
▁others	-8.61654
▁guests	-8.61675
▁date	-8.61715
▁foreign	-8.61858
▁technical	-8.61891
▁conference	-8.61983
▁costs	-8.6209
▁car	-8.6227
▁reason	-8.62292
▁&	-8.62432
▁regulation	-8.6253
▁along	-8.62592
▁currently	-8.62611
▁natural	-8.62656
▁contain	-8.62765
▁might	-8.63689
▁30	-8.63744
▁responsibility	-8.64013
’	-8.64033
▁share	-8.64214
▁although	-8.64231
▁request	-8.64376
▁focus	-8.64406
▁keep	-8.6469
▁version	-8.64708
▁authorities	-8.64749
▁employment	-8.65018
▁content	-8.65071
▁groups	-8.65117
▁discuss	-8.65217
▁solution	-8.65281
▁user	-8.65519
▁field	-8.6553
▁apply	-8.65674
▁standards	-8.65707
▁2008	-8.65778
▁known	-8.65853
▁young	-8.66345
▁adopted	-8.66347
▁simply	-8.66456
▁amendment	-8.66505
▁breakfast	-8.66642
▁points	-8.6693
▁recent	-8.66958
▁past	-8.66987
▁size	-8.6725
▁responsible	-8.67345
▁note	-8.67391
▁improve	-8.67449
▁china	-8.67707
▁related	-8.67711
▁attention	-8.67977
▁step	-8.681
▁12	-8.68116
▁greater	-8.68353
▁internal	-8.68372
▁below	-8.68547
▁proposals	-8.68813
▁art	-8.69043
▁indeed	-8.69153
▁euro	-8.69317
▁file	-8.69401
▁war	-8.69482
▁bring	-8.6975
▁concerned	-8.69803
▁p	-8.69818
▁extreme	-8.69873
▁fund	-8.70497
▁light	-8.70533
▁bank	-8.70582
/	-8.70606
▁proposed	-8.70643
▁never	-8.70883
▁additional	-8.70899
▁peace	-8.70983
▁importance	-8.71165
▁24	-8.71433
▁music	-8.71592
▁7	-8.71606
▁months	-8.71612
▁pay	-8.71666
▁remain	-8.71758
▁south	-8.71866
▁town	-8.71891
▁add	-8.71919
▁clearly	-8.71922
▁makes	-8.71935
▁cultural	-8.72038
▁co	-8.72121
▁accept	-8.72146
▁investment	-8.72268
▁commitment	-8.72277
▁serious	-8.72312
▁ideal	-8.72367
▁hard	-8.7248
▁rate	-8.72555
▁thus	-8.72686
ness	-8.72733
▁times	-8.72802
▁beautiful	-8.72808
▁board	-8.7289
▁fundamental	-8.73075
▁protect	-8.73342
▁increasing	-8.73442
▁feel	-8.73453
▁understand	-8.73467
▁media	-8.73497
▁history	-8.73678
▁funds	-8.73717
▁re	-8.73734
ll	-8.73767
▁efforts	-8.7389
or	-8.742
▁language	-8.74259
▁review	-8.74406
▁held	-8.74434
▁upon	-8.74546
▁type	-8.74652
▁five	-8.74799
▁strong	-8.74853
▁2010	-8.75271
▁involved	-8.75328
▁read	-8.7547
▁changes	-8.75471
▁behalf	-8.75529
▁original	-8.7559
▁designed	-8.75892
ce	-8.75965
▁top	-8.75979
▁event	-8.76018
▁direct	-8.76386
▁section	-8.76492
▁living	-8.77215
▁benefit	-8.77312
▁parties	-8.77452
▁deal	-8.77563
▁across	-8.77578
▁force	-8.77717
▁week	-8.77749
▁8	-8.77801
▁procedure	-8.77844
▁created	-8.77852
▁american	-8.77874
▁words	-8.78108
g	-8.78138
▁achieve	-8.78441
▁[	-8.78479
▁2007	-8.78565
▁developing	-8.78594
▁appropriate	-8.78813
▁positive	-8.78902
▁principle	-8.78927
▁longer	-8.79206
▁school	-8.79248
-	-8.7943
▁express	-8.79454
▁events	-8.79466
▁demand	-8.79474
▁century	-8.79702
▁freedom	-8.79944
▁unique	-8.80201
▁needed	-8.80452
▁post	-8.80472
▁climate	-8.80483
▁directly	-8.80504
▁north	-8.80699
▁either	-8.80701
▁nature	-8.80903
▁previous	-8.81011
▁looking	-8.81239
▁professional	-8.81318
▁side	-8.81359
▁card	-8.81578
▁capital	-8.81639
▁cases	-8.81721
▁impact	-8.81773
▁enough	-8.81921
▁requirements	-8.82044
▁article	-8.82075
▁soon	-8.82148
▁throughout	-8.82262
▁users	-8.82342
▁]	-8.82387
▁implementation	-8.82526
▁tv	-8.82851
▁included	-8.83095
▁knowledge	-8.83177
▁video	-8.83551
▁credit	-8.83575
▁computer	-8.83749
▁cause	-8.83837
▁exchange	-8.83925
▁final	-8.83938
▁reform	-8.83974
▁lot	-8.84433
l	-8.8451
▁true	-8.84525
▁station	-8.84541
▁developed	-8.84657
▁develop	-8.84702
▁travel	-8.84904
▁active	-8.85039
▁solutions	-8.85186
▁traditional	-8.85222
▁prevent	-8.85287
▁thanks	-8.85365
▁everything	-8.85464
▁answer	-8.85551
▁democracy	-8.85587
▁themselves	-8.85688
▁document	-8.85756
▁democratic	-8.86037
▁potential	-8.86346
▁book	-8.86399
▁ago	-8.86578
▁return	-8.86846
▁run	-8.86859
▁front	-8.86913
▁workers	-8.86995
▁guarantee	-8.87208
▁mean	-8.87253
▁promote	-8.87542
▁star	-8.87649
▁lead	-8.87943
▁function	-8.88013
▁space	-8.88058
▁regions	-8.88157
▁road	-8.88295
▁situated	-8.88362
▁though	-8.88986
▁culture	-8.89127
▁turn	-8.89421
▁park	-8.89428
▁interests	-8.89472
▁effect	-8.89534
▁basic	-8.89553
▁moment	-8.89898
▁paris	-8.89925
▁success	-8.89961
▁learn	-8.89968
▁search	-8.90118
▁low	-8.90131
▁style	-8.90376
▁choice	-8.90458
▁significant	-8.90462
▁joint	-8.90793
▁features	-8.90855
▁18	-8.91005
▁minister	-8.91008
▁choose	-8.91022
▁received	-8.91059
▁comes	-8.91073
▁response	-8.91149
▁communication	-8.91187
▁standard	-8.9131
▁follow	-8.91348
▁outside	-8.91502
▁concerns	-8.91616
▁km	-8.91617
▁includes	-8.91723
▁prices	-8.91988
▁rule	-8.9213
▁mail	-8.92142
▁men	-8.92179
▁seen	-8.92215
▁initiative	-8.9257
▁obtain	-8.92612
▁performance	-8.92665
▁nice	-8.92958
▁airport	-8.92977
▁reduce	-8.93118
▁night	-8.93218
▁send	-8.93251
▁enter	-8.93278
▁practice	-8.93338
▁package	-8.93502
▁affairs	-8.93744
▁markets	-8.93802
▁50	-8.93826
▁negotiations	-8.93827
▁g	-8.93935
▁represent	-8.93987
▁man	-8.94043
▁ever	-8.9407
▁comfortable	-8.94505
▁implement	-8.94537
▁big	-8.94625
▁russia	-8.948
▁official	-8.94817
▁equipped	-8.95062
x	-8.95183
▁allows	-8.95376
▁built	-8.95574
▁nothing	-8.95701
▁child	-8.95893
▁fair	-8.95924
▁via	-8.96015
▁almost	-8.96108
▁africa	-8.96122
▁2006	-8.96264
▁east	-8.9645
▁property	-8.96477
▁100	-8.96725
▁objective	-8.96848
▁body	-8.96881
▁land	-8.97122
▁simple	-8.9716
▁image	-8.97168
▁population	-8.97179
▁military	-8.97185
▁actually	-8.97297
▁existing	-8.97344
▁later	-8.97346
▁thing	-8.97384
▁establish	-8.97419
▁idea	-8.97466
▁move	-8.97556
▁etc	-8.9764
▁regarding	-8.97682
▁pool	-8.9791
▁treatment	-8.97954
▁equal	-8.9796
▁certainly	-8.98086
▁works	-8.98213
▁equipment	-8.98306
▁center	-8.98327
ers	-8.98394
▁job	-8.98448
▁convention	-8.986
▁25	-8.98634
▁majority	-8.98636
3	-8.98755
▁appear	-8.99229
▁everyone	-8.99405
▁relations	-8.99422
▁june	-8.9952
▁providing	-8.99574
▁established	-8.99604
▁friendly	-8.9978
▁early	-8.99805
▁eur	-8.99812
▁face	-8.99823
▁writing	-9.00079
▁decisions	-9.00262
▁america	-9.00315
▁11	-9.00495
▁model	-9.00527
▁justice	-9.00739
▁similar	-9.00853
▁context	-9.01107
▁green	-9.0118
▁partners	-9.01334
▁9	-9.01361
▁display	-9.01603
▁commercial	-9.01613
▁assistance	-9.01622
▁half	-9.01698
_	-9.01861
▁study	-9.02134
▁concern	-9.02443
▁doing	-9.0255
▁nations	-9.0258
▁governments	-9.02616
▁connection	-9.02722
▁link	-9.02755
ve	-9.02829
▁drive	-9.02866
▁guest	-9.02882
▁stop	-9.0291
▁age	-9.02945
h	-9.02971
▁recently	-9.0304
▁concerning	-9.03187
▁agricultural	-9.03272
▁code	-9.03327
▁levels	-9.03363
▁aware	-9.03377
▁files	-9.03736
▁depend	-9.04052
▁‘	-9.04292
▁perhaps	-9.04335
▁windows	-9.0448
▁perfect	-9.04481
▁consumer	-9.04574
▁civil	-9.04665
p	-9.04912
▁encourage	-9.05125
▁safe	-9.05279
▁objectives	-9.0547
▁sites	-9.05775
▁*	-9.05928
▁beach	-9.06182
▁opportunities	-9.06254
▁x	-9.06272
▁mind	-9.06292
▁independent	-9.06454
▁unfortunate	-9.06551
▁class	-9.06658
▁serve	-9.06688
▁values	-9.06775
▁submitted	-9.07011
▁december	-9.07022
▁sustainable	-9.07078
▁reports	-9.0717
▁dialogue	-9.07245
▁famous	-9.0728
▁march	-9.07428
▁views	-9.07521
▁series	-9.07746
▁took	-9.0776
▁organization	-9.07768
▁income	-9.07877
▁fight	-9.07983
▁consumers	-9.08022
▁sound	-9.08022
▁customer	-9.08203
▁self	-9.08296
▁english	-9.08303
▁stage	-9.08322
▁16	-9.08386
▁tell	-9.08456
▁2005	-9.08716
1	-9.08722
▁students	-9.08735
▁jobs	-9.088
▁border	-9.08858
▁avoid	-9.08997
▁added	-9.09174
▁god	-9.09191
▁creation	-9.0926
▁funding	-9.0929
▁quickly	-9.09513
▁regulations	-9.09515
▁limited	-9.09631
▁love	-9.09748
▁source	-9.09755
en	-9.09801
▁six	-9.09862
▁instead	-9.09883
▁reasons	-9.10012
▁programs	-9.1002
▁billion	-9.10179
▁turkey	-9.10235
▁benefits	-9.10268
b	-9.10395
▁contribute	-9.10469
▁takes	-9.1047
▁activity	-9.10782
▁labour	-9.11198
▁oil	-9.11242
▁lack	-9.11255
▁mentioned	-9.11476
ation	-9.11511
▁considered	-9.11548
▁completely	-9.11579
▁balance	-9.11692
▁double	-9.11738
▁external	-9.11796
▁programmes	-9.11823
▁ontario	-9.12208
▁capacity	-9.12238
▁nor	-9.12504
▁difference	-9.12747
▁reflect	-9.12836
▁setting	-9.12961
▁select	-9.12987
▁2000	-9.13001
▁higher	-9.13012
▁agency	-9.13141
▁agreements	-9.13218
▁annual	-9.13535
▁discover	-9.13623
▁death	-9.13634
k	-9.13655
▁purpose	-9.13676
▁seems	-9.13724
▁leading	-9.13816
▁agenda	-9.14014
▁beginning	-9.14067
▁rates	-9.14127
▁details	-9.14131
▁university	-9.14742
▁presented	-9.14851
▁games	-9.14914
▁sense	-9.14924
▁hour	-9.15036
ion	-9.15088
▁september	-9.15108
▁cross	-9.15121
▁paper	-9.15163
▁association	-9.15165
on	-9.15262
▁former	-9.15559
▁guide	-9.15654
▁germany	-9.15693
▁message	-9.15935
▁documents	-9.16084
▁leave	-9.16221
▁require	-9.16448
▁asked	-9.16453
▁17	-9.16481
▁october	-9.16672
▁coming	-9.16676
▁industrial	-9.16752
▁walk	-9.16935
▁principles	-9.17048
▁le	-9.1708
▁january	-9.17109
▁conduct	-9.17472
▁st	-9.17644
▁entire	-9.17804
▁material	-9.17827
▁german	-9.1787
▁huge	-9.1801
▁western	-9.18037
▁anti	-9.18068
▁stability	-9.18228
▁applications	-9.18243
▁table	-9.18283
▁t	-9.1845
▁latest	-9.18517
▁middle	-9.18564
▁lisbon	-9.18674
▁red	-9.18698
▁nuclear	-9.18791
▁materials	-9.1881
▁14	-9.18851
▁enable	-9.1902
▁speed	-9.19053
▁whose	-9.19055
▁prepared	-9.19269
▁test	-9.19316
▁despite	-9.19442
▁west	-9.19466
▁rest	-9.19477
▁talk	-9.19757
▁effects	-9.19758
®	-9.19851
▁carried	-9.19891
▁garden	-9.19937
▁tools	-9.20013
▁atmosphere	-9.20041
▁priority	-9.20111
▁press	-9.20165
▁download	-9.20219
▁relationship	-9.20471
▁floor	-9.20651
▁statement	-9.20796
▁parts	-9.20799
▁charge	-9.21141
▁easily	-9.21291
▁digital	-9.21318
▁shows	-9.21422
▁pre	-9.21461
▁police	-9.21645
▁assessment	-9.21656
▁white	-9.21723
▁direction	-9.21888
▁word	-9.21923
▁month	-9.22013
▁compromise	-9.2203
▁gives	-9.22053
▁agriculture	-9.22387
▁2004	-9.22415
▁writte	-9.22453
▁violence	-9.22631
▁november	-9.22704
▁remains	-9.22713
▁summit	-9.22818
▁build	-9.23246
▁contribution	-9.23333
▁factor	-9.23478
▁speak	-9.23525
▁insurance	-9.23606
▁closed	-9.23646
▁option	-9.23658
▁highly	-9.23683
▁integration	-9.23731
▁u	-9.23858
▁adopt	-9.23942
▁clients	-9.23959
▁behind	-9.24029
▁matters	-9.2409
▁shown	-9.24195
ca	-9.24323
▁achieved	-9.24332
▁church	-9.24472
▁movement	-9.24492
▁explain	-9.24557
▁13	-9.24562
▁variety	-9.24701
▁comfort	-9.24783
▁absolute	-9.24932
▁warm	-9.2506
▁l	-9.25069
▁payment	-9.25113
▁affect	-9.25138
▁aspects	-9.25466
▁release	-9.25496
▁challenge	-9.25583
▁—	-9.25601
▁tool	-9.25771
▁successful	-9.25774
▁telephone	-9.26
▁steps	-9.26142
▁actions	-9.26184
▁poverty	-9.26193
▁summer	-9.26345
▁maintain	-9.2642
▁friends	-9.26536
▁combat	-9.26545
▁enlargement	-9.26556
▁deliver	-9.26568
▁complex	-9.26577
▁expect	-9.26591
▁images	-9.26635
▁distribution	-9.26695
▁conflict	-9.26699
▁clean	-9.26702
▁discussion	-9.26952
▁partnership	-9.26994
▁email	-9.27022
▁july	-9.27029
▁damage	-9.27082
▁status	-9.27116
▁broad	-9.27128
▁server	-9.27212
▁pressure	-9.27471
an	-9.27536
▁federal	-9.27562
▁supply	-9.27734
(	-9.27768
▁street	-9.2789
▁links	-9.27982
▁40	-9.28248
▁terrace	-9.28556
▁box	-9.28578
▁practical	-9.28617
▁employees	-9.2877
u	-9.28794
▁challenges	-9.28858
▁decided	-9.28936
▁creating	-9.28971
in	-9.2903
▁sometime	-9.29067
▁refer	-9.29169
▁base	-9.29395
▁poor	-9.29678
▁firm	-9.29749
▁communities	-9.2988
▁lower	-9.29911
▁paid	-9.29968
▁feature	-9.3006
▁operation	-9.30062
▁respond	-9.30105
▁pleased	-9.30154
▁businesses	-9.30194
▁relevant	-9.30264
▁procedures	-9.30376
▁brought	-9.30414
▁led	-9.30555
▁reference	-9.30573
▁analysis	-9.30607
▁offering	-9.30712
▁reception	-9.30774
▁came	-9.30809
▁criteria	-9.30977
▁sales	-9.31164
▁task	-9.31209
▁agreed	-9.31239
▁rural	-9.31278
▁moreover	-9.31563
▁types	-9.31637
▁requires	-9.31745
▁rich	-9.31852
▁options	-9.31863
f	-9.31881
▁daily	-9.31905
▁giving	-9.32053
▁join	-9.32062
▁reduction	-9.32159
▁secure	-9.32194
▁player	-9.32203
▁draft	-9.32242
▁useful	-9.32435
▁british	-9.32731
z	-9.32742
▁normal	-9.32744
▁solidarity	-9.32884
▁island	-9.32995
▁transfer	-9.33083
▁phone	-9.33442
▁produce	-9.33458
▁innovation	-9.3346
▁ten	-9.33516
▁effort	-9.33643
▁provisions	-9.33816
▁ground	-9.3387
▁precise	-9.34052
▁method	-9.34239
▁forms	-9.34289
▁organizations	-9.34523
▁technologies	-9.34618
▁committed	-9.34628
▁furthermore	-9.34647
▁construction	-9.34819
▁april	-9.34829
▁19	-9.34856
▁growing	-9.34875
▁planning	-9.34893
▁authority	-9.34911
▁administration	-9.35209
▁extra	-9.35301
▁forces	-9.35461
▁sent	-9.35498
▁item	-9.3551
▁stress	-9.35518
▁village	-9.35683
▁allowed	-9.35685
▁head	-9.35688
▁produced	-9.35698
▁popular	-9.35805
▁carry	-9.35857
▁medical	-9.3589
▁holiday	-9.35914
▁efficient	-9.35928
▁club	-9.3618
▁waste	-9.36263
▁distance	-9.3629
▁notice	-9.36311
▁goods	-9.36357
▁spirit	-9.36622
▁minimum	-9.36643
▁influence	-9.36677
▁persons	-9.36961
▁published	-9.36975
▁wine	-9.36989
▁collect	-9.37003
▁hold	-9.37021
▁ways	-9.37235
▁reviews	-9.37634
▁beyond	-9.37676
▁accommodation	-9.37731
▁round	-9.37894
▁selection	-9.3795
▁film	-9.38018
▁plans	-9.38156
▁maximum	-9.38187
▁gas	-9.38271
▁partner	-9.38336
▁fast	-9.38432
▁historical	-9.38627
▁du	-9.38754
▁applied	-9.38768
▁elements	-9.38971
▁fine	-9.39046
▁begin	-9.39095
▁pro	-9.39164
5	-9.39222
▁structural	-9.39458
▁limit	-9.39611
ic	-9.3968
▁2003	-9.39819
▁cut	-9.3982
▁italian	-9.39886
▁pages	-9.40242
▁possibility	-9.40248
▁screen	-9.40292
▁smoking	-9.40316
▁introduce	-9.4034
▁immediately	-9.40345
▁scientific	-9.40359
▁offered	-9.40483
▁instruments	-9.40486
▁black	-9.40554
▁ready	-9.40659
▁reading	-9.40687
▁tomorrow	-9.40704
▁photo	-9.40787
▁strategic	-9.40924
▁hotels	-9.4093
▁families	-9.41017
▁legislative	-9.41114
▁competitive	-9.41129
▁elections	-9.41158
▁stand	-9.4124
▁port	-9.41246
▁transparency	-9.41311
▁foundation	-9.4134
▁news	-9.41352
▁f	-9.41489
▁mediterranean	-9.41496
«	-9.41545
▁electronic	-9.41595
▁numerous	-9.41682
▁monitoring	-9.41759
▁manage	-9.41877
▁river	-9.4199
▁practices	-9.4201
▁advantage	-9.4206
▁medium	-9.42068
▁leaders	-9.42091
▁session	-9.42095
▁fishing	-9.42184
▁privacy	-9.42304
▁collection	-9.42316
▁quiet	-9.42336
▁reality	-9.42486
▁starting	-9.42551
▁otherwise	-9.42596
▁overall	-9.42709
▁mobile	-9.4272
▁operations	-9.428
▁al	-9.42825
▁comments	-9.42829
▁sufficient	-9.42838
▁structure	-9.42893
▁historic	-9.42955
▁lives	-9.43008
▁rapid	-9.43138
▁seek	-9.43176
▁individuals	-9.43177
▁mission	-9.43242
▁initiatives	-9.43378
▁intend	-9.43393
▁republic	-9.43692
▁goes	-9.44191
▁infrastructure	-9.44257
▁mention	-9.44281
▁21	-9.44361
▁purchase	-9.44561
▁draw	-9.44628
▁congratulate	-9.44669
▁farmers	-9.45026
▁bathroom	-9.45122
▁interesting	-9.45124
▁goal	-9.45128
▁000	-9.45139
▁saint	-9.45149
▁fish	-9.45357
▁scale	-9.45494
▁relation	-9.45532
▁swimming	-9.45579
▁anything	-9.45623
▁menu	-9.45646
▁spanish	-9.45794
▁italy	-9.45825
▁morning	-9.46026
▁motion	-9.46057
▁department	-9.46093
▁alternative	-9.46236
▁sign	-9.46255
▁criminal	-9.46258
▁apartment	-9.46376
▁thought	-9.46385
▁regular	-9.46394
▁crucial	-9.46493
▁bad	-9.46655
▁currency	-9.46668
▁concept	-9.46734
▁suggest	-9.46763
▁weeks	-9.46795
us	-9.46835
▁parking	-9.46886
▁probab	-9.46886
▁ability	-9.46928
▁prior	-9.47053
▁train	-9.47086
▁consideration	-9.47159
▁bus	-9.47262
▁spain	-9.47507
▁efficiency	-9.47607
▁client	-9.47609
▁israel	-9.47695
▁storage	-9.47738
▁r	-9.47844
▁happy	-9.47926
▁cover	-9.47955
▁tour	-9.47982
▁players	-9.47989
▁operating	-9.48021
▁ourselve	-9.48093
▁participate	-9.48168
▁museum	-9.48219
▁constitution	-9.48339
▁relating	-9.48566
▁colleagues	-9.48618
▁released	-9.48635
▁coast	-9.48648
▁methods	-9.48649
▁late	-9.4865
▁consequences	-9.4876
▁save	-9.48843
▁voting	-9.48893
▁comprehensive	-9.48903
▁initial	-9.48907
▁terrorism	-9.49085
▁desk	-9.49118
▁director	-9.49538
▁seem	-9.49567
▁approved	-9.49593
▁buy	-9.49625
▁restaurants	-9.49629
▁monetar	-9.49685
▁african	-9.49685
▁organisation	-9.49904
▁accepted	-9.49923
▁february	-9.49997
le	-9.50094
▁ideas	-9.50115
▁description	-9.50136
▁record	-9.5015
▁square	-9.50179
▁bit	-9.50282
▁attempt	-9.50306
▁ca	-9.50328
▁guidelines	-9.50353
▁raised	-9.50396
▁representatives	-9.50403
▁integrated	-9.50473
▁critical	-9.50536
▁pass	-9.50619
▁exist	-9.50711
▁60	-9.50725
man	-9.50857
▁rise	-9.50948
▁alone	-9.51224
▁illegal	-9.51319
▁opening	-9.51361
▁contract	-9.51417
▁participation	-9.51564
▁assist	-9.5161
▁expected	-9.5167
▁languages	-9.5169
▁implemented	-9.51822
▁fresh	-9.51847
▁instrument	-9.51862
▁skills	-9.51937
▁reject	-9.52001
▁accession	-9.52031
▁usually	-9.52183
▁lost	-9.5227
▁places	-9.52319
▁spa	-9.52331
4	-9.52562
▁accordan	-9.52574
▁became	-9.52592
▁remember	-9.52632
▁shopping	-9.52692
▁studies	-9.52748
▁comment	-9.52791
▁likely	-9.52959
▁doubt	-9.53041
▁saying	-9.53134
▁laws	-9.53256
▁sun	-9.53392
▁sports	-9.53414
▁perform	-9.5356
▁v	-9.53599
▁database	-9.53653
▁chance	-9.53656
▁confidence	-9.53695
▁raise	-9.53751
ism	-9.53759
▁organisations	-9.53792
▁eastern	-9.538
▁fall	-9.53812
▁conclude	-9.54027
▁sectors	-9.54035
▁tourism	-9.54171
▁interested	-9.54233
▁o	-9.543
▁circumstances	-9.54411
▁average	-9.5443
▁season	-9.54563
▁understanding	-9.54683
▁installation	-9.54694
▁radio	-9.54735
▁victims	-9.55012
▁trust	-9.55035
▁export	-9.55087
▁worldwide	-9.55219
▁vital	-9.55229
▁print	-9.55258
▁getting	-9.55316
▁visitors	-9.55365
▁worth	-9.55446
▁fisheries	-9.55462
▁calls	-9.55696
▁affected	-9.55718
▁purposes	-9.55733
▁mountain	-9.55871
▁involve	-9.55923
▁district	-9.55994
▁deposit	-9.56076
▁prime	-9.56125
▁debt	-9.56174
▁associated	-9.56174
▁innovative	-9.56197
▁japan	-9.56216
▁administrative	-9.56231
▁automatically	-9.56279
▁banks	-9.56508
▁learning	-9.56533
▁yourself	-9.56582
▁highest	-9.56623
▁heard	-9.56657
▁proper	-9.56689
▁apartments	-9.56729
▁multi	-9.56768
▁says	-9.56778
▁finance	-9.56835
▁priorities	-9.56897
▁served	-9.56945
▁heritage	-9.57006
▁got	-9.57042
▁2002	-9.57063
▁correct	-9.57102
▁sources	-9.57139
▁entry	-9.57272
▁deep	-9.57348
▁nevertheless	-9.57351
▁highlight	-9.57448
▁selected	-9.57532
▁exercise	-9.57654
▁improved	-9.57898
▁generally	-9.58002
▁strengthen	-9.58277
▁minute	-9.5836
▁recommend	-9.58403
▁expressed	-9.58429
▁quebec	-9.58473
▁campaign	-9.58574
▁announced	-9.58964
▁introduc	-9.59031
▁identify	-9.59195
▁separate	-9.59243
▁emissions	-9.59386
▁manner	-9.59464
▁defence	-9.59559
▁extent	-9.59582
▁decide	-9.59618
▁genuine	-9.59652
▁lines	-9.59866
▁running	-9.59877
▁science	-9.59888
▁domestic	-9.59982
▁august	-9.60017
▁met	-9.60058
▁crime	-9.60227
▁delivery	-9.60249
it	-9.60328
▁ensuring	-9.60443
▁consist	-9.60602
▁track	-9.60616
less	-9.60626
▁forest	-9.6064
▁corporate	-9.60693
▁sport	-9.61081
▁en	-9.61127
▁ireland	-9.61253
▁promotion	-9.61276
▁promot	-9.61315
▁meetings	-9.61387
▁san	-9.6142
▁specifically	-9.61503
v	-9.61515
▁profit	-9.61671
▁advice	-9.6184
▁evidence	-9.61864
▁strict	-9.61912
▁thousands	-9.6192
▁2001	-9.61942
▁grand	-9.6197
▁processes	-9.62058
▁financing	-9.62097
▁cities	-9.62157
▁voice	-9.62162
▁television	-9.62177
▁disease	-9.62194
▁covered	-9.62257
▁impose	-9.62384
▁russian	-9.62568
▁operate	-9.62603
▁wrong	-9.62631
▁items	-9.62646
▁suite	-9.62675
▁speaking	-9.62689
▁yes	-9.62694
▁agencies	-9.62721
▁brand	-9.62737
▁invest	-9.62739
▁effectively	-9.62784
▁anyone	-9.62833
▁des	-9.62968
▁machine	-9.63066
▁youth	-9.63105
▁risks	-9.63353
▁cohesion	-9.635
▁membership	-9.63516
▁occasion	-9.63584
▁discrimination	-9.63747
▁exclusive	-9.63766
▁brussels	-9.64041
▁talking	-9.64135
▁chinese	-9.64187
▁debian	-9.64234
▁reduced	-9.64255
▁generate	-9.64356
▁northern	-9.64373
▁format	-9.64398
▁target	-9.64468
▁measure	-9.6449
▁remind	-9.645
▁leader	-9.64526
▁marketing	-9.64589
▁extend	-9.64598
▁inside	-9.64615
▁whom	-9.64629
▁placed	-9.64684
▁changed	-9.64712
▁recognise	-9.64737
▁update	-9.64801
▁22	-9.64913
▁animal	-9.6492
▁paragraph	-9.64928
▁worked	-9.64931
€	-9.64955
▁vehicle	-9.65033
▁wanted	-9.65144
▁bed	-9.6517
▁protected	-9.65221
▁unless	-9.65298
▁shower	-9.65348
▁arrival	-9.65388
▁dedicated	-9.65415
▁improving	-9.65612
▁loss	-9.65801
▁plant	-9.65855
▁mainly	-9.66067
▁satellite	-9.66163
▁evening	-9.66184
▁traffic	-9.66211
▁sale	-9.66241
▁detailed	-9.66262
to	-9.66284
▁walking	-9.66422
▁powerful	-9.66463
▁immigration	-9.66629
▁hear	-9.66697
▁montreal	-9.66769
▁lake	-9.66892
▁determine	-9.67014
▁extensive	-9.67033
▁registered	-9.67151
▁represents	-9.67159
▁followed	-9.67268
▁animals	-9.67282
▁asia	-9.67384
▁attack	-9.67445
▁managed	-9.67453
▁borders	-9.67501
▁becoming	-9.67512
▁color	-9.67553
▁touch	-9.67587
▁23	-9.67627
▁register	-9.67722
▁1999	-9.67811
▁experts	-9.67816
▁advanced	-9.67834
▁regime	-9.67855
▁powers	-9.67871
▁properly	-9.67882
▁button	-9.67905
▁degree	-9.68022
▁hot	-9.68046
▁spread	-9.68166
▁else	-9.68284
▁representative	-9.68311
▁sitting	-9.68364
▁presence	-9.68371
▁27	-9.68441
▁el	-9.68563
▁fellow	-9.68613
▁facing	-9.68647
▁inform	-9.68669
▁award	-9.68786
▁continued	-9.68857
▁fi	-9.68938
▁earth	-9.69009
▁cuisine	-9.69351
▁vision	-9.69417
▁assess	-9.69464
▁tru	-9.69557
▁reforms	-9.69604
▁fixed	-9.69606
▁scope	-9.69627
▁appeal	-9.69637
▁uk	-9.69737
▁ii	-9.6974
▁iraq	-9.69755
▁establishment	-9.69845
▁institutional	-9.69953
▁monitor	-9.69976
▁expand	-9.70093
▁character	-9.70095
▁spend	-9.70096
▁resort	-9.7014
▁stock	-9.70474
▁peaceful	-9.70479
▁seven	-9.70517
▁informed	-9.70538
▁opened	-9.70556
▁claim	-9.70635
▁golf	-9.70636
▁signed	-9.70642
▁virtual	-9.70786
▁happen	-9.70792
▁fire	-9.70818
ally	-9.70844
▁relative	-9.70942
is	-9.71082
▁path	-9.7123
▁store	-9.71303
▁london	-9.71367
▁discussions	-9.71373
▁india	-9.71391
▁outcome	-9.71475
▁referred	-9.71532
▁duty	-9.71636
▁sort	-9.71729
▁rental	-9.71843
▁exceptional	-9.71893
▁cd	-9.71901
▁prevention	-9.71962
▁winter	-9.71964
▁map	-9.72185
▁began	-9.72311
▁defined	-9.72328
▁registration	-9.72471
▁definition	-9.7255
▁goals	-9.72564
▁200	-9.72602
▁fields	-9.72636
▁shared	-9.72781
▁vehicles	-9.72892
▁unemployment	-9.72953
▁earlier	-9.7298
▁forget	-9.72989
▁remove	-9.73001
▁dealing	-9.73038
▁born	-9.73131
▁larger	-9.73247
▁protocol	-9.73302
▁ultimate	-9.73304
▁provision	-9.73396
▁h	-9.73421
▁institution	-9.73434
▁ban	-9.73436
▁estate	-9.73479
▁linked	-9.73553
▁wood	-9.73792
▁entirely	-9.73792
▁spacious	-9.73965
▁conclusion	-9.7414
▁substantial	-9.74143
self	-9.74161
▁topic	-9.74227
▁ministers	-9.74233
▁bureau	-9.74352
▁fear	-9.74425
▁coordination	-9.7446
▁recommendations	-9.74567
▁grant	-9.74613
▁elegant	-9.74742
▁physical	-9.74782
▁suffer	-9.7488
▁obviously	-9.74961
▁appreciate	-9.74996
tended	-9.75023
▁evaluation	-9.75023
na	-9.75051
▁forum	-9.75082
▁detail	-9.75229
ability	-9.75233
▁participants	-9.75254
▁tabled	-9.75303
▁condition	-9.75401
▁camera	-9.75498
▁applies	-9.75607
▁www	-9.75644
▁brief	-9.75737
&	-9.7582
▁copy	-9.75891
▁»	-9.75897
▁reduc	-9.7605
▁kingdom	-9.76091
▁networks	-9.76109
▁listing	-9.76134
▁constitute	-9.76165
▁executive	-9.76181
▁adequate	-9.76299
net	-9.76466
▁occur	-9.76554
▁demands	-9.7672
▁kitchen	-9.76777
▁mere	-9.76801
▁assembly	-9.76828
▁convince	-9.7694
▁fun	-9.7696
▁introduction	-9.76969
▁enhance	-9.77169
▁failure	-9.77233
▁iran	-9.77253
▁speech	-9.77349
▁artists	-9.77491
▁gain	-9.77495
▁80	-9.7751
▁relax	-9.77748
▁hair	-9.77751
▁blue	-9.77761
▁race	-9.77774
▁install	-9.77863
▁easier	-9.77966
▁unit	-9.78064
▁religious	-9.78151
▁province	-9.78308
▁christian	-9.78326
▁expertise	-9.78349
▁exactly	-9.78381
▁festival	-9.78411
▁charter	-9.78447
▁license	-9.78492
▁tourist	-9.78661
▁statements	-9.78672
▁permanent	-9.7879
▁fuel	-9.78868
▁negative	-9.78889
▁origin	-9.78938
▁net	-9.78993
▁namely	-9.79156
ch	-9.79169
ia	-9.79209
▁pleasant	-9.79331
▁humanitarian	-9.79331
▁advance	-9.79361
▁competitiveness	-9.7944
▁accessible	-9.79444
▁indicate	-9.79555
▁booking	-9.79651
▁reported	-9.79713
▁shop	-9.79792
▁processing	-9.79965
▁packages	-9.80026
▁win	-9.80106
▁threat	-9.80166
▁linux	-9.80176
▁generation	-9.80212
▁inter	-9.80249
▁aspect	-9.80334
▁consult	-9.80339
▁pc	-9.80344
▁playing	-9.80391
▁division	-9.80425
▁carefully	-9.80458
▁stated	-9.80636
▁schools	-9.80756
▁defend	-9.80757
▁coffee	-9.8081
▁trip	-9.80858
▁govern	-9.80996
▁taste	-9.80999
▁listen	-9.81006
▁election	-9.81062
▁couple	-9.81077
▁availability	-9.81096
▁import	-9.81119
▁himself	-9.8113
▁yesterday	-9.81151
▁attend	-9.81224
▁title	-9.81308
▁payments	-9.81377
▁shape	-9.81412
▁improvement	-9.81416
▁gave	-9.81486
▁destroy	-9.81531
▁letter	-9.81557
▁31	-9.8156
▁looks	-9.81594
▁recognition	-9.81604
▁southern	-9.81606
▁went	-9.81687
▁concrete	-9.81696
▁picture	-9.81729
▁calling	-9.8173
▁hands	-9.81807
▁thinking	-9.81858
▁bodies	-9.81872
▁wonderful	-9.81877
▁sole	-9.8192
▁combin	-9.8195
▁immediate	-9.81988
▁urge	-9.82006
▁mark	-9.8204
▁heating	-9.82048
▁continues	-9.82294
▁emergency	-9.82428
▁moving	-9.82458
▁skin	-9.82461
▁schedule	-9.82495
▁confirm	-9.82568
▁k	-9.82636
▁installed	-9.82661
▁watch	-9.82713
▁core	-9.82809
▁actual	-9.82862
▁memory	-9.82902
▁containing	-9.83054
▁charged	-9.83075
▁propose	-9.83491
▁approximately	-9.83529
▁facilitate	-9.83537
▁device	-9.83687
▁appoint	-9.83712
▁perspective	-9.83764
▁adoption	-9.8378
▁convenient	-9.83901
▁plus	-9.83906
▁mini	-9.83928
▁buildings	-9.84026
▁background	-9.84052
▁urban	-9.8417
▁aircraft	-9.84172
▁pure	-9.84173
▁ahead	-9.84241
ment	-9.84295
▁leadership	-9.84339
▁except	-9.84339
▁opposition	-9.84442
▁described	-9.84588
id	-9.84764
▁compliance	-9.84789
▁flexibility	-9.84807
▁ministry	-9.84819
▁buffet	-9.8485
▁pleasure	-9.84895
▁founded	-9.8497
▁enterprises	-9.85061
▁species	-9.85064
▁library	-9.85079
neither	-9.85122
▁universal	-9.85218
▁expression	-9.85252
▁institute	-9.85261
▁functions	-9.85285
▁submit	-9.85326
▁investigation	-9.85335
▁villa	-9.85418
▁dangerous	-9.85475
▁consumption	-9.85517
▁sell	-9.85533
▁chosen	-9.8555
▁500	-9.85589
▁beauty	-9.85808
▁inc	-9.85826
▁architecture	-9.86
▁appears	-9.86054
▁mandate	-9.86117
▁communications	-9.86408
▁arrest	-9.86452
▁told	-9.86482
w	-9.8657
▁diversity	-9.86622
▁someone	-9.86758
▁mass	-9.86779
▁engage	-9.86784
▁seriously	-9.86802
▁contemporary	-9.86822
▁wants	-9.86902
▁maintenance	-9.86913
▁primary	-9.87007
▁luxury	-9.87037
▁models	-9.87038
▁28	-9.8705
▁element	-9.8711
▁fiscal	-9.87191
▁instance	-9.87284
▁professionals	-9.87447
▁engine	-9.87455
▁sub	-9.87534
▁tradition	-9.87569
▁chamber	-9.87583
▁van	-9.87596
▁disposal	-9.87627
▁phase	-9.87692
▁bear	-9.87721
▁succeed	-9.87759
▁demonstrate	-9.87922
▁hiv	-9.87962
▁york	-9.88015
▁furnished	-9.88026
▁changing	-9.88031
▁door	-9.88039
▁manager	-9.88076
▁vice	-9.88213
▁fill	-9.88454
▁shops	-9.88485
▁regulatory	-9.88628
▁safeguard	-9.88659
▁dynamic	-9.88743
▁candidate	-9.88794
▁declaration	-9.88863
▁host	-9.88926
▁window	-9.88956
▁multiple	-9.88961
▁exhibition	-9.89021
▁cards	-9.89034
▁kept	-9.89084
▁fruit	-9.89162
▁fax	-9.89219
▁lies	-9.89235
▁approval	-9.89257
▁reasonable	-9.8926
▁gold	-9.89275
▁length	-9.8929
▁retain	-9.8929
▁stable	-9.89325
▁sex	-9.89381
▁spent	-9.894
▁territory	-9.89447
▁suites	-9.8948
▁surround	-9.89498
▁caus	-9.89502
▁surprise	-9.8951
▁economies	-9.89542
▁dry	-9.89606
▁cold	-9.89637
▁parents	-9.89658
▁category	-9.89669
▁achiev	-9.89671
▁governance	-9.89847
▁zone	-9.89856
responsibilities	-9.89884
▁uses	-9.89969
▁elected	-9.90032
▁prepare	-9.90076
▁constitutional	-9.90125
▁reservation	-9.90183
▁launched	-9.90203
▁residence	-9.90231
▁supports	-9.90325
▁26	-9.90332
um	-9.90354
▁strength	-9.9037
▁career	-9.90446
▁fr	-9.90463
▁names	-9.90464
▁sensitive	-9.90562
▁equality	-9.90642
▁whatever	-9.90723
▁father	-9.90785
▁audio	-9.90823
▁consultation	-9.90829
▁bath	-9.90888
▁cash	-9.90916
▁dr	-9.91131
▁producers	-9.91156
▁glass	-9.91181
▁experienced	-9.91203
▁spring	-9.91267
▁disabled	-9.91389
▁strongly	-9.91412
▁--	-9.9161
▁ski	-9.91639
▁danger	-9.91686
▁break	-9.91715
▁reserve	-9.91746
▁valid	-9.91751
▁resource	-9.91762
▁balanced	-9.91907
▁metres	-9.91944
▁taxes	-9.9198
▁flight	-9.92043
▁recovery	-9.92085
▁suitable	-9.92101
▁hall	-9.92183
▁visa	-9.92201
▁wall	-9.92343
▁numbers	-9.9241
▁plants	-9.92435
▁continu	-9.92471
▁desire	-9.9258
▁quarter	-9.92583
▁default	-9.92637
▁recommended	-9.92731
▁feeling	-9.92791
▁identity	-9.92945
▁spending	-9.92958
▁sexual	-9.92961
▁greece	-9.93126
▁count	-9.93184
▁story	-9.93214
▁pension	-9.93237
▁mode	-9.93302
▁quick	-9.9341
▁honourable	-9.9344
▁student	-9.93449
▁helpful	-9.9348
▁closer	-9.93481
▁contrar	-9.93525
▁castle	-9.93583
▁connect	-9.93636
▁foot	-9.93652
▁applicable	-9.93656
▁typical	-9.93686
▁swiss	-9.93722
é	-9.9374
▁object	-9.93793
▁photos	-9.93871
▁christ	-9.93937
▁wait	-9.94065
▁emphasis	-9.94121
▁90	-9.94278
▁happened	-9.94281
▁apart	-9.94319
▁restrict	-9.94414
el	-9.94439
▁attitude	-9.94478
▁healthy	-9.9452
▁):	-9.94571
▁investments	-9.94613
▁colour	-9.94614
▁impossibl	-9.94633
▁nation	-9.94636
▁railway	-9.94688
▁acts	-9.94774
▁weight	-9.94967
▁royal	-9.95026
▁naturally	-9.95051
▁beds	-9.95193
▁saw	-9.95196
▁launch	-9.9529
▁flexible	-9.9536
▁brings	-9.95395
▁trading	-9.95469
▁unacceptable	-9.95555
▁contained	-9.95573
▁switzerland	-9.95606
▁advertising	-9.95656
▁enterprise	-9.95686
▁estimate	-9.95708
▁outstanding	-9.95764
▁seeking	-9.95952
▁irish	-9.95994
▁urgent	-9.96003
▁1998	-9.96029
▁helping	-9.96074
▁awareness	-9.96102
▁master	-9.96109
▁unable	-9.96137
▁300	-9.96167
▁error	-9.96219
▁connected	-9.96306
▁microsoft	-9.96354
▁theatre	-9.96385
▁w	-9.96462
▁barcelona	-9.96504
▁failed	-9.96567
▁positions	-9.96578
▁truth	-9.96592
▁collective	-9.96611
▁ancient	-9.96614
▁passed	-9.96659
▁surface	-9.96675
▁define	-9.96747
▁write	-9.96829
▁push	-9.96871
▁granted	-9.9688
▁platform	-9.96935
▁articles	-9.96973
▁cap	-9.97009
▁figures	-9.97016
▁creative	-9.9703
▁forced	-9.97033
▁asylum	-9.97048
▁edition	-9.971
M	-9.97201
T	-9.97201
▁ukraine	-9.97201
▁compar	-9.97215
▁match	-9.97234
▁transparent	-9.97338
▁consistent	-9.97389
▁enormous	-9.97441
▁patients	-9.97445
▁proud	-9.97477
▁blood	-9.97627
▁password	-9.97739
▁formal	-9.97765
▁accounts	-9.97927
co	-9.97992
▁extended	-9.97992
▁drugs	-9.98011
▁canadians	-9.98145
▁rome	-9.98188
▁intervention	-9.98256
▁piece	-9.9826
▁statistics	-9.9833
▁70	-9.98464
▁comply	-9.98572
▁bringing	-9.98606
▁gender	-9.98824
ized	-9.98885
▁treat	-9.9906
▁nearby	-9.99276
▁command	-9.99291
▁collaboration	-9.99297
▁politics	-9.99384
▁drawn	-9.99401
▁competence	-9.99517
▁q	-9.99578
▁alliance	-9.99633
▁latin	-9.99665
▁attacks	-9.99681
▁qualified	-9.99691
▁arts	-9.99703
ry	-9.99724
▁cable	-9.99762
▁translation	-9.99795
▁eye	-9.99819
▁palestinian	-9.99863
▁remote	-9.99909
▁requests	-9.9993
▁wireless	-10.0002
▁mechanism	-10.001
▁gift	-10.0012
▁pictures	-10.0018
▁sold	-10.0023
▁charming	-10.0025
▁independence	-10.0028
▁strategies	-10.0031
▁exception	-10.0033
▁patent	-10.0035
▁keeping	-10.0041
▁liberal	-10.0046
▁combination	-10.0052
as	-10.0053
▁wishes	-10.006
▁emphasise	-10.0061
▁amsterdam	-10.0063
▁berlin	-10.0075
▁educational	-10.0082
▁cent	-10.0085
▁addressed	-10.0087
▁j	-10.0105
▁sharing	-10.0123
▁panel	-10.0127
▁conclusions	-10.0138
▁friday	-10.0143
▁achievement	-10.0143
▁putting	-10.015
▁outdoor	-10.0162
▁browser	-10.0164
▁cars	-10.0166
▁entitled	-10.0168
▁solve	-10.0169
▁fashion	-10.0169
▁obligations	-10.0174
▁devices	-10.0178
▁enables	-10.0202
▁eight	-10.0204
▁sentence	-10.0207
▁industries	-10.0221
▁weapons	-10.0223
▁dimension	-10.0223
▁mutual	-10.0226
▁leisure	-10.0231
▁driving	-10.0237
▁adapt	-10.0246
▁vi	-10.0248
▁route	-10.0259
▁limits	-10.0261
▁soft	-10.0264
▁acceptable	-10.0267
▁components	-10.0267
▁hearing	-10.0269
▁treated	-10.027
ta	-10.0284
▁waiting	-10.0299
▁perfectly	-10.0299
▁extension	-10.0308
▁usa	-10.0319
▁structures	-10.0323
▁+	-10.0325
▁technological	-10.0327
▁books	-10.0328
▁mid	-10.0329
▁explore	-10.033
▁subsequent	-10.0331
6	-10.0331
▁overlook	-10.0338
▁drug	-10.0342
▁presentation	-10.0353
▁copyright	-10.036
▁provincial	-10.036
▁identified	-10.036
▁lord	-10.0367
▁manufacturing	-10.0368
▁fraud	-10.0373
▁woman	-10.0376
▁updated	-10.0377
▁ticket	-10.0383
▁wealth	-10.0389
ra	-10.0395
▁delay	-10.0396
▁officials	-10.0403
▁attractive	-10.0404
▁author	-10.0406
▁prize	-10.0407
▁29	-10.0412
▁stone	-10.0418
▁guarantees	-10.0426
ar	-10.0426
▁honour	-10.0431
▁determined	-10.0439
▁israeli	-10.0442
▁fee	-10.0448
temporary	-10.045
▁http	-10.045
▁jean	-10.0451
▁sauna	-10.0458
▁charges	-10.0461
▁courses	-10.0477
▁wi	-10.0478
▁guaranteed	-10.0486
▁expert	-10.0491
▁ambitious	-10.05
▁surrounding	-10.0523
▁turkish	-10.0524
▁controls	-10.0527
▁casino	-10.0527
▁expenditure	-10.0534
▁palace	-10.0544
▁contributions	-10.0558
▁faith	-10.0563
▁cleaning	-10.0567
▁bridge	-10.0572
▁repeat	-10.0583
▁privilege	-10.0588
▁dinner	-10.0599
▁heavy	-10.0604
▁1997	-10.0606
▁assets	-10.0615
▁lift	-10.0616
▁prove	-10.0617
▁consensus	-10.0619
▁reliable	-10.0627
▁aids	-10.063
▁arms	-10.0631
▁requested	-10.0635
▁wto	-10.064
▁democrats	-10.0643
▁transportation	-10.065
▁prepar	-10.0653
▁figure	-10.0655
▁0	-10.0666
▁valley	-10.0668
ities	-10.0676
▁35	-10.0679
▁acknowledge	-10.0688
▁targets	-10.0689
▁personally	-10.0697
▁participat	-10.07
▁interface	-10.0703
▁amnesty	-10.0705
▁organis	-10.073
▁improvements	-10.0749
▁renewable	-10.0763
▁solid	-10.0765
▁sides	-10.0765
▁attractions	-10.0766
▁tried	-10.077
▁involv	-10.077
▁king	-10.0778
▁steel	-10.078
▁helps	-10.0793
▁bay	-10.0795
▁houses	-10.0801
8	-10.0812
▁laid	-10.0812
▁kosovo	-10.0821
▁php	-10.0835
▁grow	-10.0836
▁examples	-10.0838
▁burden	-10.0839
▁lose	-10.0841
ist	-10.0851
▁college	-10.0852
▁faced	-10.0862
▁records	-10.0866
▁beside	-10.0877
▁colleague	-10.0884
▁meaning	-10.0897
▁ongoing	-10.0898
▁causes	-10.0901
▁suffering	-10.0905
▁ec	-10.0911
▁dishes	-10.0913
▁entertainment	-10.0919
▁involvement	-10.0922
▁won	-10.093
▁tasks	-10.093
▁rock	-10.0931
▁fit	-10.0937
▁substances	-10.094
▁grounds	-10.0943
▁holding	-10.0945
▁relate	-10.0947
▁strengthening	-10.0951
▁lounge	-10.0952
▁fitness	-10.0955
▁album	-10.0959
▁furniture	-10.096
ver	-10.0961
▁tackle	-10.0964
▁john	-10.0965
▁greek	-10.0969
▁chair	-10.0972
▁mountains	-10.0972
▁vast	-10.098
▁renovated	-10.0982
▁proceed	-10.0984
▁claims	-10.0988
▁savings	-10.0988
▁testing	-10.0989
▁slight	-10.0989
▁québec	-10.0995
▁japanese	-10.0995
j	-10.1006
▁relaxing	-10.1006
▁recognized	-10.1006
▁situations	-10.101
▁expectations	-10.1017
▁intellectual	-10.103
▁videos	-10.1046
▁customs	-10.1049
▁accurate	-10.1055
▁chief	-10.1059
▁belgium	-10.1073
▁signal	-10.1075
▁consequent	-10.1078
▁constantly	-10.1083
▁poland	-10.1087
▁edge	-10.1089
isation	-10.109
side	-10.1099
▁landscape	-10.1104
▁manual	-10.1108
▁resolve	-10.1108
▁fourth	-10.1116
▁islands	-10.1117
▁classic	-10.112
▁spaces	-10.1125
▁constant	-10.1127
▁prefer	-10.113
▁dvd	-10.1131
▁percent	-10.1134
▁restrictions	-10.1141
▁organized	-10.1143
▁volume	-10.1144
▁google	-10.115
▁modified	-10.1161
▁describe	-10.1163
▁obvious	-10.1165
▁primarily	-10.1171
▁exit	-10.1182
▁wo	-10.1183
▁flow	-10.1194
▁regret	-10.1216
▁conditioning	-10.1218
▁impressive	-10.1227
▁dining	-10.1235
▁delegation	-10.1235
▁recognize	-10.1249
▁continuous	-10.1253
▁operational	-10.1262
▁reply	-10.1269
land	-10.1276
te	-10.1277
▁opposite	-10.1287
▁plann	-10.1291
ton	-10.1295
▁arrangements	-10.1295
▁dream	-10.13
▁whil	-10.1304
ive	-10.1315
▁rail	-10.1315
▁journey	-10.1323
▁monday	-10.1327
▁di	-10.1331
▁trial	-10.1336
▁artist	-10.1338
▁chain	-10.1341
▁romania	-10.1343
▁biggest	-10.1357
▁friend	-10.1369
ma	-10.1371
▁configuration	-10.1381
▁mm	-10.1384
▁unlike	-10.139
▁preparation	-10.1402
▁meat	-10.1403
▁seat	-10.1414
@	-10.1419
ions	-10.142
▁bedrooms	-10.1425
▁speakers	-10.1428
▁consent	-10.1428
▁holidays	-10.1433
▁mistake	-10.1451
▁pl	-10.1453
▁machines	-10.1462
▁revenue	-10.1476
▁congress	-10.1476
▁wind	-10.1484
▁compensation	-10.1487
▁offices	-10.149
▁capable	-10.1502
▁mother	-10.1507
7	-10.1512
▁effectiveness	-10.1516
▁fees	-10.1544
▁hit	-10.1548
▁band	-10.1549
▁dutch	-10.1557
▁replace	-10.1563
▁messages	-10.1564
q	-10.1574
▁smaller	-10.1578
▁profile	-10.1582
▁valuable	-10.1584
▁weekend	-10.1584
▁decorated	-10.1587
▁engineering	-10.159
▁decades	-10.1594
▁returned	-10.1594
the	-10.16
▁flat	-10.1602
▁regularly	-10.1603
▁arrive	-10.1608
▁older	-10.161
▁bottom	-10.1612
▁hundreds	-10.1616
▁indicated	-10.1618
▁channel	-10.1621
▁mechanisms	-10.1623
▁stands	-10.1631
ous	-10.1632
▁talks	-10.1638
▁counter	-10.1641
▁theme	-10.1642
▁hostel	-10.1643
▁owner	-10.1651
▁settings	-10.1651
▁del	-10.166
▁beaches	-10.167
▁refugees	-10.1673
▁|	-10.1676
la	-10.1679
▁diseases	-10.1682
▁pact	-10.1683
▁netherlands	-10.1685
▁severe	-10.1686
▁army	-10.169
▁techniques	-10.1691
▁proof	-10.1694
▁carbon	-10.1706
▁metal	-10.1711
▁intention	-10.1717
▁eat	-10.1724
▁centres	-10.1737
▁fail	-10.1737
▁tower	-10.1739
▁mobility	-10.1744
▁sanctions	-10.1748
▁1996	-10.1753
▁ice	-10.1754
▁cheap	-10.1758
▁studio	-10.1759
▁destination	-10.1762
▁tip	-10.1764
▁existence	-10.1765
▁joined	-10.1766
▁czech	-10.1766
▁les	-10.1769
▁eligible	-10.1769
nd	-10.178
▁abroad	-10.1788
▁gdp	-10.1788
▁resulting	-10.1791
▁operators	-10.1816
▁finding	-10.1819
▁disaster	-10.182
▁leads	-10.1822
▁deserve	-10.1829
▁glad	-10.183
▁auto	-10.1834
▁combine	-10.1836
▁weather	-10.1838
▁paul	-10.1846
▁constructive	-10.1853
▁meters	-10.1876
▁pm	-10.1881
▁driver	-10.1892
▁standing	-10.1893
▁sunday	-10.1895
▁heat	-10.1897
▁turned	-10.1899
▁firms	-10.1901
▁confirmed	-10.1904
▁feed	-10.1907
▁fighting	-10.1912
▁fan	-10.1914
▁teaching	-10.1917
da	-10.1921
▁invite	-10.1921
▁afghanistan	-10.1921
▁temperature	-10.1928
▁chapter	-10.1932
am	-10.1937
▁luggage	-10.1953
▁binding	-10.1954
▁behaviour	-10.1961
▁eyes	-10.197
at	-10.1973
▁oral	-10.1979
▁significantly	-10.1986
▁sets	-10.1988
▁possibilities	-10.1994
reby	-10.1996
▁ottawa	-10.1996
▁1990	-10.1998
▁successfully	-10.1999
▁́	-10.2015
▁facility	-10.2016
▁bill	-10.2031
▁entered	-10.2036
▁apparent	-10.2046
▁gap	-10.2048
▁housing	-10.2048
▁requirement	-10.2052
▁happens	-10.2055
▁trees	-10.2066
▁assume	-10.2067
▁milk	-10.2068
▁pursue	-10.207
▁interior	-10.2074
▁leaving	-10.208
▁portugal	-10.2084
▁super	-10.2085
▁exists	-10.2093
▁secretary	-10.2096
▁et	-10.2104
▁noise	-10.2104
▁continent	-10.2114
▁definite	-10.2119
▁dealt	-10.2127
▁drink	-10.2133
▁removed	-10.2135
▁preserve	-10.2136
▁>	-10.2139
▁farm	-10.2139
rs	-10.215
▁websites	-10.2153
▁domain	-10.2159
rd	-10.2168
▁properties	-10.2174
▁corner	-10.2174
▁passengers	-10.2175
▁oecd	-10.2179
▁sum	-10.2181
▁attract	-10.2183
▁transition	-10.2244
▁voluntary	-10.2245
▁ip	-10.2245
▁45	-10.2247
▁frequently	-10.2258
▁organic	-10.2262
▁witness	-10.2266
▁automatic	-10.2267
▁•	-10.2271
▁marked	-10.2286
▁emerge	-10.2293
▁dark	-10.23
▁repeated	-10.23
▁sweden	-10.2317
▁planet	-10.2318
▁thorough	-10.2324
▁block	-10.2329
▁controll	-10.2331
▁discharge	-10.234
▁documentation	-10.2341
▁interpretation	-10.2342
▁examine	-10.2345
▁directory	-10.2345
▁speaker	-10.2351
▁cosy	-10.2352
▁functional	-10.2359
▁refuse	-10.2359
▁son	-10.2363
▁dead	-10.2366
▁publication	-10.2375
▁obstacle	-10.2375
▁worse	-10.2381
▁helped	-10.2382
▁compare	-10.2385
▁politicians	-10.2391
▁pointed	-10.2392
org	-10.24
▁onto	-10.2404
▁survey	-10.2411
▁output	-10.2412
▁handle	-10.2412
▁emerging	-10.2413
▁excessive	-10.2415
▁adults	-10.2423
▁superior	-10.2426
▁threaten	-10.2432
▁imagine	-10.2443
▁corporation	-10.2445
▁slow	-10.2446
▁crimes	-10.2448
▁boat	-10.2449
▁opposed	-10.2455
▁felt	-10.2457
▁showing	-10.2461
▁organise	-10.2464
▁wines	-10.2466
▁bedroom	-10.2473
▁blog	-10.2475
▁battle	-10.248
▁tests	-10.2489
▁secret	-10.2492
▁cup	-10.2493
▁latter	-10.2494
▁rent	-10.2495
▁named	-10.25
▁teams	-10.25
▁reserves	-10.2502
▁interview	-10.2503
et	-10.2505
▁units	-10.2517
▁decline	-10.2523
▁amenities	-10.2537
▁answers	-10.2538
by	-10.2543
▁teachers	-10.2552
▁maintained	-10.2561
▁edit	-10.2562
▁budgets	-10.2568
▁drawing	-10.2573
▁millions	-10.2576
▁cancer	-10.2581
▁migration	-10.2585
▁treaties	-10.2586
▁providers	-10.2587
▁transactions	-10.2588
▁thursday	-10.2596
▁finish	-10.2606
▁negotiate	-10.2608
▁updates	-10.261
▁trans	-10.2616
#	-10.263
▁instructions	-10.2633
▁maintaining	-10.2636
▁mix	-10.2641
▁hostels	-10.2645
▁stations	-10.265
▁musical	-10.2653
ie	-10.2654
▁ethnic	-10.2654
▁manufacturers	-10.2656
▁abuse	-10.2661
▁electricity	-10.2662
▁raw	-10.2663
▁label	-10.2664
▁maritime	-10.2668
▁obligation	-10.267
▁returns	-10.2679
▁versions	-10.268
▁geneva	-10.2683
▁moved	-10.2687
▁personnel	-10.2687
▁experiences	-10.2694
▁z	-10.2711
▁pollution	-10.2713
▁chairman	-10.2716
▁senior	-10.2719
▁visual	-10.2722
▁transform	-10.2724
▁moral	-10.2741
▁principal	-10.2746
▁happening	-10.2751
▁hospital	-10.2768
▁arab	-10.2777
▁expensive	-10.278
▁recommendation	-10.2784
▁banking	-10.2791
▁enforcement	-10.2802
▁declare	-10.2803
▁receiving	-10.2813
▁newspapers	-10.2815
▁vulner	-10.2827
▁lay	-10.283
▁gardens	-10.2831
▁eventual	-10.2832
▁mexico	-10.2862
ian	-10.2863
▁luxembourg	-10.2864
▁flash	-10.2869
▁contents	-10.2876
▁arise	-10.2881
▁insist	-10.2889
ever	-10.289
▁cutting	-10.2898
▁owners	-10.2899
▁religion	-10.2904
os	-10.2905
▁distributed	-10.2915
▁covers	-10.2916
▁component	-10.2918
▁1995	-10.2923
▁familiar	-10.2936
▁heads	-10.2941
▁manag	-10.2942
▁mount	-10.2945
▁korea	-10.295
▁corruption	-10.2959
ier	-10.296
▁saturday	-10.2962
▁minority	-10.2962
▁afternoon	-10.2973
▁departure	-10.2982
▁officer	-10.2984
▁streets	-10.2988
▁sugar	-10.2994
▁expansion	-10.2997
▁producing	-10.2999
▁willing	-10.2999
▁addresses	-10.3003
▁investors	-10.301
liability	-10.3011
▁drop	-10.3015
▁killed	-10.3016
▁stars	-10.3016
▁handling	-10.3017
▁signs	-10.3023
▁gone	-10.3024
▁twenty	-10.3039
way	-10.3055
▁winning	-10.3063
▁150	-10.3065
▁sit	-10.3069
▁penalty	-10.3071
▁magnificent	-10.3082
▁citizen	-10.3084
▁mac	-10.3086
▁dance	-10.3095
▁eliminate	-10.311
▁awarded	-10.3121
▁ones	-10.3125
▁discovered	-10.3136
▁elevator	-10.314
▁gallery	-10.3143
▁metro	-10.315
▁da	-10.3163
▁nato	-10.3169
▁assure	-10.3177
▁ship	-10.318
▁fao	-10.3183
ka	-10.3192
▁wonder	-10.3194
▁reservations	-10.3205
▁cool	-10.3205
▁shipping	-10.321
▁custom	-10.3212
▁characteristics	-10.3219
▁depth	-10.3226
▁log	-10.323
▁concentrate	-10.3231
▁contracts	-10.3233
▁proposes	-10.3233
▁wage	-10.3233
▁roma	-10.3234
▁chemical	-10.325
▁clause	-10.3252
▁wear	-10.3255
▁sample	-10.3258
▁invited	-10.3272
▁drivers	-10.3275
▁adapted	-10.3277
▁torture	-10.3281
▁exceed	-10.3283
▁transferr	-10.3284
▁globalisation	-10.3287
▁virus	-10.3289
▁careful	-10.3293
▁disk	-10.3301
▁lunch	-10.3302
▁judicial	-10.3303
▁coordinate	-10.3309
▁taxation	-10.3313
▁os	-10.3313
▁unesco	-10.3315
▁welfare	-10.332
▁birth	-10.332
▁observation	-10.3321
▁advantages	-10.3323
▁brazil	-10.3332
▁armed	-10.3334
▁32	-10.3343
de	-10.3359
▁balcony	-10.336
▁orders	-10.3361
▁serving	-10.3364
▁wild	-10.3367
▁boast	-10.3372
ro	-10.3376
://	-10.3379
▁none	-10.3385
ne	-10.3387
▁scheme	-10.3388
▁tea	-10.3392
▁mp	-10.3393
▁index	-10.3401
▁swedish	-10.3404
▁reporting	-10.3407
▁laundry	-10.3427
▁contrast	-10.3439
▁directives	-10.3447
▁toronto	-10.3449
▁mont	-10.3467
▁exploit	-10.347
▁pieces	-10.3481
▁elsewhere	-10.3493
▁criticism	-10.3494
▁characters	-10.3499
▁lawyer	-10.3504
▁cycle	-10.3507
▁stylish	-10.3511
▁prison	-10.3511
▁calm	-10.3514
▁quota	-10.3514
▁jesus	-10.3526
▁bright	-10.3534
▁mental	-10.3553
▁austria	-10.3561
▁capture	-10.3561
▁stakeholder	-10.3566
▁800	-10.357
▁incorporate	-10.3582
▁compatible	-10.3584
▁atlantic	-10.3594
▁provider	-10.3599
▁productivity	-10.3602
▁shares	-10.3602
▁ought	-10.3604
▁tree	-10.3606
▁radical	-10.3624
▁electric	-10.3624
▁terrorist	-10.3625
▁telecommunicat	-10.363
▁pretty	-10.3632
▁artistic	-10.3632
▁bars	-10.3636
▁colours	-10.3648
▁categories	-10.3652
▁ms	-10.3654
▁territorial	-10.3654
tergovernmental	-10.3655
▁legitimate	-10.3659
▁belgian	-10.3665
▁bilateral	-10.3665
▁pan	-10.3666
▁stronger	-10.3667
▁demonstrated	-10.3668
▁owned	-10.367
▁visiting	-10.3674
▁°	-10.3675
▁amazing	-10.3675
▁determination	-10.3676
▁certificate	-10.3681
▁appointment	-10.3683
▁extraordinar	-10.3686
▁candidates	-10.3686
▁exclusively	-10.3686
▁camp	-10.3686
▁conflicts	-10.3695
▁announce	-10.3699
▁massive	-10.3699
▁micro	-10.3701
▁toward	-10.3706
▁faster	-10.3706
▁pillar	-10.3708
▁grateful	-10.3715
▁objects	-10.3718
▁directors	-10.3719
▁permit	-10.3722
▁recorded	-10.3724
▁walls	-10.3729
▁baby	-10.3743
▁knows	-10.3745
▁bound	-10.3748
▁tend	-10.3775
▁stories	-10.3785
▁overcome	-10.3787
▁holy	-10.3793
▁mar	-10.3804
▁representation	-10.3808
▁duties	-10.3816
▁marine	-10.3828
▁miles	-10.3829
▁straight	-10.3842
▁pakistan	-10.3845
▁proportion	-10.3849
▁encouraging	-10.3865
▁pick	-10.3876
▁delete	-10.3885
▁trafficking	-10.3888
▁nine	-10.389
▁indian	-10.3894
▁classes	-10.3897
▁travellers	-10.3902
▁ro	-10.3903
▁tobacco	-10.3906
▁coverage	-10.3907
▁audit	-10.3908
▁motor	-10.3912
▁roman	-10.3913
▁forests	-10.3914
▁realise	-10.3914
▁liberalisation	-10.3915
▁delighted	-10.3929
▁cm	-10.3933
▁opt	-10.3935
▁meant	-10.3937
▁substance	-10.3938
▁skill	-10.3947
▁adjust	-10.3957
▁upper	-10.3957
▁channels	-10.3959
▁meps	-10.396
▁violations	-10.3967
▁boot	-10.3985
▁soil	-10.399
▁pdf	-10.3994
▁=	-10.4
▁finished	-10.4003
▁directed	-10.4005
▁abandon	-10.4006
▁comprise	-10.4006
▁stored	-10.4007
▁entrance	-10.4008
▁satisfaction	-10.4008
▁premium	-10.4011
▁upgrade	-10.4011
▁hence	-10.4017
▁sending	-10.4032
▁resistance	-10.4032
▁inflation	-10.4035
▁boost	-10.4038
▁smes	-10.4047
▁bush	-10.4048
▁barriers	-10.405
▁tickets	-10.4052
▁courts	-10.406
▁lessons	-10.4066
▁correctly	-10.4068
▁400	-10.4068
▁divided	-10.4072
▁selling	-10.4077
▁saving	-10.4078
▁doctor	-10.4079
▁respected	-10.4081
▁delicious	-10.4082
what	-10.4086
▁complement	-10.4087
▁hundred	-10.4088
▁modify	-10.409
▁tennis	-10.4093
▁diverse	-10.4097
▁exciting	-10.4106
▁dial	-10.4119
▁madrid	-10.4119
▁creates	-10.4123
▁luxurious	-10.4127
▁ocean	-10.4131
▁composition	-10.4138
▁anniversary	-10.4148
▁comparison	-10.4149
▁resolutions	-10.4151
▁amend	-10.4157
▁certified	-10.416
▁impression	-10.4161
▁absence	-10.4162
▁array	-10.4163
ex	-10.4165
▁shuttle	-10.4172
▁hardware	-10.4176
▁travelling	-10.4176
▁britain	-10.4183
▁patient	-10.4185
▁talent	-10.4186
▁visible	-10.4187
▁contribut	-10.4199
▁iron	-10.4203
▁opera	-10.421
▁relaxation	-10.4215
▁presents	-10.4225
▁turning	-10.4232
▁supplies	-10.4233
▁charm	-10.4248
▁surroundings	-10.4253
▁doors	-10.4255
▁socialist	-10.4257
il	-10.4269
▁settlement	-10.4282
▁referendum	-10.4296
age	-10.4299
ti	-10.43
▁meal	-10.4306
▁possib	-10.4309
▁notes	-10.4309
▁nonethe	-10.431
▁filter	-10.4315
▁accompani	-10.4318
▁info	-10.4322
▁honest	-10.4332
▁input	-10.4336
▁desjardins	-10.4337
▁frame	-10.4337
▁sad	-10.4337
▁immigrants	-10.4343
▁girls	-10.4347
▁bulgaria	-10.4359
▁follows	-10.436
▁inclusion	-10.4361
▁2011	-10.4363
▁struggle	-10.4369
▁sand	-10.4372
▁rare	-10.4375
▁researchers	-10.4381
▁inspired	-10.4386
▁statute	-10.4386
▁seeing	-10.4387
▁credibility	-10.4391
▁bio	-10.44
▁2020	-10.4401
▁sections	-10.4403
▁homes	-10.4408
▁decisive	-10.4419
▁usual	-10.4427
▁revolution	-10.4428
▁carrying	-10.4435
▁rising	-10.4439
▁trend	-10.4444
▁observe	-10.4448
▁realistic	-10.4453
▁judge	-10.4456
▁restore	-10.4457
▁interpret	-10.4471
▁employed	-10.4476
▁fantastic	-10.4482
▁supposed	-10.4483
▁licence	-10.4484
ese	-10.4486
ine	-10.4488
▁endorse	-10.4489
▁permitted	-10.449
▁subsidies	-10.449
▁errors	-10.4499
▁enabled	-10.45
▁runs	-10.4502
▁minorities	-10.4507
▁neighbourhood	-10.4512
▁intensive	-10.4515
▁centuries	-10.4518
▁rapporteurs	-10.4524
▁universities	-10.4527
▁connections	-10.4527
▁conservation	-10.4529
▁enhanc	-10.4529
▁cast	-10.4533
be	-10.4536
▁vat	-10.4536
▁cook	-10.4539
▁recover	-10.4573
▁egypt	-10.4573
▁suppliers	-10.4575
▁regardles	-10.4576
▁packaging	-10.4576
▁transmission	-10.4587
▁spoke	-10.4588
▁texts	-10.4588
▁warning	-10.4589
▁passenger	-10.4591
▁module	-10.4593
▁specializ	-10.46
▁agents	-10.46
▁societies	-10.4612
▁maybe	-10.4612
▁heading	-10.4614
▁certification	-10.4614
▁threats	-10.4616
time	-10.4619
▁coordinat	-10.462
▁spoken	-10.462
▁dispute	-10.4623
▁transaction	-10.4626
▁passion	-10.4631
▁pack	-10.4632
▁employee	-10.4634
▁cyprus	-10.4635
▁formula	-10.4638
▁choices	-10.4638
▁remained	-10.4642
▁manufacturer	-10.4642
▁magazine	-10.4643
▁cookies	-10.4644
▁evaluate	-10.4655
▁75	-10.4658
ordinary	-10.4669
▁argument	-10.4674
ley	-10.4687
▁visited	-10.4689
▁gets	-10.47
▁contest	-10.4704
no	-10.4713
▁spot	-10.4728
▁paying	-10.4731
▁portfolio	-10.4739
▁vary	-10.4747
▁farming	-10.4747
▁female	-10.4749
▁propos	-10.475
▁tours	-10.4751
▁suggestions	-10.4753
▁retail	-10.4755
▁starts	-10.476
▁belief	-10.4762
ty	-10.4766
▁residents	-10.4772
▁plenar	-10.4774
▁shift	-10.4775
▁profession	-10.4776
▁waters	-10.4778
me	-10.478
▁rely	-10.4786
▁expenses	-10.4787
▁accident	-10.4792
▁massage	-10.4792
▁equivalent	-10.4793
▁dollar	-10.4793
▁acting	-10.4793
▁y	-10.4797
▁percentage	-10.4799
▁deficit	-10.4803
▁miss	-10.4822
▁committees	-10.4822
▁locations	-10.4823
▁root	-10.4824
▁copenhagen	-10.4832
▁portuguese	-10.4832
▁resolved	-10.4834
▁celebration	-10.4835
▁exports	-10.4845
▁dependent	-10.4847
▁territories	-10.485
▁era	-10.4853
▁proceedings	-10.4854
▁flights	-10.4857
▁managers	-10.4862
▁communicate	-10.487
ised	-10.4871
▁died	-10.4873
▁welcomed	-10.4874
▁cell	-10.488
▁undertaken	-10.488
▁dignity	-10.4881
▁analyse	-10.489
▁hyper	-10.4893
▁fifth	-10.4901
▁acquire	-10.492
▁interactive	-10.4922
▁adult	-10.4924
▁dates	-10.4932
▁targeted	-10.4932
▁partial	-10.4933
▁polish	-10.4936
▁belarus	-10.4938
▁indoor	-10.4941
▁desktop	-10.4945
▁programming	-10.4947
▁refund	-10.4952
▁foster	-10.4953
▁audience	-10.4965
▁afford	-10.4966
▁1994	-10.4968
▁gay	-10.4975
ner	-10.4978
▁asset	-10.4979
▁permission	-10.4982
▁reputation	-10.4988
▁decade	-10.4988
▁ex	-10.4989
▁stores	-10.499
▁leaves	-10.4991
▁awards	-10.4992
▁debates	-10.5
▁labelling	-10.5002
▁convenience	-10.5002
▁suit	-10.5002
▁airlines	-10.5011
▁difficulty	-10.5014
▁raising	-10.5014
ter	-10.5017
▁sustainability	-10.5017
▁respective	-10.5019
▁song	-10.5024
▁wellness	-10.5029
▁satisfi	-10.5029
▁smooth	-10.5037
▁asian	-10.5037
▁unanimous	-10.504
▁destruction	-10.5055
▁agent	-10.5055
▁floors	-10.5059
▁ill	-10.506
▁anywhere	-10.5073
▁unto	-10.5075
▁filled	-10.5079
understood	-10.508
▁holds	-10.5082
▁officers	-10.5083
ba	-10.5084
▁exposure	-10.5093
▁examination	-10.5102
▁regulate	-10.5105
▁missing	-10.5111
▁supervision	-10.5116
▁snow	-10.5117
▁graphics	-10.512
▁48	-10.5122
▁subsidiarit	-10.5125
▁conferences	-10.514
do	-10.5141
▁euros	-10.5146
▁integrate	-10.5158
men	-10.5162
▁covering	-10.5171
▁votes	-10.5174
▁uniform	-10.5178
▁realize	-10.5178
▁welcoming	-10.5187
▁associations	-10.5189
▁employers	-10.5192
▁manufacture	-10.5193
▁exclusion	-10.5196
▁marks	-10.5201
▁journalists	-10.5203
▁plays	-10.5205
▁fulfil	-10.5207
▁thousand	-10.5215
▁repair	-10.5218
▁replaced	-10.5219
▁disabilities	-10.5219
▁scene	-10.5227
▁sought	-10.5227
ance	-10.5229
▁spectacular	-10.5237
▁eads	-10.524
▁undermine	-10.5242
▁residential	-10.527
▁feet	-10.5275
▁ecological	-10.5279
▁fans	-10.528
▁museums	-10.5286
▁condemn	-10.5295
▁explicit	-10.5306
▁adding	-10.5308
▁approve	-10.5315
▁trends	-10.5316
▁acp	-10.5318
▁football	-10.5322
▁corresponding	-10.5322
▁''	-10.5325
▁attached	-10.5325
▁holder	-10.5331
▁enabling	-10.5333
▁prosperity	-10.5333
▁appearance	-10.5334
▁films	-10.5334
▁auditors	-10.5341
▁deals	-10.5347
▁evolution	-10.5351
▁federation	-10.5351
▁decrease	-10.5354
▁fleet	-10.536
▁cooperate	-10.5366
▁proved	-10.5366
go	-10.5369
▁reserved	-10.5371
▁movie	-10.5384
▁schengen	-10.539
▁academic	-10.5397
▁toilet	-10.5404
▁monthly	-10.5412
▁conditioned	-10.5423
▁aviation	-10.5436
▁strasbourg	-10.5438
▁smart	-10.5439
▁shadow	-10.545
ur	-10.5451
▁specifi	-10.5451
▁switch	-10.5457
▁sleep	-10.5462
▁insert	-10.5463
▁identification	-10.5466
▁stuff	-10.5494
▁spiritual	-10.5496
▁pull	-10.551
▁....	-10.5511
▁celebrate	-10.5512
▁computers	-10.5532
ization	-10.5543
▁everywhere	-10.5551
▁arrived	-10.5554
20	-10.5563
io	-10.5565
▁periods	-10.5567
▁summary	-10.5573
▁islamic	-10.5577
▁lobby	-10.5581
▁die	-10.5593
▁discount	-10.5596
▁revision	-10.5602
▁everyday	-10.5607
▁formed	-10.561
▁min	-10.5616
ci	-10.5621
▁narrow	-10.5625
▁reaction	-10.5626
▁medicine	-10.5644
▁everybody	-10.5644
▁commerce	-10.5647
▁allocated	-10.5647
▁accommodate	-10.5649
▁kernel	-10.5649
▁desired	-10.5662
9	-10.5663
▁apple	-10.5665
▁clarify	-10.5665
▁peter	-10.567
▁wednesday	-10.5675
▁sheet	-10.5685
▁undoubted	-10.5687
▁excellence	-10.5688
ni	-10.5691
▁distinguish	-10.5702
▁plastic	-10.5705
▁rotary	-10.5706
▁keywords	-10.5707
▁contacts	-10.5707
▁complet	-10.5708
▁convert	-10.5709
▁lovely	-10.5714
▁traditions	-10.5714
▁layer	-10.5715
▁pilot	-10.5717
▁geographical	-10.5727
▁arguments	-10.5743
▁hospitality	-10.5758
▁steam	-10.5762
▁alcohol	-10.5764
▁ngos	-10.5775
▁keyword	-10.5777
▁freedoms	-10.5792
▁newly	-10.5799
▁bug	-10.5801
▁ombudsman	-10.5803
▁composed	-10.5804
▁branch	-10.5804
▁rang	-10.5807
▁suspect	-10.5812
▁renowned	-10.5814
▁attempts	-10.5819
▁necessari	-10.5828
▁approaches	-10.5837
▁remarks	-10.5839
▁progressive	-10.5844
▁meals	-10.5849
▁native	-10.585
▁catch	-10.5864
▁anonymous	-10.5866
▁ingredients	-10.5869
▁integrit	-10.5869
▁roll	-10.5882
▁servers	-10.5884
▁commit	-10.5891
▁confirmation	-10.5894
▁montréal	-10.5907
▁plenty	-10.5917
▁generations	-10.5918
▁wider	-10.5923
▁roads	-10.5925
▁react	-10.5925
▁inhabitants	-10.5928
▁authentic	-10.5935
▁sa	-10.5935
▁reveal	-10.5935
▁satisfy	-10.5938
▁belong	-10.5938
▁worst	-10.5942
▁hill	-10.5945
ana	-10.5947
▁publications	-10.595
▁proven	-10.5952
▁soviet	-10.5961
▁weak	-10.5965
▁unity	-10.5973
▁jurisdiction	-10.5983
▁competent	-10.5987
{	-10.599
▁ruling	-10.5997
▁partition	-10.5997
▁bonus	-10.5998
▁execution	-10.5999
▁complaints	-10.6001
▁applicant	-10.6003
▁accounting	-10.6008
▁mouth	-10.6025
▁prisoners	-10.6035
▁undertake	-10.6043
ac	-10.6048
▁investigate	-10.6048
▁murder	-10.6051
▁printing	-10.6051
▁accordingly	-10.6058
▁sessions	-10.6058
▁ma	-10.6059
ko	-10.606
▁string	-10.6072
▁superb	-10.6074
▁twice	-10.6077
10	-10.6088
▁david	-10.609
▁gentoo	-10.6091
▁argue	-10.6093
▁olympic	-10.6098
▁trips	-10.6103
ified	-10.6107
tic	-10.6109
▁philosophy	-10.6113
▁cf	-10.6118
▁imports	-10.612
▁amended	-10.6124
▁ports	-10.6131
▁occurred	-10.6139
▁detention	-10.6142
▁morocco	-10.6145
▁trained	-10.6146
▁sharp	-10.6149
pa	-10.6152
▁advise	-10.6163
▁deeply	-10.617
▁villages	-10.6178
▁orient	-10.6179
}	-10.6181
▁mostly	-10.6183
ge	-10.6185
▁harmonisation	-10.6188
▁calendar	-10.6191
▁widespread	-10.6194
▁cathedral	-10.6201
▁significanc	-10.6201
▁adventure	-10.6201
▁promise	-10.6206
▁modification	-10.6214
▁barroso	-10.622
▁exploitation	-10.6222
▁tested	-10.6226
▁acquisition	-10.623
▁underground	-10.623
▁complicated	-10.6235
▁tension	-10.6236
▁parallel	-10.6237
ad	-10.6237
▁stake	-10.624
▁evident	-10.6243
▁1992	-10.6247
▁ride	-10.6248
▁disadvantage	-10.6251
▁poker	-10.6251
▁aside	-10.6252
ri	-10.6261
▁ethical	-10.6267
▁operator	-10.6267
▁acceptance	-10.6268
▁consulting	-10.6272
▁underline	-10.6277
▁pop	-10.6283
▁baltic	-10.6293
▁stocks	-10.6295
▁romantic	-10.6297
▁wrot	-10.6302
▁featuring	-10.6303
▁specify	-10.6303
▁concentration	-10.6309
▁scientists	-10.631
li	-10.6329
▁bike	-10.6333
son	-10.6345
▁ease	-10.635
▁favorite	-10.6351
▁stick	-10.6359
▁250	-10.6362
▁harmful	-10.6382
▁golden	-10.6383
▁ok	-10.6385
▁differ	-10.6385
▁negotiating	-10.6386
▁relief	-10.6386
▁begins	-10.6388
▁pt	-10.639
za	-10.6391
▁soul	-10.6392
▁communist	-10.6393
▁indication	-10.6394
▁developers	-10.6401
▁newsletter	-10.6402
▁countryside	-10.6408
▁purchased	-10.6408
▁sky	-10.641
▁clubs	-10.6418
▁subjects	-10.642
▁lots	-10.6422
▁humanity	-10.6428
ling	-10.6429
▁informal	-10.6429
▁lie	-10.6433
▁explanation	-10.644
▁predict	-10.6457
▁harm	-10.6459
▁addressing	-10.6459
▁violent	-10.6459
▁disability	-10.646
▁sincere	-10.6463
▁ni	-10.6463
▁listening	-10.6465
▁martin	-10.647
▁plug	-10.647
▁hungarian	-10.6473
▁`	-10.6473
▁cultures	-10.6476
▁workshop	-10.6479
▁falls	-10.6494
▁losses	-10.6497
▁symbol	-10.6506
▁zero	-10.6508
▁costa	-10.6509
▁organize	-10.6524
▁earn	-10.6529
▁facts	-10.6531
▁circle	-10.6537
▁peoples	-10.654
▁aboriginal	-10.654
▁load	-10.6543
▁croatia	-10.6552
▁withdraw	-10.6556
▁javascript	-10.656
▁concert	-10.6561
▁forthcoming	-10.6564
au	-10.6582
▁implications	-10.6588
▁specification	-10.6589
▁roof	-10.6591
▁drinks	-10.6605
▁lists	-10.6613
▁com	-10.6628
▁healthcare	-10.6631
▁stages	-10.6638
▁portal	-10.6639
▁false	-10.6646
▁courage	-10.6652
▁clock	-10.6653
▁bi	-10.6662
▁pace	-10.6669
▁unfair	-10.667
gun	-10.6691
▁horse	-10.6692
▁internationally	-10.6692
▁assurance	-10.6705
▁adds	-10.6705
▁nobody	-10.6712
▁varied	-10.6712
▁unnecessar	-10.6714
▁transit	-10.6717
▁obama	-10.6721
▁escape	-10.6724
▁prestigious	-10.6725
▁expense	-10.6738
▁retirement	-10.6742
▁vacation	-10.6745
▁specialist	-10.6747
▁sounds	-10.675
▁ha	-10.676
▁loans	-10.676
▁reflection	-10.6761
▁fulfill	-10.6765
▁cuts	-10.6774
▁prospects	-10.678
▁trouble	-10.6783
▁tourists	-10.6789
▁sensibl	-10.6795
▁pursu	-10.6796
▁nights	-10.6797
▁authorized	-10.6801
ish	-10.6803
▁compact	-10.6806
▁minor	-10.6809
ini	-10.6809
▁colors	-10.6811
▁alter	-10.6817
▁strengthened	-10.6818
▁regulat	-10.6822
▁magic	-10.6824
ga	-10.6839
▁cancellation	-10.684
▁fat	-10.6841
▁receipt	-10.6843
▁factory	-10.6843
▁routes	-10.6849
▁silver	-10.685
▁announcement	-10.685
▁terminal	-10.6855
▁exemption	-10.6862
▁harbour	-10.6864
▁diplomatic	-10.6867
+	-10.6869
▁lived	-10.6877
▁victory	-10.6889
▁buying	-10.6894
▁vessels	-10.6899
▁greenhouse	-10.6899
▁hesitate	-10.6902
▁dryer	-10.6903
▁movements	-10.6905
▁tournament	-10.6906
▁typically	-10.6916
▁banquet	-10.6925
▁sight	-10.6926
ant	-10.693
▁seats	-10.6933
▁salt	-10.6935
▁hu	-10.6937
▁sorry	-10.6941
▁serbia	-10.6957
▁loan	-10.6957
▁inn	-10.6971
▁indicators	-10.6976
▁australia	-10.6978
▁compete	-10.6978
▁guidance	-10.6987
▁photocopying	-10.699
▁ye	-10.6991
▁script	-10.6994
▁reconstruction	-10.6994
▁revis	-10.7
▁ships	-10.7002
▁efficiently	-10.7004
▁dollars	-10.7016
▁showed	-10.7019
▁capabilities	-10.702
▁hidden	-10.7022
▁pacific	-10.7022
▁adjustment	-10.7024
▁360	-10.7025
▁combines	-10.7033
▁1993	-10.7044
▁lasting	-10.7052
▁hi	-10.7063
▁recipient	-10.7065
▁balkans	-10.7067
▁towns	-10.7067
▁producer	-10.7068
▁imf	-10.707
▁justifi	-10.7072
▁finland	-10.7072
▁ball	-10.7072
▁tab	-10.7072
▁copie	-10.7074
▁specialists	-10.7079
▁es	-10.7081
▁grown	-10.709
▁disasters	-10.7096
▁accessories	-10.7105
▁foods	-10.7111
▁wherea	-10.7112
▁highlights	-10.7118
▁diet	-10.7119
▁departments	-10.7126
▁eco	-10.7127
▁blend	-10.7128
▁val	-10.7128
▁restored	-10.713
▁partnerships	-10.7138
▁treatments	-10.7139
▁enforce	-10.7142
▁resulted	-10.7147
▁gradually	-10.7149
▁contextual	-10.7158
▁collapse	-10.7163
▁cooking	-10.7172
up	-10.7173
▁phenomenon	-10.718
▁fewer	-10.7196
▁illustrate	-10.7196
▁iii	-10.7211
▁england	-10.7212
▁empty	-10.7225
▁reliability	-10.7226
▁winner	-10.7228
▁restructuring	-10.723
▁removal	-10.7236
▁hire	-10.7239
lo	-10.7248
▁georgia	-10.7248
▁disappear	-10.7252
▁joining	-10.726
▁urgently	-10.7265
▁teacher	-10.7268
▁cheese	-10.7269
▁saved	-10.7269
▁believes	-10.7271
▁conservative	-10.7274
▁par	-10.7274
▁panoramic	-10.7278
▁gaza	-10.7281
▁1980	-10.7288
▁advisory	-10.7289
▁ppe	-10.7293
▁muslim	-10.7298
▁ownership	-10.73
▁ratification	-10.7303
▁36	-10.7305
▁café	-10.7307
▁sudan	-10.7315
▁conciliation	-10.7318
▁cells	-10.7324
▁generous	-10.7325
▁chocolate	-10.7326
▁stunning	-10.7328
▁chat	-10.7336
ol	-10.7341
▁pain	-10.7341
▁millennium	-10.7347
▁publish	-10.7349
ja	-10.7352
▁prompt	-10.7357
▁actors	-10.7357
▁devoted	-10.7357
▁fishermen	-10.7362
▁austrian	-10.7362
▁twin	-10.7362
▁tables	-10.7367
▁signature	-10.738
▁inadequate	-10.7384
▁replacement	-10.7385
▁electrical	-10.7386
▁33	-10.7389
▁wise	-10.739
▁sovereignty	-10.7395
▁secretariat	-10.7396
▁row	-10.7398
▁rose	-10.74
▁songs	-10.741
▁medieval	-10.7417
▁preferred	-10.7428
▁ecb	-10.743
▁equity	-10.7431
▁bathrooms	-10.7432
▁prague	-10.7436
▁accidents	-10.7436
▁simplify	-10.744
▁mixed	-10.7441
▁ended	-10.7445
▁municipal	-10.7448
▁iso	-10.7451
▁affordable	-10.7452
▁dublin	-10.7458
▁parameters	-10.7462
▁2013	-10.7466
▁occupation	-10.7466
▁remarkable	-10.7473
▁usb	-10.7477
▁strike	-10.7481
▁highway	-10.7484
▁recall	-10.7485
▁suppli	-10.7489
▁noon	-10.749
▁exposed	-10.7492
▁pharmaceutical	-10.7495
▁medicines	-10.7496
▁catalogue	-10.7499
▁multilateral	-10.7506
▁citizenship	-10.751
▁recording	-10.7511
▁employer	-10.7511
▁recognis	-10.7512
▁bag	-10.7512
▁experiment	-10.7513
▁acquir	-10.7519
ise	-10.7523
▁duration	-10.7525
▁promised	-10.7526
▁subscribe	-10.7526
▁soldiers	-10.7527
▁timetable	-10.7531
▁incorporat	-10.7533
▁tech	-10.7533
▁confidential	-10.7534
▁navigation	-10.7545
▁endeavour	-10.7551
ak	-10.7556
▁tips	-10.7557
▁cuba	-10.7558
▁victim	-10.7565
pi	-10.7565
▁protest	-10.7572
▁warrant	-10.758
▁reader	-10.7581
▁sphere	-10.7582
▁neighbouring	-10.7582
▁flag	-10.7587
▁incentives	-10.7604
▁imp	-10.7607
▁unforgettable	-10.7607
▁sophisticated	-10.7611
▁statistical	-10.7614
▁transfers	-10.7615
▁kids	-10.762
▁profits	-10.7624
▁scenario	-10.7638
www	-10.7642
▁considerably	-10.7642
▁rough	-10.7645
▁securities	-10.7649
▁logo	-10.7652
▁honor	-10.7653
▁yellow	-10.7654
▁compulsor	-10.7657
▁christmas	-10.7661
▁motorway	-10.7662
▁gained	-10.7664
▁presidential	-10.7664
▁declar	-10.7672
▁tuesday	-10.7683
▁deadline	-10.7689
▁vienna	-10.7691
▁governmental	-10.7696
▁icon	-10.7711
▁environmentally	-10.7711
▁administer	-10.7713
▁troops	-10.7714
▁completion	-10.7715
▁kilometres	-10.7717
▁preserv	-10.7721
▁supplier	-10.7724
▁postal	-10.7726
▁occupie	-10.7734
▁visits	-10.7743
▁desert	-10.7752
▁qualify	-10.7759
▁survive	-10.7759
▁santa	-10.7762
▁exact	-10.7767
▁verify	-10.7783
▁correspond	-10.7784
▁clinical	-10.7788
▁workshops	-10.7792
▁confront	-10.7797
▁boutique	-10.7798
▁ps	-10.78
▁quantity	-10.7802
▁passport	-10.7802
▁accompany	-10.7805
▁se	-10.7815
▁editor	-10.7816
▁broken	-10.7816
▁passing	-10.7822
▁shortly	-10.7825
▁underlying	-10.783
▁stream	-10.7836
▁measurement	-10.7838
ard	-10.784
▁productive	-10.7844
▁quote	-10.7847
▁gnu	-10.7848
▁churches	-10.7853
▁pierre	-10.7858
▁abolish	-10.7859
▁alleged	-10.787
▁allocation	-10.7876
▁intelligence	-10.7879
▁negotiation	-10.788
ize	-10.7882
▁thumbnail	-10.7882
mandatory	-10.7887
▁hungary	-10.7914
▁venice	-10.7916
▁engines	-10.7917
▁renewed	-10.7917
▁promises	-10.7921
▁coherent	-10.7929
▁variable	-10.7931
▁fly	-10.7933
▁optional	-10.7933
▁beef	-10.7934
▁letters	-10.7937
▁tough	-10.7948
▁dual	-10.7949
0	-10.795
▁male	-10.7951
▁li	-10.7952
▁avenue	-10.7952
line	-10.7953
▁excluded	-10.7953
▁wave	-10.7955
▁ecu	-10.7967
▁mouse	-10.7972
▁surveillance	-10.7976
▁referr	-10.7978
▁formats	-10.7982
▁cocktail	-10.7984
▁porn	-10.7989
▁na	-10.799
▁classical	-10.7994
▁wheel	-10.7998
ina	-10.8003
▁frequent	-10.8007
▁populations	-10.802
▁produces	-10.8024
▁concepts	-10.8039
▁jacuzzi	-10.8042
▁busy	-10.805
▁louis	-10.805
▁downtown	-10.8051
▁makers	-10.8051
ke	-10.8053
▁accountability	-10.8058
▁professor	-10.8059
▁suspended	-10.806
▁crises	-10.8062
▁intense	-10.8064
▁ring	-10.8064
▁plain	-10.8067
▁utmos	-10.8071
▁overview	-10.8078
▁grants	-10.8081
▁forecast	-10.8081
▁spite	-10.8084
▁nl	-10.809
▁feedback	-10.8094
▁girl	-10.8096
▁appropriations	-10.8098
▁abstain	-10.8102
▁gather	-10.8104
▁inquiry	-10.8106
▁34	-10.8112
▁pattern	-10.8131
▁marriage	-10.8137
▁convergence	-10.8137
▁weekly	-10.814
▁campaigns	-10.8145
▁designer	-10.8147
▁purchasing	-10.8153
▁tight	-10.8156
▁kit	-10.8161
▁robert	-10.8162
▁consequence	-10.8164
▁dog	-10.8164
▁cancel	-10.8166
▁rating	-10.8169
▁charles	-10.8177
▁split	-10.8178
▁neighbours	-10.8179
▁threshold	-10.8181
▁prayer	-10.8184
▁debat	-10.8184
▁closing	-10.8185
▁65	-10.8188
▁tropical	-10.8193
▁provinces	-10.82
▁electoral	-10.8201
▁dramatic	-10.8213
▁reinforce	-10.8213
▁writer	-10.822
▁admit	-10.8224
▁inspection	-10.8229
▁cancell	-10.8232
▁governor	-10.8236
▁wake	-10.8245
▁modules	-10.8245
▁individually	-10.8253
▁technique	-10.8257
▁procurement	-10.8257
▁hiking	-10.8257
▁recession	-10.8258
ists	-10.8261
▁rain	-10.8266
▁mad	-10.8268
▁plaza	-10.8273
▁liked	-10.8281
▁theory	-10.8282
▁estimates	-10.8285
▁configure	-10.8289
▁shot	-10.8289
▁splendid	-10.8289
▁ages	-10.8301
▁invitation	-10.8302
▁behavior	-10.8307
▁schemes	-10.8316
▁deem	-10.8318
▁portion	-10.8319
▁oppose	-10.8325
▁conversion	-10.8326
▁workplace	-10.8331
▁taxpayers	-10.8338
▁fortunate	-10.8342
▁pursuan	-10.8346
▁biodiversity	-10.835
▁600	-10.8356
▁operates	-10.8358
▁xbox	-10.8359
▁designs	-10.8361
▁releases	-10.8366
▁satisfactory	-10.8366
▁publishing	-10.8367
▁alert	-10.8367
▁prohibited	-10.8377
▁supreme	-10.8379
▁florence	-10.8379
▁weakness	-10.8385
▁sights	-10.8385
▁solar	-10.8386
ah	-10.8387
▁1991	-10.8387
▁examined	-10.8389
▁visitor	-10.8396
sen	-10.8397
▁kyoto	-10.8399
▁insufficient	-10.8403
▁patch	-10.8405
▁parent	-10.8421
▁choosing	-10.8423
▁creativity	-10.8423
▁usage	-10.843
▁archive	-10.8434
▁fell	-10.8437
im	-10.8449
▁hopeful	-10.8451
▁civilian	-10.8454
▁household	-10.8456
▁mine	-10.846
▁notably	-10.8467
▁trigger	-10.8469
▁strive	-10.8469
▁deaths	-10.8469
▁performing	-10.8472
▁42	-10.8473
▁ultra	-10.8475
while	-10.8475
▁bearing	-10.8477
▁conventional	-10.8477
▁logical	-10.8481
▁height	-10.8485
▁references	-10.8486
▁denmark	-10.8493
▁comfortably	-10.8498
▁arm	-10.8498
▁lock	-10.8499
▁airline	-10.85
ha	-10.8501
▁afra	-10.8512
con	-10.8514
▁tribunal	-10.8518
▁deploy	-10.8521
▁observ	-10.8525
▁evil	-10.8527
ship	-10.8543
▁kong	-10.8545
▁indigenous	-10.8551
▁urgency	-10.8551
▁hop	-10.8552
á	-10.8559
▁initiate	-10.8561
▁mining	-10.858
▁crew	-10.858
▁favourite	-10.8583
ir	-10.8586
▁wooden	-10.8588
▁à	-10.8597
▁studied	-10.8601
▁syria	-10.8603
▁heavi	-10.8605
que	-10.8609
▁premier	-10.8609
▁120	-10.8623
▁blind	-10.8624
▁disclose	-10.8628
▁ga	-10.8628
emost	-10.8631
▁violation	-10.8645
▁painting	-10.8648
▁movies	-10.8661
▁sony	-10.8664
ul	-10.8676
▁arising	-10.8681
▁55	-10.8686
▁chemicals	-10.8688
▁empire	-10.8689
▁vegetables	-10.869
▁adobe	-10.8691
▁danish	-10.8697
▁yield	-10.8702
ung	-10.8702
▁deny	-10.8707
▁wife	-10.8714
▁nt	-10.872
▁confident	-10.8722
▁newspaper	-10.8722
▁prince	-10.8728
▁broadcast	-10.8729
▁airports	-10.8734
▁sake	-10.8735
▁laboratory	-10.8735
▁warranty	-10.8742
▁swift	-10.8743
▁2.0	-10.8744
▁withdrawal	-10.875
▁poorest	-10.8753
▁orange	-10.8756
▁forgotten	-10.8762
▁suggests	-10.8764
ten	-10.8768
▁lesson	-10.8769
▁hosting	-10.8773
▁michael	-10.8773
▁flows	-10.8776
▁profound	-10.8777
▁believed	-10.8778
▁boats	-10.8781
▁catholic	-10.8782
▁preferences	-10.8783
▁blame	-10.8789
▁commissioners	-10.8795
▁folder	-10.8798
▁solv	-10.8799
▁roots	-10.8808
▁airbus	-10.8812
▁intervene	-10.8814
▁knew	-10.882
ate	-10.883
▁legitimacy	-10.8832
▁ri	-10.8836
▁merit	-10.8836
▁washington	-10.8837
▁pride	-10.8837
▁revealed	-10.884
▁queen	-10.8845
▁regrettabl	-10.8847
▁jazz	-10.8849
▁multimedia	-10.8854
▁founder	-10.8855
▁labor	-10.8855
▁hong	-10.8864
▁authors	-10.8868
▁intelligent	-10.8871
▁console	-10.8884
▁flood	-10.8886
▁clarity	-10.8892
▁sweet	-10.8893
▁emphasize	-10.8914
▁riding	-10.8916
▁olive	-10.8917
▁detect	-10.8918
▁losing	-10.8919
▁foundations	-10.892
▁beer	-10.8921
▁surplus	-10.8926
▁instant	-10.8927
▁annex	-10.8927
▁tracks	-10.8928
▁canon	-10.8944
▁ko	-10.8946
▁advisor	-10.8948
pe	-10.8949
stood	-10.8954
▁precaution	-10.8957
▁congratulation	-10.8958
hotel	-10.8959
▁1989	-10.8961
▁bought	-10.8962
▁drinking	-10.8964
▁league	-10.8965
▁prodi	-10.8966
▁transmitt	-10.8969
▁ironing	-10.8971
▁george	-10.8972
▁remov	-10.8994
▁semi	-10.8997
▁stimulate	-10.8997
▁eating	-10.9004
em	-10.9005
▁corporations	-10.9007
▁specially	-10.9008
▁headquarters	-10.9008
▁delays	-10.9011
▁discipline	-10.9017
▁accuracy	-10.9026
▁su	-10.903
▁beneficial	-10.9043
▁ver	-10.9047
▁continental	-10.9048
ou	-10.9053
▁margin	-10.9054
▁excess	-10.9056
▁arranged	-10.9059
▁pen	-10.9062
▁clothing	-10.9064
▁unusual	-10.9065
▁thermal	-10.9065
▁justify	-10.9067
▁cream	-10.9071
▁faces	-10.9074
▁hunger	-10.9079
▁revenues	-10.9081
▁sw	-10.9084
▁objection	-10.9089
ting	-10.9091
▁biological	-10.9095
|	-10.9095
▁architectural	-10.91
▁vis	-10.9103
▁blocks	-10.9104
▁ratio	-10.9108
▁hp	-10.9108
▁arrangement	-10.9112
▁battery	-10.9115
▁cooperative	-10.9122
▁disclosure	-10.9126
▁transitional	-10.9135
▁infringement	-10.9135
di	-10.9136
▁wing	-10.9142
▁html	-10.9145
▁complaint	-10.9145
▁brown	-10.9147
bo	-10.9149
▁ratifi	-10.9153
▁uncertainty	-10.9161
▁sovereign	-10.9165
▁silence	-10.9167
▁supervisor	-10.9168
▁lakes	-10.9178
▁packed	-10.9181
▁temple	-10.9183
▁stopped	-10.9192
▁fix	-10.9195
▁01	-10.9199
▁guy	-10.9202
▁38	-10.9205
▁tape	-10.9221
▁lighting	-10.9221
▁await	-10.9229
mo	-10.924
▁pet	-10.924
▁classification	-10.9242
▁parks	-10.9247
▁prospect	-10.9248
▁judgment	-10.9255
▁coalition	-10.9259
▁ceiling	-10.9259
▁subscription	-10.9264
▁arbitrar	-10.9267
▁discovery	-10.9269
▁resident	-10.9273
▁iranian	-10.9278
▁maps	-10.9284
▁gross	-10.9284
▁coal	-10.9287
▁infection	-10.9296
▁po	-10.9297
▁undertaking	-10.93
▁rice	-10.9302
▁defeat	-10.9303
▁refin	-10.9305
▁bell	-10.9305
ck	-10.9318
▁ft	-10.9319
▁tragic	-10.9319
▁dialog	-10.9321
▁mysql	-10.9332
▁extract	-10.9333
▁guard	-10.9334
▁1.5	-10.9335
den	-10.9335
▁demographic	-10.9344
▁keyboard	-10.9345
▁keys	-10.9346
▁95	-10.9346
ile	-10.9348
▁backup	-10.9348
▁frequency	-10.9352
▁translate	-10.9361
▁alternatives	-10.9361
▁terrible	-10.9361
▁crown	-10.9361
▁economically	-10.9374
▁conventions	-10.9383
af	-10.9384
▁precious	-10.9388
▁illness	-10.939
led	-10.9392
▁criterion	-10.9393
▁mb	-10.9394
▁graphic	-10.9395
ron	-10.94
▁outline	-10.9404
▁rigorous	-10.9411
▁eurozone	-10.9415
▁tim	-10.9416
▁sciences	-10.9421
▁findings	-10.9423
▁opens	-10.9424
▁whatsoever	-10.9425
▁bread	-10.9431
▁breach	-10.9434
▁zimbabwe	-10.9436
▁intentions	-10.9436
▁unknown	-10.9438
▁designat	-10.9438
▁compile	-10.944
▁hosted	-10.9453
▁throw	-10.9453
▁formation	-10.9455
▁integral	-10.946
▁civilians	-10.9462
▁michel	-10.9462
▁picturesque	-10.947
▁staying	-10.9472
▁nowaday	-10.9474
▁patterns	-10.9477
▁motivate	-10.9479
▁admitted	-10.9488
▁forestry	-10.949
▁falling	-10.9491
▁cease	-10.9492
▁checks	-10.9494
▁opponent	-10.9497
▁harmony	-10.9501
▁palestinians	-10.9504
▁advocate	-10.9507
▁mirror	-10.9507
▁preliminar	-10.951
▁ordered	-10.9513
▁adverse	-10.952
▁indirect	-10.9524
▁pricing	-10.9524
▁hd	-10.9526
▁signing	-10.9531
▁bosnia	-10.9531
▁spare	-10.9531
▁interim	-10.9534
▁supplementary	-10.9536
▁assigned	-10.954
▁bicycle	-10.9546
▁competitors	-10.9547
▁ignore	-10.9549
▁garage	-10.9558
▁taxi	-10.9559
ler	-10.956
▁sacrifice	-10.956
▁inclusive	-10.9573
▁discretion	-10.9579
▁url	-10.958
▁lowest	-10.958
▁optimal	-10.9584
▁lebanon	-10.9589
▁java	-10.959
▁37	-10.9596
▁volunteers	-10.9599
▁alarm	-10.96
▁column	-10.9603
▁wifi	-10.9612
▁crops	-10.9614
▁adaptation	-10.9614
▁1970	-10.9617
▁genetic	-10.9619
ki	-10.9628
▁tragedy	-10.963
$	-10.9631
▁entail	-10.9634
▁trace	-10.9636
fa	-10.9642
▁experiencing	-10.9643
▁strange	-10.9648
▁translated	-10.9649
▁palm	-10.9652
▁themes	-10.9661
▁racism	-10.9667
▁papers	-10.9667
▁gathering	-10.9667
▁faithful	-10.9671
▁reproduction	-10.9671
▁knowing	-10.9675
▁distribute	-10.9675
▁max	-10.9675
▁chose	-10.9676
▁till	-10.9679
▁brain	-10.968
▁cinema	-10.9682
▁broadcasting	-10.9682
▁arena	-10.9691
▁puts	-10.9696
▁pressing	-10.9706
▁qualifications	-10.9707
lin	-10.9707
ut	-10.9708
▁ecosystem	-10.9708
▁activate	-10.9709
ez	-10.9712
▁accessibility	-10.9714
▁defense	-10.9718
▁taiwan	-10.9718
▁seminars	-10.973
op	-10.9732
▁fifteen	-10.9732
▁commend	-10.9741
▁convey	-10.9744
▁hills	-10.9747
▁ltd	-10.9754
▁reiterate	-10.9755
▁democrat	-10.9755
▁kg	-10.9758
▁manufactured	-10.9762
▁sur	-10.9766
▁mailing	-10.9768
▁screening	-10.9776
▁punish	-10.9778
▁tonnes	-10.9781
▁protein	-10.9788
▁tunisia	-10.9791
▁denied	-10.9792
▁soundproof	-10.9793
▁reward	-10.9794
▁worry	-10.9797
▁affiliate	-10.9799
mar	-10.9805
▁gulf	-10.9807
un	-10.9814
▁tribute	-10.9821
▁codecision	-10.9825
▁mechanical	-10.9825
▁2012	-10.9825
▁craft	-10.9826
▁venture	-10.9833
▁renewal	-10.9836
▁autumn	-10.9839
▁milan	-10.984
▁penalties	-10.9844
▁canal	-10.9845
▁segment	-10.9848
▁hectare	-10.9849
▁arrange	-10.985
▁graduate	-10.9864
▁constraint	-10.9866
▁echo	-10.9866
▁heated	-10.9866
▁brother	-10.9867
▁transformation	-10.9872
▁congo	-10.988
▁joy	-10.9882
▁trailer	-10.9883
▁measur	-10.9884
▁continual	-10.9884
▁logic	-10.9885
▁racing	-10.9887
▁burn	-10.989
▁wikitravel	-10.9896
▁necessity	-10.9901
▁flying	-10.9902
▁focuse	-10.9904
▁rescue	-10.9904
▁praise	-10.9905
▁assured	-10.9913
▁multinational	-10.992
▁skype	-10.992
▁iv	-10.9924
▁worrying	-10.9925
▁wii	-10.993
▁artificial	-10.9934
▁collections	-10.9935
▁alike	-10.9935
▁incentive	-10.9943
▁textile	-10.9949
▁00	-10.995
▁distinction	-10.9953
▁financed	-10.996
▁ends	-10.996
30	-10.9963
▁linguistic	-10.9964
▁setup	-10.9968
ted	-10.9971
▁incredible	-10.9977
▁greens	-10.9985
▁keen	-10.9988
▁thirty	-10.9996
ot	-11.0004
▁upcom	-11.0005
▁moscow	-11.0006
▁hopes	-11.0006
▁wash	-11.0016
▁refus	-11.0017
▁stretch	-11.0018
▁retailer	-11.0021
▁flowers	-11.0022
▁dozen	-11.003
▁demo	-11.0034
▁rear	-11.0034
▁invites	-11.0034
▁scan	-11.0034
▁executed	-11.0036
▁trademarks	-11.0039
▁delicate	-11.0039
▁circuit	-11.004
▁supplement	-11.004
▁catering	-11.0041
▁closure	-11.0044
▁guitar	-11.0045
▁islam	-11.0046
▁au	-11.0047
▁failing	-11.0062
▁moves	-11.0069
▁chef	-11.0071
▁essence	-11.0073
▁dimensions	-11.0074
▁absorb	-11.0077
▁lets	-11.0082
▁boards	-11.0088
▁shock	-11.0091
▁photographer	-11.0092
▁earned	-11.0096
▁birds	-11.0098
▁composer	-11.0098
▁02	-11.0104
▁explorer	-11.0108
▁paint	-11.0109
▁accus	-11.0112
▁accord	-11.0113
▁demonstration	-11.0119
ville	-11.0121
▁layout	-11.0121
▁eliminat	-11.0123
▁reverse	-11.0125
▁proximity	-11.0126
▁consistently	-11.0127
▁consolidate	-11.0129
▁rom	-11.013
▁fabric	-11.0135
▁sin	-11.0135
▁blow	-11.0145
▁liquid	-11.0148
▁intimate	-11.015
▁mortgage	-11.0153
▁notification	-11.0154
▁score	-11.0156
ola	-11.016
art	-11.016
▁academy	-11.0165
▁likewise	-11.0177
▁challenging	-11.0179
▁simultaneously	-11.0181
▁inspiration	-11.0189
▁oblig	-11.0189
▁cat	-11.0191
▁iphone	-11.0192
▁finest	-11.0193
▁heaven	-11.0199
▁requir	-11.0209
▁mon	-11.0209
▁libraries	-11.0209
▁wars	-11.0215
▁orientation	-11.0216
▁junior	-11.0219
▁destinations	-11.0225
▁adhere	-11.0227
▁sv	-11.0227
▁photographs	-11.0228
▁skiing	-11.0233
▁monuments	-11.024
▁bigger	-11.0244
va	-11.0245
if	-11.0249
▁th	-11.0252
.1	-11.0253
terinstitutional	-11.0258
▁jewish	-11.0263
▁kill	-11.0265
▁voter	-11.0269
▁guides	-11.0275
▁encounter	-11.0276
▁routine	-11.0287
▁brothers	-11.0288
▁attach	-11.0289
▁vista	-11.0292
▁utility	-11.0297
▁anyway	-11.03
▁moderate	-11.0302
▁husband	-11.0302
▁buses	-11.0303
▁ambition	-11.0313
▁piano	-11.0313
▁opennes	-11.0315
▁animation	-11.0317
▁returning	-11.0319
credible	-11.0329
▁pensions	-11.0334
▁prevail	-11.0334
▁determin	-11.0336
▁downloaded	-11.0337
▁slowly	-11.034
▁horizontal	-11.0347
▁wc	-11.0347
▁guilt	-11.0351
▁gathered	-11.0353
▁ce	-11.036
▁refugee	-11.0363
▁applicants	-11.0367
▁killing	-11.037
▁64	-11.0372
▁symptoms	-11.0373
▁characteristic	-11.0374
▁suited	-11.0374
▁warn	-11.0378
▁44	-11.0378
00	-11.0378
▁photography	-11.0384
▁nova	-11.0386
▁weaken	-11.0387
▁acid	-11.0391
▁survival	-11.0391
ino	-11.0392
▁carrier	-11.0394
▁provence	-11.0399
▁decent	-11.04
▁certainty	-11.0406
▁engagement	-11.0413
▁observers	-11.0414
▁recruit	-11.0416
▁1000	-11.0418
▁brands	-11.0426
▁entity	-11.0426
ger	-11.0427
▁marina	-11.0431
▁lodge	-11.0431
ee	-11.0436
sis	-11.0439
▁usd	-11.0441
▁transatlantic	-11.0441
50	-11.0442
▁seasonal	-11.0444
▁correction	-11.0447
▁gym	-11.0456
▁disputes	-11.0458
▁grade	-11.0461
▁globe	-11.0462
▁tri	-11.0464
▁doubts	-11.0464
▁spam	-11.0464
▁turns	-11.0466
▁seconds	-11.0466
▁volunteer	-11.0473
▁ch	-11.0477
▁sustained	-11.0484
▁zones	-11.0493
▁speeche	-11.0495
40	-11.0498
▁grave	-11.0499
▁championship	-11.0501
▁ibm	-11.0507
▁medication	-11.0511
▁watching	-11.0527
▁restoration	-11.0532
mann	-11.0554
▁elderly	-11.0555
)	-11.0557
▁spectrum	-11.0557
▁fitted	-11.0557
▁farms	-11.0568
functionality	-11.057
▁fails	-11.0572
▁winners	-11.0581
tel	-11.0587
▁engineers	-11.0587
▁preparations	-11.0589
▁warming	-11.0589
▁annually	-11.059
▁outlook	-11.0593
▁crossing	-11.0597
▁advised	-11.0608
▁dear	-11.0612
▁diving	-11.0617
▁simplifie	-11.0618
▁james	-11.0621
▁tone	-11.0625
▁doctors	-11.0637
▁teach	-11.0638
▁seminar	-11.0648
▁patents	-11.0649
▁juice	-11.0653
▁lo	-11.0655
▁smoke	-11.0657
▁taugh	-11.0665
iness	-11.0667
▁hostelsclub	-11.0669
▁pays	-11.0673
▁workforce	-11.0675
▁donors	-11.0676
▁inner	-11.0678
mi	-11.0679
▁hairdryer	-11.0689
▁consultations	-11.069
▁lovers	-11.069
ily	-11.0701
▁damages	-11.0709
▁sat	-11.0709
▁therapy	-11.0712
▁bond	-11.0716
▁finnish	-11.072
▁entities	-11.072
▁condemned	-11.0721
▁finances	-11.0723
▁ending	-11.0725
▁detained	-11.0728
one	-11.0734
▁nutrition	-11.0738
▁allowance	-11.075
▁elegance	-11.0751
nes	-11.0756
▁rational	-11.0769
▁bse	-11.0769
▁caribbean	-11.0772
▁alive	-11.0775
▁conscience	-11.0777
▁pin	-11.0777
▁sustain	-11.0784
▁fate	-11.0787
▁prevented	-11.0787
▁occasional	-11.0788
caught	-11.0789
▁placing	-11.0792
▁gains	-11.0793
▁deliberate	-11.0793
▁defining	-11.0795
▁archives	-11.0801
▁emotion	-11.0801
▁christians	-11.0805
▁attain	-11.0818
wa	-11.0818
▁solarium	-11.0818
▁neo	-11.0822
▁sp	-11.0828
▁keeps	-11.083
▁authorisation	-11.083
▁precision	-11.0834
▁permits	-11.0835
▁distinct	-11.0837
▁peak	-11.0839
▁rue	-11.0848
▁perspectives	-11.085
▁bottle	-11.0851
▁mary	-11.0854
▁universe	-11.0855
▁specialize	-11.0862
▁variation	-11.0865
▁converted	-11.0867
▁exempt	-11.0867
▁mill	-11.0875
▁enrich	-11.0875
▁wire	-11.088
▁delivering	-11.0883
▁surprising	-11.0888
▁burma	-11.0892
▁oh	-11.0894
90	-11.0894
▁recycling	-11.0896
▁sixth	-11.0898
▁incident	-11.0898
▁paintings	-11.0899
▁gb	-11.0899
▁clarification	-11.0902
▁installing	-11.0906
▁maria	-11.0909
▁strip	-11.0909
▁socialists	-11.0911
▁hide	-11.0912
▁render	-11.0913
▁fruits	-11.0916
▁airconditioning	-11.0917
▁hole	-11.0925
▁sunny	-11.0928
▁geo	-11.0929
▁installations	-11.0944
▁culinar	-11.0954
▁performances	-11.0958
▁fed	-11.0962
▁stroll	-11.0962
▁thin	-11.0964
▁literature	-11.097
▁socio	-11.097
▁tolerance	-11.0975
▁trail	-11.0976
▁bureaucracy	-11.0976
ho	-11.0977
▁suggestion	-11.0978
▁decoration	-11.0979
▁relaxed	-11.0985
▁petitions	-11.0987
▁insight	-11.1001
▁columbia	-11.1007
hi	-11.1007
▁ceremon	-11.1008
▁coordinator	-11.101
▁developer	-11.101
▁trials	-11.1017
▁legend	-11.102
▁inventory	-11.1022
▁pa	-11.1023
▁lifestyle	-11.1027
▁degrees	-11.103
▁calculate	-11.1031
ya	-11.1035
▁premises	-11.1036
▁boxes	-11.1045
▁authorization	-11.1045
▁dating	-11.1046
▁centers	-11.1047
▁clothes	-11.1047
▁twelve	-11.1049
▁minimal	-11.1053
▁reconciliation	-11.106
▁unlimited	-11.106
▁slovakia	-11.106
▁freight	-11.1061
▁guys	-11.1066
▁complexity	-11.1067
▁hamas	-11.1076
ber	-11.1083
▁harvest	-11.1093
▁beat	-11.1095
▁ads	-11.1095
▁forth	-11.1096
▁unilateral	-11.1097
▁sequence	-11.11
▁stance	-11.11
▁bonds	-11.11
▁ram	-11.1108
▁vertical	-11.1109
▁administrator	-11.1113
▁colonial	-11.1113
▁constructed	-11.1115
▁dictatorship	-11.1119
▁nigeria	-11.1119
▁specialities	-11.1121
▁posts	-11.1122
▁shortcoming	-11.1124
▁imposing	-11.1129
▁europol	-11.1131
▁exclude	-11.1136
▁shareholders	-11.1138
▁downloading	-11.1142
▁gran	-11.1143
▁complain	-11.1146
▁trademark	-11.1147
▁purchases	-11.115
▁belongs	-11.1154
▁owe	-11.1155
▁marie	-11.1156
▁leather	-11.116
▁bold	-11.117
▁exploring	-11.1178
▁migrants	-11.1182
▁tracking	-11.1187
▁generic	-11.1205
▁gate	-11.1209
▁notion	-11.121
▁ilo	-11.1211
▁systematic	-11.1212
▁treasure	-11.122
▁disc	-11.1248
▁nikon	-11.1249
▁anticipate	-11.1249
▁chairs	-11.1259
▁scotland	-11.1264
▁sam	-11.127
▁desirable	-11.127
▁isolated	-11.127
▁cameras	-11.1272
▁claimed	-11.1275
▁outlet	-11.1276
▁disorder	-11.1281
▁login	-11.1294
and	-11.1301
▁kirk	-11.1304
▁korean	-11.1305
▁allah	-11.1306
▁aged	-11.1307
▁ignored	-11.1311
▁chart	-11.1314
▁separately	-11.1318
▁sensitivit	-11.133
▁emission	-11.1333
▁celebrated	-11.1334
▁handled	-11.1335
▁iraqi	-11.1335
▁06	-11.1336
▁tremendous	-11.1341
▁machinery	-11.1343
▁evolv	-11.1343
ek	-11.1344
▁activists	-11.1345
▁injur	-11.1347
▁dealer	-11.1348
out	-11.1352
▁platforms	-11.1355
we	-11.1355
▁disappointed	-11.1357
▁employ	-11.1361
▁crash	-11.1365
▁judges	-11.1366
▁parameter	-11.1367
▁indonesia	-11.1368
per	-11.137
▁engineer	-11.1373
▁fallen	-11.1374
▁submission	-11.1383
▁deputy	-11.1384
▁vip	-11.1386
▁directions	-11.139
▁confusion	-11.1395
▁toxic	-11.1396
▁calculat	-11.14
▁ag	-11.1401
▁appreciation	-11.1407
▁deficits	-11.1407
▁exhibitions	-11.1407
▁sailing	-11.141
▁robust	-11.141
▁antique	-11.1413
▁missions	-11.1419
▁moon	-11.1423
▁structured	-11.1423
hr	-11.1426
ative	-11.1426
▁unprecedented	-11.1428
▁lyon	-11.1429
▁cra	-11.1433
▁charity	-11.1435
▁translator	-11.144
mer	-11.1442
▁venue	-11.1443
▁tunnel	-11.1446
▁cycling	-11.1451
▁lithuania	-11.1451
▁shell	-11.1456
▁camps	-11.1456
▁maastricht	-11.1456
▁breaking	-11.1462
▁automobile	-11.1462
he	-11.1465
▁respectively	-11.1465
▁abuses	-11.1467
▁prominent	-11.1467
▁distributors	-11.1469
▁founding	-11.1471
▁dell	-11.1473
▁comparable	-11.1473
fi	-11.1474
▁initiat	-11.1475
▁derived	-11.1482
▁helicopter	-11.1484
▁leg	-11.1487
▁concerts	-11.149
▁lcd	-11.1492
▁ceo	-11.1497
▁excuse	-11.1501
▁wording	-11.1502
▁terrorists	-11.1506
▁fears	-11.1509
▁unemployed	-11.1512
▁undertakings	-11.1515
berg	-11.1521
▁fuels	-11.1523
▁belonging	-11.1524
pm	-11.1525
▁autonomy	-11.1528
▁consolidat	-11.1529
▁ge	-11.1534
▁champion	-11.1535
▁captain	-11.154
▁possess	-11.154
©	-11.1545
▁limitations	-11.1546
▁browse	-11.1549
▁burning	-11.1551
ru	-11.1555
▁buyer	-11.1557
▁lacking	-11.156
long	-11.156
▁côte	-11.1562
▁gear	-11.1565
▁designate	-11.1566
▁storm	-11.1567
▁journal	-11.1574
▁complimentar	-11.1574
ang	-11.1581
▁dust	-11.1586
▁preservation	-11.1591
▁gaming	-11.1595
▁monitored	-11.1608
▁neutral	-11.1613
liable	-11.1614
▁dis	-11.1617
▁sheets	-11.1617
▁titles	-11.1624
▁centrally	-11.1624
atory	-11.1627
▁automat	-11.1629
▁drafting	-11.1635
▁los	-11.1637
▁searching	-11.1638
▁mal	-11.1641
70	-11.1643
▁cope	-11.1652
▁beijing	-11.1652
ought	-11.1653
▁codes	-11.1654
▁72	-11.1655
▁shoe	-11.1655
▁vietnam	-11.1657
▁camping	-11.166
▁paradise	-11.166
▁pump	-11.1667
▁frank	-11.1673
▁infected	-11.1673
▁fascinating	-11.1674
▁palestine	-11.1674
▁2.5	-11.1676
▁85	-11.1679
▁coach	-11.168
▁marble	-11.168
▁minibar	-11.1681
▁measured	-11.1681
▁modest	-11.1682
▁vancouver	-11.1686
▁tangible	-11.1691
▁printer	-11.1694
▁brutal	-11.1696
▁portable	-11.1697
▁avoided	-11.1703
▁environments	-11.1718
▁elite	-11.1723
▁musicians	-11.1729
▁crystal	-11.1733
▁plate	-11.1736
ria	-11.174
▁lease	-11.175
▁prohibit	-11.1751
▁consistenc	-11.1754
▁enemy	-11.1754
▁sofa	-11.1756
▁worker	-11.1758
▁mo	-11.1759
▁quantiti	-11.1761
▁punishment	-11.1766
▁disagree	-11.177
▁argentina	-11.1777
chi	-11.1782
▁consum	-11.1783
▁notify	-11.1785
▁classified	-11.1786
▁shine	-11.1789
▁dental	-11.1795
▁forums	-11.1796
▁designers	-11.1798
▁explanations	-11.1798
▁putin	-11.1799
▁stat	-11.18
▁jacques	-11.1804
▁beings	-11.1807
stantly	-11.1811
▁aggressive	-11.1811
ov	-11.1816
▁ho	-11.1819
car	-11.182
▁bid	-11.1823
▁barrier	-11.1824
▁mineral	-11.1826
▁sir	-11.1827
▁orchestra	-11.1829
▁arriving	-11.184
▁conjunction	-11.1846
▁carries	-11.1853
▁43	-11.1854
▁globalization	-11.1856
▁controversial	-11.1858
▁evaluat	-11.1861
▁implie	-11.1863
▁safely	-11.1864
▁rss	-11.1864
▁39	-11.1867
ite	-11.1867
▁den	-11.1872
▁yugoslavia	-11.1874
▁saudi	-11.1881
▁xp	-11.1886
▁exert	-11.1892
▁interaction	-11.1895
▁resist	-11.1895
▁distortion	-11.1896
▁telling	-11.1901
▁separated	-11.1906
▁actor	-11.1906
▁xml	-11.1907
▁tailored	-11.1913
▁emu	-11.1917
▁exhibit	-11.192
▁incorrect	-11.1921
▁banned	-11.1921
▁filling	-11.1921
gen	-11.1927
bar	-11.193
▁reproductive	-11.1932
▁simplification	-11.1938
▁recruitment	-11.1939
▁ratify	-11.1944
ence	-11.1954
▁conviction	-11.196
▁earthquake	-11.1967
▁consolidation	-11.1969
▁romanian	-11.1972
.2	-11.198
ó	-11.1981
▁il	-11.1987
▁handed	-11.1987
pro	-11.199
▁merger	-11.1992
▁stockholm	-11.1996
▁foresee	-11.1998
▁striking	-11.2002
▁suspension	-11.2002
▁unstable	-11.2002
▁silent	-11.2002
▁hosts	-11.2004
▁baggage	-11.2014
▁justification	-11.2021
ai	-11.2022
▁eggs	-11.2024
▁ka	-11.2033
▁arc	-11.2036
▁admire	-11.2037
▁breeding	-11.2039
▁studios	-11.2039
▁entries	-11.2043
board	-11.2045
▁conditional	-11.2045
▁subsidiary	-11.2049
▁rio	-11.205
▁03	-11.2051
▁herself	-11.2054
mp	-11.2055
▁undergo	-11.206
vi	-11.206
▁declarations	-11.2062
▁tag	-11.207
▁specifie	-11.207
▁attentive	-11.2073
▁imperative	-11.2073
▁jerusalem	-11.2073
▁random	-11.2081
▁paths	-11.2084
▁injury	-11.2091
▁brush	-11.2099
▁dumping	-11.2099
▁41	-11.2099
▁demonstrations	-11.21
▁spell	-11.21
wood	-11.2101
▁surveys	-11.2102
▁bureaucratic	-11.2103
▁roles	-11.2105
60	-11.2106
▁benchmark	-11.2114
back	-11.2119
▁counsel	-11.2119
▁pocket	-11.2121
▁haiti	-11.2124
▁suddenly	-11.2126
▁nord	-11.2127
po	-11.213
▁tune	-11.2132
▁chi	-11.2136
▁seller	-11.214
▁macro	-11.2145
▁vocational	-11.2151
▁assistant	-11.2164
▁divide	-11.2168
▁interventions	-11.2169
ran	-11.217
▁gases	-11.2171
▁pair	-11.2173
▁outbreak	-11.218
▁700	-11.2183
▁optimize	-11.2187
11	-11.2188
▁fault	-11.22
▁verifi	-11.2201
▁promotional	-11.2201
ware	-11.2201
▁identical	-11.2203
▁hat	-11.2209
▁concession	-11.2215
▁plane	-11.2215
▁certificates	-11.2218
▁stops	-11.2219
▁enlarged	-11.2219
▁dreams	-11.222
▁safer	-11.2222
▁excursions	-11.2227
▁libya	-11.2228
▁preventive	-11.2231
▁colombia	-11.2234
jo	-11.2237
literacy	-11.2239
▁lens	-11.2242
▁thoughts	-11.2244
▁surf	-11.2246
▁posting	-11.2247
▁lan	-11.2248
▁grain	-11.225
▁enthusiasm	-11.2251
▁quest	-11.2253
ification	-11.2253
▁credits	-11.2254
▁signals	-11.2258
▁ethics	-11.2262
▁autonomous	-11.2263
▁incidents	-11.2267
▁52	-11.2268
▁chicken	-11.2269
▁filed	-11.227
ent	-11.2277
▁alps	-11.228
▁tackling	-11.2281
▁si	-11.2283
▁algeria	-11.2288
▁rejection	-11.229
▁vaccine	-11.229
▁immunity	-11.2293
tis	-11.2293
▁tissue	-11.2299
▁donor	-11.2299
▁apache	-11.2299
min	-11.2303
▁donation	-11.2304
▁revolutionary	-11.2305
▁firewall	-11.2305
▁missed	-11.2307
▁preference	-11.2309
▁remedy	-11.2311
▁innovations	-11.2325
▁weapon	-11.2328
▁arctic	-11.233
▁checking	-11.2332
▁cellar	-11.2336
ium	-11.234
▁confidentialit	-11.2344
▁licensing	-11.2346
▁ambience	-11.2347
▁lights	-11.2349
▁badly	-11.2356
truck	-11.2357
▁promising	-11.2359
▁isolation	-11.2359
▁monte	-11.2361
▁hazardous	-11.2372
▁hospitals	-11.2372
▁shoulder	-11.2373
▁gi	-11.2374
ari	-11.2379
▁las	-11.238
▁cure	-11.2389
▁shore	-11.2389
▁cam	-11.2395
▁château	-11.2402
▁matches	-11.2402
▁seekers	-11.2406
▁passes	-11.2407
▁dominant	-11.2408
▁viruses	-11.2409
▁renew	-11.2411
▁brochure	-11.2414
▁complie	-11.2414
▁sim	-11.242
▁borne	-11.242
▁secured	-11.242
▁resistant	-11.242
▁phones	-11.2422
▁settled	-11.2425
▁grace	-11.2425
iv	-11.243
▁disseminat	-11.243
▁rid	-11.2436
▁mega	-11.2442
▁renault	-11.2444
▁pot	-11.2456
▁gourmet	-11.2457
▁defect	-11.2457
▁outset	-11.2458
▁elect	-11.2458
▁dress	-11.2463
▁supporters	-11.2468
▁multilingual	-11.2469
▁flu	-11.247
▁daniel	-11.2472
ep	-11.2475
▁pledge	-11.2475
▁logistics	-11.2476
▁legacy	-11.2481
▁sk	-11.2486
▁owing	-11.2488
▁caution	-11.2493
▁kick	-11.2494
▁font	-11.2495
▁detection	-11.2495
▁rivers	-11.2496
ries	-11.2497
▁seventh	-11.2499
▁psychological	-11.25
-1	-11.2503
▁bulletin	-11.2506
▁reinforced	-11.251
▁mile	-11.2518
▁pr	-11.2519
▁flower	-11.2521
▁giant	-11.2521
▁refurbished	-11.2523
▁catalog	-11.2524
▁sick	-11.2528
▁definitive	-11.253
▁frankfurt	-11.253
▁basque	-11.253
▁outlin	-11.2536
▁perception	-11.2544
▁sacred	-11.2545
64	-11.2546
▁tiny	-11.2547
▁physician	-11.2549
▁styles	-11.2551
ze	-11.2552
▁feels	-11.2553
▁dairy	-11.2555
▁triple	-11.2561
ial	-11.2564
che	-11.2565
▁recreational	-11.2569
▁gen	-11.2569
▁carriers	-11.257
▁breast	-11.2578
▁symantec	-11.258
▁gameplay	-11.2581
▁pose	-11.2588
▁singer	-11.2591
▁defender	-11.2593
▁clearer	-11.2595
▁sporting	-11.2595
▁vibrant	-11.2605
▁presentations	-11.2605
▁courtyard	-11.2605
▁voices	-11.2606
▁backed	-11.2611
▁merchant	-11.2611
▁munich	-11.2611
▁visibility	-11.2611
▁accommodations	-11.2618
▁conducting	-11.2619
▁emotional	-11.2625
▁toys	-11.263
▁marketplace	-11.263
▁shoes	-11.2638
▁pour	-11.2646
▁jamendo	-11.2648
▁crop	-11.2649
▁con	-11.2651
▁kenya	-11.2662
▁variables	-11.2663
▁mas	-11.2665
ec	-11.2666
▁associate	-11.2667
▁customiz	-11.267
▁cabinet	-11.2673
▁cotton	-11.2673
▁resume	-11.268
les	-11.2687
▁ea	-11.2687
▁grey	-11.2694
▁malta	-11.2696
▁coat	-11.2706
▁bird	-11.271
▁exploration	-11.2711
▁boy	-11.2712
▁dominate	-11.2713
▁ties	-11.2713
▁advances	-11.2714
▁qualiti	-11.2716
▁readers	-11.2727
ara	-11.2728
▁46	-11.2728
▁daughter	-11.2729
▁overwhelming	-11.273
of	-11.2736
▁grew	-11.2737
▁advertisement	-11.2742
▁afterwards	-11.2744
▁labels	-11.2747
▁virtue	-11.2748
▁geographic	-11.2749
▁macedonia	-11.275
▁moldova	-11.275
▁secur	-11.2754
eu	-11.2759
▁facilitat	-11.2767
▁lady	-11.2771
▁upload	-11.2772
▁automotive	-11.2774
▁snacks	-11.2778
▁circulation	-11.278
▁aspiration	-11.2787
▁menus	-11.2788
▁49	-11.2795
▁bags	-11.2795
▁terror	-11.2796
▁intent	-11.2798
▁tariff	-11.2799
▁distinctive	-11.2799
▁retention	-11.2805
▁basel	-11.2806
▁california	-11.2819
▁sc	-11.282
▁modem	-11.2821
▁wisdom	-11.2824
ix	-11.2825
tor	-11.2826
▁grass	-11.2831
▁cargo	-11.2835
▁settle	-11.2838
▁casa	-11.284
▁ray	-11.2843
▁embark	-11.2843
▁proliferation	-11.2844
▁landscapes	-11.2844
▁hydro	-11.2853
▁entrepreneurs	-11.2853
▁boundaries	-11.2863
▁meaningful	-11.2864
▁slopes	-11.2867
gi	-11.2867
▁adjusted	-11.2869
ster	-11.2871
▁married	-11.2871
▁sandy	-11.2872
▁verification	-11.2875
▁10:00	-11.2875
▁sol	-11.2877
▁liberty	-11.2877
▁continuation	-11.2879
▁pesticides	-11.2881
▁controlling	-11.2883
uk	-11.2887
ory	-11.289
▁99	-11.2893
▁ambitions	-11.29
▁thailand	-11.2901
▁ambassador	-11.2903
▁revise	-11.291
▁adjustments	-11.2912
▁pe	-11.2916
▁peninsula	-11.292
▁drafted	-11.2923
▁conscious	-11.2925
▁laser	-11.2925
▁dossier	-11.2928
▁rush	-11.2933
▁construct	-11.2934
▁inequality	-11.2946
▁entrust	-11.2946
▁behold	-11.2946
▁rebuild	-11.2946
▁loading	-11.2948
▁specialis	-11.2948
gc	-11.2948
▁installer	-11.2952
▁pandemic	-11.2952
▁rewards	-11.2957
▁sculpture	-11.2958
▁aquaculture	-11.2958
ble	-11.2967
▁uphold	-11.2969
▁branches	-11.2969
▁washing	-11.2971
▁reaches	-11.2976
▁resumed	-11.2983
▁flavour	-11.2984
▁batteries	-11.2985
▁festivals	-11.2988
▁mood	-11.2989
▁preview	-11.2998
▁mt	-11.2998
▁acted	-11.3003
▁protests	-11.3004
ik	-11.3004
▁consultants	-11.3008
▁abolition	-11.301
▁temperatures	-11.3016
▁organizing	-11.3017
▁teeth	-11.3018
▁bin	-11.3019
izing	-11.302
▁modes	-11.3022
▁trains	-11.3028
▁journalist	-11.303
▁deployment	-11.303
tra	-11.3032
▁guess	-11.3032
▁regimes	-11.3033
▁prosecution	-11.3038
▁pools	-11.3048
ip	-11.3052
▁ku	-11.3053
▁capacities	-11.3055
▁influenza	-11.3062
▁virgin	-11.3062
▁albania	-11.3063
▁solo	-11.3064
▁younger	-11.3067
▁pregnancy	-11.307
▁symbols	-11.3071
▁integrat	-11.3074
▁delivers	-11.3075
▁livestock	-11.3075
▁rarely	-11.3079
ham	-11.3081
ated	-11.3081
▁var	-11.3085
▁bears	-11.3089
▁optical	-11.309
▁alpine	-11.3096
▁fare	-11.3101
▁counterpart	-11.3101
box	-11.3105
▁jet	-11.3106
▁dogs	-11.3106
▁piazza	-11.3108
ng	-11.3115
▁scrutin	-11.3115
▁distort	-11.3116
head	-11.3116
▁persist	-11.3125
▁op	-11.3129
▁jump	-11.3131
▁lac	-11.3135
zo	-11.3137
▁pioneer	-11.314
▁inappropriate	-11.314
▁zoom	-11.3141
▁tonight	-11.3144
▁damaging	-11.3147
▁04	-11.3152
▁timber	-11.316
▁drives	-11.317
▁seal	-11.317
▁launching	-11.3172
▁admission	-11.3174
▁tube	-11.318
▁liberties	-11.318
▁novel	-11.3183
12	-11.3184
▁offset	-11.3185
▁cannes	-11.319
▁waves	-11.3191
▁harmonis	-11.3193
▁suppress	-11.3193
▁pedestrian	-11.3196
▁personaliz	-11.3197
▁protective	-11.3198
▁ukrainian	-11.3199
▁thick	-11.3203
▁globally	-11.3203
▁gallerie	-11.3206
▁municipality	-11.3209
▁graphical	-11.321
▁tender	-11.321
▁fold	-11.3212
▁riviera	-11.3213
▁compris	-11.3218
í	-11.3219
▁interference	-11.3219
▁mis	-11.3223
▁districts	-11.3225
▁indispensable	-11.3226
▁mc	-11.3233
▁stem	-11.3237
tal	-11.324
▁assumed	-11.3245
▁cs	-11.3247
▁issu	-11.3247
▁resolv	-11.3251
▁unexpected	-11.3252
▁habitat	-11.3253
▁telecom	-11.3254
▁occupy	-11.3259
▁gifts	-11.3261
▁sensor	-11.3264
▁oversea	-11.3267
▁abortion	-11.3268
▁controller	-11.327
▁offences	-11.3272
▁tries	-11.3276
▁diabetes	-11.3279
▁displac	-11.328
▁powered	-11.3284
era	-11.3286
▁nordic	-11.3289
.6	-11.3291
▁execute	-11.3297
▁dy	-11.3299
.3	-11.3299
▁afghan	-11.3299
▁stringent	-11.3299
▁ep	-11.3304
▁prix	-11.3306
▁za	-11.3311
▁painted	-11.3316
▁discerning	-11.3319
25	-11.3319
▁marking	-11.3321
.4	-11.3321
▁jo	-11.3322
▁profiles	-11.3325
▁epidemic	-11.3325
▁speaks	-11.333
▁tighten	-11.3334
ab	-11.3336
▁prosecutor	-11.3336
▁enjoyable	-11.3336
▁examin	-11.334
▁filters	-11.3342
▁congratulat	-11.3347
▁mi	-11.3348
▁scener	-11.3349
▁frozen	-11.3352
ón	-11.3356
▁preced	-11.3356
▁decor	-11.3359
▁deck	-11.3367
▁ben	-11.3367
▁ar	-11.3368
▁jan	-11.3369
▁beta	-11.3371
▁hunting	-11.3378
▁fragile	-11.3379
▁tele	-11.3379
▁inviting	-11.3379
▁slovenia	-11.338
▁reproduce	-11.3388
▁dock	-11.3389
▁spots	-11.3392
▁mystery	-11.3392
ft	-11.3398
▁cabin	-11.3399
▁ke	-11.3403
▁delayed	-11.3405
▁vegetable	-11.3411
▁traveller	-11.3413
▁mixture	-11.3417
ap	-11.3418
▁extends	-11.342
▁favor	-11.3422
ku	-11.3423
cc	-11.3426
.8	-11.3431
▁imagination	-11.3433
▁rehabilitation	-11.3433
▁bases	-11.3435
▁dj	-11.3438
▁landing	-11.3443
▁inevitab	-11.3445
▁breathtaking	-11.3446
ea	-11.3448
▁translations	-11.3451
▁genetically	-11.3461
▁compatibility	-11.3462
▁angle	-11.3463
ano	-11.3465
▁vessel	-11.3466
▁surgery	-11.3467
▁accountable	-11.3467
kin	-11.3468
care	-11.3472
▁editing	-11.3479
▁symbolic	-11.348
▁households	-11.3481
▁loud	-11.3485
▁gospel	-11.3487
▁relie	-11.3495
▁donations	-11.3496
▁offenders	-11.3497
▁offence	-11.3502
▁photograph	-11.3503
lu	-11.3504
▁cad	-11.3507
▁alberta	-11.3507
▁possession	-11.3508
▁bomb	-11.3508
▁prizes	-11.3509
▁permanently	-11.3513
▁fireplace	-11.3514
▁drag	-11.3517
▁47	-11.352
▁endanger	-11.3521
▁coherence	-11.3528
▁ba	-11.353
▁tar	-11.3532
▁laterooms	-11.3535
▁phrase	-11.3535
▁1988	-11.3535
▁norway	-11.3544
▁carte	-11.3544
oc	-11.3548
▁1960	-11.3549
▁ran	-11.3553
▁promenade	-11.3555
▁threatening	-11.3556
▁embrace	-11.3556
▁tb	-11.3556
▁stepp	-11.3561
▁priest	-11.3563
om	-11.3568
▁currencies	-11.3569
▁desperate	-11.3569
▁compensate	-11.3571
ani	-11.3575
▁literal	-11.3578
▁bo	-11.3581
▁procedural	-11.3582
▁misleading	-11.3584
86	-11.3587
▁recital	-11.3589
je	-11.3592
▁fires	-11.3594
ical	-11.3595
▁peer	-11.3603
·	-11.3603
▁thomas	-11.3603
▁dose	-11.3604
▁vicinity	-11.361
▁truck	-11.3616
▁minds	-11.3617
▁architect	-11.3618
▁basin	-11.3628
▁prejudice	-11.363
▁decid	-11.3635
▁networking	-11.3639
fr	-11.3642
▁scandal	-11.3644
▁hôtel	-11.3645
▁painful	-11.3647
▁halt	-11.3653
▁shade	-11.3663
0,000	-11.3663
▁ict	-11.3665
▁innocent	-11.3667
▁patio	-11.3669
▁electronics	-11.367
▁brilliant	-11.3672
can	-11.3674
▁ranking	-11.3682
▁cheaper	-11.3685
▁ipod	-11.3687
▁countless	-11.3688
▁tap	-11.3689
vo	-11.369
▁chronic	-11.3695
▁seed	-11.3698
▁harsh	-11.37
▁sal	-11.3707
▁albe	-11.3708
▁mild	-11.3708
▁playground	-11.3713
▁cater	-11.3717
▁blocked	-11.3721
▁endless	-11.3722
ford	-11.3723
▁seeds	-11.3726
▁lands	-11.3727
▁reactions	-11.373
bi	-11.373
▁compet	-11.3732
ful	-11.3734
▁brunswick	-11.3734
▁buffer	-11.3737
▁argu	-11.3745
▁sl	-11.3751
▁para	-11.3752
▁comforts	-11.3755
▁generating	-11.3755
▁pse	-11.376
▁healing	-11.3768
▁audiovisual	-11.3776
▁persistent	-11.3776
▁alpha	-11.3778
ps	-11.3778
▁dive	-11.378
▁vineyards	-11.3781
▁malaria	-11.3783
▁interact	-11.3787
▁stays	-11.379
▁bull	-11.3791
▁analyze	-11.3792
▁lu	-11.3795
▁prerequisite	-11.3797
field	-11.3798
▁capabilit	-11.3798
▁endorsed	-11.3801
▁complementar	-11.3804
▁pope	-11.3804
▁substitute	-11.3805
▁diagnosis	-11.3811
▁oak	-11.3812
▁restrictive	-11.3819
▁specialties	-11.382
▁passage	-11.3825
▁query	-11.3828
▁invoice	-11.3828
▁richard	-11.3834
▁hr	-11.3837
▁stimulat	-11.3841
▁width	-11.3846
▁chechnya	-11.3853
▁rubber	-11.3853
▁separation	-11.3853
▁ju	-11.3855
▁stones	-11.3856
▁indicat	-11.3857
▁hell	-11.3865
▁devote	-11.3869
after	-11.3876
▁derogation	-11.3882
▁tank	-11.3883
▁limitation	-11.3889
▁ministerial	-11.389
▁guinea	-11.389
▁buyers	-11.3894
▁hygiene	-11.3902
cy	-11.3904
▁exquisite	-11.3909
▁pine	-11.391
▁jews	-11.391
▁grid	-11.3912
▁trails	-11.3912
▁sch	-11.3928
▁stimulus	-11.3931
▁mines	-11.3931
▁inevitable	-11.3931
▁deluxe	-11.3938
▁embassy	-11.3943
▁oven	-11.3946
▁elimination	-11.3947
.7	-11.3949
▁dramatically	-11.3953
▁tub	-11.3954
▁worried	-11.3956
▁thread	-11.396
▁villas	-11.3967
▁strikes	-11.397
▁railways	-11.3972
▁180	-11.3972
▁pray	-11.3976
▁ideological	-11.3987
▁victoria	-11.399
▁birthday	-11.3995
▁1.2	-11.3995
▁panels	-11.3995
▁municipalities	-11.3995
▁nomination	-11.3996
▁gradual	-11.3998
tech	-11.4
▁broadband	-11.4003
▁bugs	-11.4003
▁overnight	-11.401
▁caisse	-11.4018
▁medal	-11.4019
▁consume	-11.4023
▁kilometers	-11.4023
▁booth	-11.4025
▁bet	-11.4025
▁db	-11.403
▁biofuel	-11.403
▁butter	-11.4035
istic	-11.4042
▁inherent	-11.4045
▁stadium	-11.4045
▁pending	-11.4046
▁1,000	-11.4046
▁breath	-11.4047
▁gun	-11.4052
▁evolve	-11.4055
han	-11.4065
▁varie	-11.4067
▁tokyo	-11.4068
▁unite	-11.4069
▁screens	-11.4069
▁suspend	-11.4071
▁mer	-11.4073
▁acquis	-11.4073
▁gateway	-11.4074
▁attribute	-11.4075
▁refusal	-11.4076
▁cookie	-11.4077
▁harmonise	-11.4079
▁ac	-11.4079
▁linking	-11.408
▁repression	-11.4081
▁powder	-11.4081
▁memories	-11.4088
80	-11.4088
▁igc	-11.409
▁calculation	-11.4092
▁prestige	-11.4095
▁vigorous	-11.4095
▁cry	-11.4097
▁seize	-11.4098
▁09	-11.4103
▁episode	-11.4106
▁updating	-11.4109
▁51	-11.4111
▁07:00	-11.4117
▁remark	-11.4117
▁impacts	-11.4119
ü	-11.412
▁immense	-11.412
▁tu	-11.4122
ette	-11.4125
▁container	-11.4127
▁cha	-11.4127
▁sri	-11.4127
▁nero	-11.4128
▁quarters	-11.4133
▁timing	-11.4135
▁olaf	-11.4139
▁1987	-11.4139
▁county	-11.4143
▁optimum	-11.4146
▁assign	-11.4149
▁authoris	-11.4154
▁pipeline	-11.4157
▁lib	-11.4159
▁marc	-11.4159
▁participant	-11.4165
â	-11.4165
▁processor	-11.4167
▁stipulate	-11.4168
▁enthusiastic	-11.417
▁slot	-11.4171
▁compliment	-11.4173
▁joseph	-11.4175
▁treasury	-11.4176
▁pursuit	-11.4176
▁theater	-11.4184
▁sheep	-11.4185
▁infant	-11.4189
▁scenes	-11.4189
▁eligibilit	-11.4189
15	-11.419
▁mayor	-11.4194
▁boulevard	-11.4196
▁bacteria	-11.4197
zi	-11.4197
▁der	-11.42
▁perceive	-11.4205
▁vulnerability	-11.4205
▁accomplished	-11.4211
▁abilities	-11.4212
▁nurse	-11.4212
▁bone	-11.4218
▁grill	-11.4219
ker	-11.423
▁mercury	-11.4233
▁56	-11.4238
▁chances	-11.4245
▁buttons	-11.4245
▁bc	-11.4245
▁characteriz	-11.4246
▁panorama	-11.4247
▁exotic	-11.4248
▁lending	-11.4251
▁fridge	-11.4255
▁submitt	-11.4257
▁screw	-11.4262
▁recipes	-11.4264
▁breaks	-11.4268
(1	-11.4268
▁68	-11.4271
▁subsection	-11.4277
▁radiation	-11.4277
▁ferry	-11.428
▁disregard	-11.4284
▁350	-11.4288
▁flaw	-11.4289
▁budapest	-11.4291
▁instability	-11.4292
▁warcraft	-11.4292
▁lifetime	-11.4294
▁placement	-11.4296
▁cor	-11.4297
▁mask	-11.4298
▁wedding	-11.4299
▁reasonabl	-11.43
▁app	-11.43
▁excel	-11.4303
▁enforc	-11.431
▁illustration	-11.4311
▁sponsor	-11.4311
▁posed	-11.4313
▁firefox	-11.4314
▁forbidden	-11.4314
▁refrigerator	-11.4314
▁replac	-11.4321
▁instances	-11.4321
▁childhood	-11.4321
ong	-11.4322
▁cur	-11.4323
▁prolong	-11.4329
▁infections	-11.4333
▁prophet	-11.4335
▁incurred	-11.4336
▁decree	-11.4344
▁honda	-11.4351
▁rhythm	-11.4352
▁ageing	-11.4352
▁confine	-11.4353
▁retreat	-11.4353
▁persuade	-11.4356
▁medicinal	-11.4358
▁neighborhood	-11.4358
▁diesel	-11.4366
▁conceiv	-11.4373
pp	-11.4373
▁don	-11.4377
▁constituenc	-11.438
▁hang	-11.4389
▁bulk	-11.4396
▁1985	-11.4396
▁slip	-11.4397
▁customize	-11.4399
▁1986	-11.4403
▁absurd	-11.4408
▁finger	-11.4425
▁sister	-11.4428
▁pat	-11.4429
▁assert	-11.4431
▁lt	-11.4434
▁doha	-11.4438
▁unanimit	-11.444
▁cds	-11.444
▁snack	-11.4442
▁consultant	-11.4443
▁luck	-11.4444
▁incidental	-11.4446
▁chile	-11.4449
▁altitude	-11.4455
▁concludes	-11.4455
▁bible	-11.4456
▁vol	-11.4458
32	-11.4458
▁impetus	-11.4462
▁proactive	-11.4462
▁fossil	-11.447
▁finishing	-11.4475
▁noble	-11.4476
▁droppe	-11.4476
▁genocide	-11.4477
▁brazilian	-11.4479
▁boys	-11.4479
▁dan	-11.4481
▁tram	-11.4489
▁drain	-11.4492
▁parliamentarian	-11.4494
▁organ	-11.4494
▁steep	-11.45
▁instructor	-11.45
tre	-11.4503
▁fibre	-11.4504
▁interpreter	-11.4504
▁shooting	-11.4505
▁supermarket	-11.4507
▁mastercard	-11.4507
▁variet	-11.4508
▁representations	-11.4512
▁mexican	-11.4514
▁slide	-11.4522
▁130	-11.4535
▁theoretical	-11.4537
▁athletes	-11.454
▁ample	-11.4542
▁transmit	-11.4544
▁furnishings	-11.4545
▁biotechnology	-11.4545
▁oasis	-11.4545
▁intel	-11.4545
tt	-11.4545
▁investor	-11.4551
▁serial	-11.4551
▁antivirus	-11.4552
▁monopoly	-11.4554
▁experimental	-11.4558
▁bands	-11.4562
cha	-11.4566
▁methodology	-11.4568
▁cuban	-11.4569
▁salary	-11.457
somewhere	-11.4571
▁tens	-11.4573
▁adjacent	-11.4575
▁regulators	-11.4581
sch	-11.4591
ira	-11.4592
eo	-11.4593
tu	-11.4593
ig	-11.4594
ph	-11.4595
▁commands	-11.4599
▁boom	-11.4602
▁shut	-11.4603
▁ali	-11.4604
▁inspire	-11.4605
▁entertain	-11.4606
▁muslims	-11.4608
▁linen	-11.4612
▁collaborative	-11.4613
▁dependence	-11.4622
▁broker	-11.4623
▁meter	-11.4626
▁decides	-11.4627
use	-11.4628
▁filing	-11.4634
ff	-11.4642
▁democracies	-11.4643
▁practitioner	-11.4643
▁98	-11.4648
▁curve	-11.4654
▁minimize	-11.4655
▁er	-11.4655
▁pink	-11.4656
▁secular	-11.4658
▁commodity	-11.4658
▁bathtub	-11.4659
▁delight	-11.4663
▁hybrid	-11.4666
▁moroccan	-11.4666
▁deadlines	-11.467
▁densit	-11.4678
▁saddam	-11.4681
▁gr	-11.4682
▁gambling	-11.4689
▁loop	-11.4693
▁backing	-11.4693
▁unified	-11.4703
▁fifty	-11.4704
▁delightful	-11.4705
▁withdrawn	-11.4708
▁visas	-11.4709
▁connector	-11.4712
▁singapore	-11.4712
wildlife	-11.4712
mont	-11.4712
▁2015	-11.4714
▁haven	-11.4717
▁soap	-11.4719
▁lab	-11.4724
let	-11.4725
▁08	-11.4726
▁pets	-11.4729
▁macroeconomic	-11.4735
▁assault	-11.4735
▁continuity	-11.4736
▁delegates	-11.4737
19	-11.4737
▁dam	-11.4738
▁shield	-11.4744
▁hip	-11.4745
▁pi	-11.4745
work	-11.4749
▁masters	-11.475
don	-11.4752
cher	-11.4752
▁motorcycle	-11.4757
▁clarifie	-11.4758
▁cube	-11.4759
▁eradicat	-11.4759
▁coins	-11.476
▁salon	-11.4761
▁ki	-11.4769
▁renovation	-11.4774
▁fits	-11.4776
:30	-11.478
lan	-11.4781
der	-11.4781
▁shipment	-11.4783
▁imply	-11.4785
▁delegations	-11.4787
▁resorts	-11.4792
▁races	-11.4794
▁forever	-11.4797
▁mature	-11.48
▁ham	-11.4801
▁contraceptive	-11.4804
ju	-11.4806
▁establishes	-11.4807
top	-11.4811
▁guardian	-11.4814
▁160	-11.4815
▁diagnostic	-11.482
tm	-11.4821
▁smith	-11.4825
▁woods	-11.4826
ada	-11.4829
▁socially	-11.4833
▁convict	-11.4834
▁von	-11.4835
▁depart	-11.4837
▁expo	-11.4837
aries	-11.4837
▁persecution	-11.4845
▁bou	-11.4848
▁criminals	-11.4849
uc	-11.4851
▁inch	-11.4851
▁spoil	-11.4865
▁divine	-11.4869
▁postpone	-11.4872
▁harmonious	-11.4874
▁contractual	-11.4874
▁feeding	-11.4878
▁souvenir	-11.4882
▁tailor	-11.4885
▁injurie	-11.4889
▁embedded	-11.489
▁locate	-11.4891
▁rst	-11.4892
▁oblige	-11.4895
▁recreation	-11.4896
▁trek	-11.4897
▁dealers	-11.4898
▁doll	-11.4903
▁climb	-11.4905
▁topical	-11.4908
▁clinic	-11.491
▁cape	-11.4911
▁sympath	-11.4913
▁hague	-11.4921
▁tel	-11.4922
▁hinder	-11.4925
▁plugin	-11.4926
35	-11.4929
▁wlan	-11.4929
▁sid	-11.4939
▁53	-11.4946
▁laptop	-11.4948
▁violate	-11.4951
ane	-11.4953
▁shame	-11.4955
▁hub	-11.4957
▁acute	-11.496
▁concentrat	-11.4966
▁motivation	-11.4968
▁capitalism	-11.4971
▁fatal	-11.4974
▁kde	-11.498
▁tibet	-11.4982
▁pupil	-11.4984
▁enhancement	-11.4987
▁stayed	-11.4987
▁jack	-11.4988
▁galileo	-11.4992
▁laying	-11.4995
▁creator	-11.4996
▁surfaces	-11.4998
▁pregnant	-11.5
▁collaborate	-11.5003
▁exclud	-11.5003
▁protects	-11.5005
▁disastrous	-11.5007
▁distant	-11.5009
▁manifest	-11.5009
▁sail	-11.5012
▁monument	-11.5016
▁conform	-11.5017
▁bargain	-11.5023
▁ensemble	-11.5023
▁detected	-11.5024
▁envisaged	-11.5025
▁ta	-11.5028
ji	-11.5028
▁cluster	-11.5028
▁gesture	-11.5031
▁therapeutic	-11.5032
▁mu	-11.5032
▁sponsored	-11.5033
▁shelter	-11.5039
▁bass	-11.5041
▁cattle	-11.5047
▁systematical	-11.5053
▁expir	-11.5057
▁instruction	-11.5059
▁telus	-11.5064
▁arabia	-11.5068
▁rank	-11.507
▁rape	-11.5074
▁gps	-11.5074
view	-11.5078
▁vague	-11.5079
port	-11.5083
▁egg	-11.5084
▁renaissance	-11.5087
▁ti	-11.5087
▁chf	-11.509
▁nintendo	-11.5095
▁schedul	-11.5099
▁closest	-11.5103
▁loose	-11.5106
unity	-11.5111
▁friendship	-11.5111
sh	-11.5117
▁accelerate	-11.5123
▁payable	-11.5127
log	-11.5129
▁registry	-11.5129
▁scanner	-11.5131
▁tendency	-11.5135
▁directorate	-11.5135
for	-11.514
▁custod	-11.5141
▁corridor	-11.5143
▁gm	-11.5144
▁scroll	-11.5151
▁ssl	-11.5151
▁imprisonment	-11.5151
▁bon	-11.5153
▁statutor	-11.5159
▁guiding	-11.5159
▁parisian	-11.5161
▁sant	-11.5163
▁francis	-11.5167
▁legislator	-11.5167
▁passionate	-11.5177
▁broaden	-11.5181
▁origins	-11.5182
▁smell	-11.5184
▁formulate	-11.5186
eth	-11.5189
▁tons	-11.519
▁anchor	-11.519
bel	-11.5191
▁fulfilling	-11.5191
▁attachment	-11.52
▁fabrics	-11.5202
▁dc	-11.5208
will	-11.5208
▁relocation	-11.521
▁actress	-11.521
▁gentle	-11.5211
▁terminate	-11.5217
▁salad	-11.5221
à	-11.5222
▁bordeaux	-11.5223
▁diminish	-11.5223
▁inspections	-11.5224
▁matching	-11.5225
▁bishop	-11.523
ato	-11.5232
▁gue	-11.5237
14	-11.5237
▁lend	-11.5238
▁energies	-11.5239
▁fountain	-11.5239
▁quantitative	-11.5239
▁cirque	-11.5239
▁blocking	-11.5242
▁trainer	-11.5242
▁openly	-11.5244
▁periodical	-11.5245
▁imperial	-11.5249
▁realm	-11.5251
▁bra	-11.5264
▁aggregate	-11.5265
rc	-11.5266
▁smile	-11.5268
▁arch	-11.5279
▁dioxide	-11.528
▁warehouse	-11.528
▁lunche	-11.5281
▁behave	-11.5282
▁110	-11.5283
▁tranquil	-11.5286
▁wa	-11.5286
▁sierra	-11.5288
▁formulat	-11.5291
▁br	-11.5292
ella	-11.5294
▁cod	-11.5295
▁sightseeing	-11.5296
▁assignment	-11.5296
▁bat	-11.5299
▁magical	-11.53
▁seaside	-11.5304
▁tasting	-11.5304
▁habits	-11.5307
▁scarce	-11.5308
28	-11.5312
▁eternal	-11.5312
▁malware	-11.5312
▁conversation	-11.5314
▁cache	-11.5319
▁shortage	-11.532
▁cruise	-11.5322
▁eager	-11.5329
▁disappearance	-11.5329
▁sql	-11.5337
▁misuse	-11.5337
▁empower	-11.5344
▁tasty	-11.5345
▁54	-11.5346
ement	-11.5351
▁slaughter	-11.5353
▁cart	-11.5355
▁cheque	-11.5364
▁earnings	-11.5367
▁occupational	-11.5367
▁hazard	-11.5369
▁salarie	-11.5369
18	-11.5371
▁neighbour	-11.5378
▁chip	-11.538
▁ger	-11.5381
ey	-11.5383
▁viewing	-11.5386
▁encryption	-11.5386
hu	-11.5386
fer	-11.5387
▁sends	-11.539
▁corrections	-11.5392
▁egyptian	-11.5398
▁cord	-11.5405
▁trendy	-11.5413
▁scotia	-11.5413
our	-11.5413
▁tied	-11.5417
▁technicians	-11.5419
rie	-11.542
▁iceland	-11.5421
▁angel	-11.5425
▁raid	-11.5438
▁corn	-11.5439
▁organisms	-11.5442
\	-11.5451
▁mg	-11.5451
authorized	-11.5458
▁midnight	-11.546
▁forge	-11.5461
▁dispose	-11.5466
▁corrupt	-11.5467
▁babysitt	-11.5468
▁engaging	-11.5468
▁helsinki	-11.5468
▁toulouse	-11.5468
▁arcade	-11.5468
?	-11.5476
▁artwork	-11.5476
▁aiming	-11.5483
▁frames	-11.5484
▁herzegovina	-11.5484
▁suicide	-11.5485
▁depression	-11.5485
▁restart	-11.5487
▁problematic	-11.5494
▁belt	-11.5498
▁07	-11.5502
ida	-11.5502
▁anne	-11.5504
▁05	-11.5505
▁walks	-11.5509
▁particle	-11.5509
▁utter	-11.5512
▁passive	-11.5512
▁chapters	-11.5516
▁draws	-11.5517
▁alde	-11.5517
▁drama	-11.5518
▁maximize	-11.5519
▁readily	-11.552
fo	-11.5521
page	-11.5524
▁classroom	-11.553
▁toll	-11.5531
▁realities	-11.5532
▁140	-11.5532
▁prescription	-11.5534
▁detainee	-11.5534
▁thereof	-11.5541
▁gates	-11.5542
▁norms	-11.5543
▁stainless	-11.5543
▁rolling	-11.5546
temporarily	-11.5547
▁fabulous	-11.5551
▁cooling	-11.5554
▁flags	-11.5556
eau	-11.5557
▁recipe	-11.5558
▁parc	-11.5558
▁demonstrat	-11.556
▁expire	-11.5564
▁dominat	-11.5565
▁doctrine	-11.5565
▁grasp	-11.5574
▁interfere	-11.5581
▁convincing	-11.5584
▁conceal	-11.5584
▁monaco	-11.5585
▁forming	-11.5585
▁tags	-11.5587
tte	-11.559
▁sh	-11.5591
▁vacuum	-11.5601
▁cyber	-11.5602
▁ngo	-11.5603
▁ste	-11.5609
▁ambiance	-11.5609
▁sis	-11.5615
▁onward	-11.5617
▁browsing	-11.5618
ising	-11.5619
▁mothers	-11.5622
▁delta	-11.5627
▁span	-11.5642
▁diplomacy	-11.5643
▁pur	-11.5649
▁900	-11.5649
▁oversee	-11.5651
▁dish	-11.5657
▁successive	-11.5657
▁auction	-11.5659
▁witnesse	-11.5662
▁headed	-11.567
.9	-11.567
▁volumes	-11.5673
▁consecutive	-11.5677
▁wholehearted	-11.5677
▁inspector	-11.5677
▁validity	-11.5679
▁infrastructures	-11.568
▁containers	-11.568
▁nominat	-11.568
uri	-11.5682
▁momentum	-11.5684
▁terraces	-11.569
▁speculation	-11.5694
▁legs	-11.5695
▁tongue	-11.5696
▁bridges	-11.5696
▁layers	-11.5696
ö	-11.5699
▁abstract	-11.5699
▁manitoba	-11.5702
▁relevance	-11.5702
▁feasible	-11.5703
▁loaded	-11.5709
▁commander	-11.571
▁incredib	-11.5718
▁inquiries	-11.5719
▁lieutenant	-11.5719
▁administrators	-11.572
▁static	-11.5721
▁scripts	-11.5722
▁gothic	-11.5728
▁fortress	-11.5731
24	-11.5732
▁practise	-11.5733
▁disrupt	-11.5737
▁flora	-11.5737
▁tastefully	-11.5738
▁eib	-11.574
▁est	-11.5741
house	-11.5743
▁irrespective	-11.5745
▁clientele	-11.5745
▁alarming	-11.5747
▁fusion	-11.5748
bu	-11.5748
▁te	-11.5752
▁blair	-11.5753
▁regain	-11.5753
▁ashton	-11.5757
▁william	-11.5757
▁hearts	-11.5759
▁mat	-11.5761
▁beneficiar	-11.5761
▁chancellor	-11.5762
▁dedication	-11.5762
▁fuck	-11.5763
star	-11.5769
▁leverage	-11.5773
▁sarkozy	-11.5779
▁reign	-11.5779
▁debut	-11.578
▁pertain	-11.578
▁harder	-11.5782
▁gala	-11.5786
▁dare	-11.5787
▁11:00	-11.5787
ena	-11.5789
▁promptly	-11.5794
ev	-11.5795
▁prevents	-11.5795
▁peripheral	-11.5798
cu	-11.5798
▁precedent	-11.5805
▁magazines	-11.5806
▁messenger	-11.5813
ib	-11.5829
▁enemies	-11.583
▁denial	-11.583
▁floods	-11.5833
▁sms	-11.5836
▁osce	-11.5838
▁gmbh	-11.5839
▁albanian	-11.5845
▁livelihood	-11.5847
▁icons	-11.5851
▁voyage	-11.5856
13	-11.5857
▁leaf	-11.5858
▁eve	-11.5859
ski	-11.5862
▁occurr	-11.5863
▁zealand	-11.5873
▁horses	-11.5874
▁vaccination	-11.5874
▁stroke	-11.5875
▁successes	-11.5882
▁batch	-11.5882
ud	-11.5882
ei	-11.5887
▁av	-11.5887
95	-11.5888
▁recogniz	-11.5889
▁characteris	-11.5889
▁intensit	-11.589
.5	-11.589
▁ph	-11.5891
▁valencia	-11.5891
▁professionalism	-11.5893
▁ra	-11.5893
▁estonia	-11.5894
▁offender	-11.5897
▁qualitative	-11.5899
▁chic	-11.59
▁faq	-11.5904
▁lifting	-11.5905
▁62	-11.5915
▁honey	-11.5917
▁1950	-11.5917
▁ne	-11.5918
▁coup	-11.592
▁textiles	-11.5926
▁anybody	-11.5927
▁steering	-11.5928
▁edinburgh	-11.5933
▁laboratori	-11.5933
▁restriction	-11.5953
▁plates	-11.5954
▁96	-11.5955
▁quoted	-11.5956
▁darfur	-11.5959
fin	-11.5961
▁rider	-11.5962
▁australian	-11.5963
▁alt	-11.5965
nal	-11.5975
▁ruins	-11.5977
her	-11.5979
cl	-11.598
▁servants	-11.598
▁precondition	-11.5986
▁communion	-11.5986
▁memorable	-11.5994
▁parole	-11.5994
▁texture	-11.5995
set	-11.5997
▁rally	-11.6
▁affiliates	-11.6
▁1.0	-11.6003
▁spin	-11.601
▁wholly	-11.6013
▁settlements	-11.6016
▁drawings	-11.6017
▁ya	-11.6017
▁theft	-11.6024
▁elaborate	-11.6025
▁bankruptc	-11.6027
▁misunderstand	-11.6029
▁francisco	-11.603
▁modernisation	-11.603
ag	-11.6034
▁fa	-11.6036
▁lit	-11.6038
45	-11.6044
card	-11.6045
▁showcase	-11.6046
▁inland	-11.6046
▁reassure	-11.6047
▁coin	-11.6047
qui	-11.6048
▁ob	-11.6048
tz	-11.6049
▁establishments	-11.6053
▁veterinary	-11.6055
▁pragmatic	-11.6064
▁herein	-11.6066
▁genre	-11.6067
▁coastline	-11.6067
▁discriminator	-11.607
▁template	-11.6072
▁encountered	-11.6075
▁confrontation	-11.6075
▁discounts	-11.6077
▁bulgarian	-11.6081
▁neck	-11.6081
▁baroque	-11.6082
iz	-11.6086
▁basket	-11.6091
▁affair	-11.6093
▁forty	-11.6094
▁economical	-11.6094
▁alternate	-11.6096
▁shorter	-11.6105
▁juan	-11.6105
well	-11.6108
▁comparative	-11.6109
▁deposits	-11.6113
▁allegations	-11.6116
▁revelation	-11.6117
bra	-11.6122
▁holes	-11.6128
▁champs	-11.6131
▁bre	-11.6133
▁uncertain	-11.6134
▁invasion	-11.6135
▁athens	-11.6135
van	-11.6135
▁advocates	-11.6137
▁unix	-11.6139
▁vert	-11.6139
▁refreshing	-11.6146
nce	-11.6156
▁cleaner	-11.6158
▁senegal	-11.6161
▁rebel	-11.6164
▁cambodia	-11.6165
▁implied	-11.6172
▁finds	-11.6172
▁ranks	-11.6172
ure	-11.6176
ero	-11.6178
▁formulation	-11.6178
▁drought	-11.618
tar	-11.618
▁varying	-11.6182
▁anticipat	-11.6185
held	-11.6187
▁sha	-11.6187
▁premature	-11.6188
cor	-11.6188
▁curious	-11.6188
▁1978	-11.6188
▁@	-11.6191
▁prohibition	-11.6196
▁licences	-11.6198
▁mess	-11.6199
▁indicator	-11.62
▁logos	-11.6204
▁banana	-11.6208
ok	-11.6208
▁sponsors	-11.6215
▁happiness	-11.6216
▁cave	-11.6218
▁tail	-11.622
▁anymore	-11.6222
▁originat	-11.6223
rin	-11.6224
▁nationality	-11.6224
▁crowd	-11.6225
▁api	-11.6225
▁architects	-11.623
▁awesome	-11.6232
▁tuna	-11.6235
▁78	-11.6237
▁thai	-11.6237
▁66	-11.6239
▁zurich	-11.6241
ura	-11.6241
▁borrow	-11.6242
▁jury	-11.6242
ef	-11.6245
▁marco	-11.6248
▁rigid	-11.6248
▁democratically	-11.6251
▁bern	-11.6253
▁cu	-11.626
ide	-11.6261
▁tier	-11.6262
▁contamination	-11.6262
▁reminder	-11.6265
▁jordan	-11.6267
▁suspicion	-11.6268
▁simulation	-11.6269
▁bitter	-11.6271
▁strain	-11.6272
▁abundant	-11.6277
▁champagne	-11.6277
▁europa	-11.6285
▁danube	-11.6286
▁shipp	-11.6286
all	-11.6292
▁imprison	-11.6294
▁extremist	-11.6296
▁dismiss	-11.6299
▁pixels	-11.63
▁cautious	-11.6304
▁missile	-11.6304
▁exceeding	-11.6315
▁cloth	-11.6317
▁gmos	-11.6318
▁organs	-11.6318
▁embargo	-11.6322
▁tanks	-11.6323
36	-11.6323
▁1984	-11.6323
▁ale	-11.6323
▁identifie	-11.6328
▁baths	-11.633
▁latvia	-11.6335
▁diameter	-11.634
▁copper	-11.6341
▁liquidity	-11.6343
▁timor	-11.6344
▁organizational	-11.6344
▁luc	-11.6345
-2	-11.6345
▁58	-11.6345
▁francophone	-11.6349
▁chaos	-11.6349
▁seating	-11.635
▁cloud	-11.6352
66	-11.6356
▁milestone	-11.6358
▁décor	-11.6359
ney	-11.6361
▁barely	-11.6371
▁shoot	-11.6372
▁eleven	-11.6372
▁ear	-11.6372
▁poly	-11.6373
▁judiciary	-11.6376
▁cornerstone	-11.6386
▁climbing	-11.6391
ama	-11.6392
▁fu	-11.6392
▁shake	-11.6396
link	-11.6397
▁che	-11.64
▁jar	-11.6409
▁devastating	-11.641
▁ja	-11.6411
off	-11.6413
▁smallest	-11.6416
▁incoming	-11.6416
▁gent	-11.6418
▁pitch	-11.6419
disproportionate	-11.642
▁seasons	-11.6423
▁diamond	-11.6426
▁crazy	-11.6431
21	-11.6435
▁boarding	-11.6436
▁loving	-11.6438
.0	-11.6438
▁senate	-11.644
world	-11.6441
▁edward	-11.6445
▁distributor	-11.6446
▁evenings	-11.6446
mail	-11.6449
▁emergence	-11.6449
▁aluminiu	-11.6454
▁3.5	-11.6458
▁sleeping	-11.6459
▁venezuela	-11.6462
▁fluid	-11.6466
▁frankly	-11.6467
▁disagreement	-11.6468
▁imbalances	-11.647
ona	-11.6472
17	-11.6472
▁protectionism	-11.6472
form	-11.6474
▁fo	-11.6474
▁loyalty	-11.6476
▁retrieve	-11.6477
▁freeze	-11.648
▁450	-11.6482
▁scratch	-11.6483
▁expenditures	-11.6487
▁ethiopia	-11.6489
▁bob	-11.649
▁towels	-11.649
▁repercussion	-11.6494
▁pretext	-11.6495
▁username	-11.6496
▁petition	-11.6499
▁crack	-11.6504
▁claude	-11.6504
together	-11.6505
▁shi	-11.6507
▁downloads	-11.6508
mon	-11.6511
▁publisher	-11.6512
▁campsite	-11.6514
▁impressed	-11.6517
▁pity	-11.652
▁suits	-11.6521
▁generator	-11.6522
▁converter	-11.6523
▁thrown	-11.6523
▁economists	-11.6531
▁commoditi	-11.6537
75	-11.6539
▁operative	-11.6543
▁somalia	-11.6544
▁maker	-11.6545
▁pornograph	-11.6549
▁tariffs	-11.6549
▁kurdish	-11.655
▁1979	-11.6551
val	-11.6554
▁portrait	-11.6557
▁3.0	-11.6561
▁vatican	-11.6568
ica	-11.6571
▁analog	-11.6572
▁dec	-11.6572
▁1.1	-11.6574
▁memorial	-11.6577
azur	-11.6578
▁weigh	-11.6579
▁spray	-11.659
du	-11.6592
▁gro	-11.6593
▁63	-11.6594
▁palais	-11.6596
▁irregularit	-11.6599
▁inequaliti	-11.6605
▁exporter	-11.6606
▁schulz	-11.6607
▁kar	-11.6608
▁fur	-11.6608
▁electro	-11.6609
▁wheels	-11.6611
ach	-11.6614
▁durable	-11.6616
▁cow	-11.662
▁10,000	-11.6625
▁aqua	-11.6627
▁binary	-11.6628
▁campus	-11.6628
▁poll	-11.6629
▁terrain	-11.6634
▁turnover	-11.6634
▁unwind	-11.6634
▁proceeding	-11.6635
▁pic	-11.664
▁blank	-11.6641
aire	-11.6641
▁monastery	-11.6642
list	-11.6642
▁magnetic	-11.6643
▁intra	-11.6644
ita	-11.6644
▁exterior	-11.6651
▁modular	-11.6651
▁ecommerce	-11.6652
▁remit	-11.6653
▁prescrib	-11.6653
▁pra	-11.6656
eken	-11.6656
▁montenegr	-11.6661
▁folk	-11.6663
▁poses	-11.6665
▁shapes	-11.667
▁proprietar	-11.667
▁leak	-11.6672
ora	-11.6676
▁trucks	-11.6677
▁paypal	-11.668
▁attribut	-11.6681
▁colourful	-11.6684
▁agri	-11.6686
▁celebrating	-11.6689
▁eiffel	-11.6689
▁foodstuffs	-11.6694
▁validation	-11.6695
▁awaiting	-11.6695
▁chill	-11.6698
▁coloured	-11.67
▁contradiction	-11.67
ermost	-11.67
▁capita	-11.6707
▁ideology	-11.6707
▁conformity	-11.671
▁porto	-11.6711
▁columns	-11.6712
▁attraction	-11.6713
▁ol	-11.6715
▁1.3	-11.6715
▁transnational	-11.6717
▁mutually	-11.6717
27	-11.6718
▁stack	-11.6719
▁adam	-11.6722
▁pipe	-11.6726
▁yukon	-11.6727
▁nose	-11.6727
▁subway	-11.6728
▁applaud	-11.6736
▁campanile	-11.6736
▁mep	-11.6736
▁continents	-11.6739
▁jam	-11.6739
▁minded	-11.674
▁yo	-11.6742
▁applause	-11.6745
▁gui	-11.6746
▁pressures	-11.6748
▁bottles	-11.6754
▁massacre	-11.6754
▁nepal	-11.6754
▁scanning	-11.6754
▁correspondence	-11.6755
=	-11.6759
▁glory	-11.6764
▁judgement	-11.6777
(2	-11.678
▁faculty	-11.6787
▁disable	-11.6787
▁rhetoric	-11.6789
stabilisation	-11.6799
▁cit	-11.6799
▁82	-11.6801
▁sd	-11.6801
▁austerity	-11.6801
▁rcmp	-11.6802
▁anger	-11.6805
▁corrected	-11.6807
▁acres	-11.6812
▁fairness	-11.6817
▁viewpoint	-11.6818
▁abide	-11.682
▁selective	-11.6826
▁lyrics	-11.6827
▁1930	-11.6832
▁compound	-11.6833
▁conception	-11.6834
▁uni	-11.6836
▁laundering	-11.6837
▁submissions	-11.6851
▁françois	-11.6856
▁irresponsibl	-11.6858
▁lodging	-11.6858
▁harassment	-11.6859
▁feeds	-11.6866
ien	-11.6866
▁unlawful	-11.6868
▁vendor	-11.6872
▁earmark	-11.6887
▁animated	-11.6892
67	-11.6894
▁subsidiaries	-11.6896
▁solana	-11.6897
▁subtle	-11.6898
oni	-11.6899
▁125	-11.69
▁sud	-11.6902
22	-11.6902
sky	-11.6903
ology	-11.6903
▁diversification	-11.6906
▁poster	-11.6906
▁authentication	-11.6909
▁sink	-11.6915
▁patten	-11.6916
▁tibetan	-11.6918
bus	-11.692
▁critics	-11.6924
air	-11.6925
▁wins	-11.6925
▁blanc	-11.6931
nt	-11.6934
▁simplicit	-11.6936
▁nowhere	-11.6937
▁ru	-11.6939
▁tired	-11.6941
ably	-11.6942
▁occurrence	-11.6944
ros	-11.6949
bot	-11.6951
▁samsung	-11.6954
▁refuge	-11.6957
▁amateur	-11.696
▁girlfriend	-11.6963
▁cologne	-11.6964
av	-11.6967
▁lucky	-11.6967
▁ecofin	-11.697
▁injustice	-11.6973
▁naples	-11.6973
08	-11.6977
▁educated	-11.6978
▁moratorium	-11.6983
▁impartial	-11.6983
▁picked	-11.6985
▁drew	-11.6989
▁57	-11.699
▁describ	-11.699
▁travelers	-11.6992
▁appliances	-11.6993
▁bathing	-11.6995
–	-11.6995
▁enchanting	-11.6995
▁saharan	-11.6997
65	-11.6997
▁franchise	-11.6998
▁chalet	-11.6999
▁deaf	-11.7
▁veteran	-11.7002
▁intermediate	-11.7002
ins	-11.7003
▁foreigner	-11.7004
▁banner	-11.701
ä	-11.7012
▁compress	-11.7013
▁peru	-11.7014
▁myth	-11.7021
▁repository	-11.7021
▁incomplete	-11.7021
▁refrain	-11.7021
▁guestrooms	-11.7029
▁hate	-11.7031
▁talents	-11.7032
▁mod	-11.7037
▁intake	-11.7038
▁reconcile	-11.7039
▁multiannual	-11.7041
▁facebook	-11.7042
▁locked	-11.7047
▁lesser	-11.7048
▁breakdown	-11.705
▁philippe	-11.7051
▁gratitud	-11.7052
31	-11.7058
▁archaeological	-11.706
▁dragon	-11.7061
▁twist	-11.7061
▁flee	-11.7066
16	-11.7075
▁affirm	-11.7078
▁parish	-11.7082
▁merchandise	-11.7089
▁alexander	-11.7089
▁curriculum	-11.7089
▁upgrading	-11.7089
▁59	-11.7091
▁arabic	-11.7091
▁nutritional	-11.7092
▁col	-11.7092
▁singing	-11.7093
▁scott	-11.7098
▁wordpress	-11.7099
▁fathers	-11.71
▁asks	-11.7104
▁chips	-11.7106
▁grande	-11.7108
▁delegate	-11.7109
▁sudden	-11.7118
▁laval	-11.7125
▁contaminat	-11.7127
▁cosmetic	-11.7127
▁disappointment	-11.7128
▁restor	-11.7129
par	-11.7133
mat	-11.7133
assuming	-11.7135
▁soleil	-11.7141
▁geared	-11.7145
▁flavours	-11.7148
▁unclear	-11.7148
▁proxy	-11.7149
▁immune	-11.7149
ade	-11.715
▁oppos	-11.7155
▁mankin	-11.716
▁thematic	-11.716
▁scores	-11.7161
▁nobel	-11.7162
▁encouragement	-11.7165
▁handy	-11.7166
▁kitchenette	-11.7168
▁rooted	-11.7169
▁blade	-11.717
▁farmer	-11.717
▁insecurity	-11.7175
▁pensioner	-11.7175
▁popularity	-11.7177
▁cozy	-11.7178
▁executions	-11.7179
▁horton	-11.7187
▁allocate	-11.7192
▁counting	-11.7192
▁gene	-11.7194
▁quark	-11.7197
▁cultivation	-11.7198
▁fin	-11.7199
,	-11.7201
▁editions	-11.7202
▁71	-11.7203
▁awaits	-11.7206
▁flourish	-11.7207
▁tactic	-11.7207
▁kim	-11.7212
▁insurer	-11.7213
▁tan	-11.7214
34	-11.7215
▁hussein	-11.7216
▁imaging	-11.7216
ris	-11.7217
dux	-11.7218
info	-11.7219
ert	-11.7225
▁identifiable	-11.7226
▁twentie	-11.7226
▁rack	-11.7227
▁bowl	-11.7237
▁79	-11.7241
▁cpu	-11.7242
nightlife	-11.7243
water	-11.7243
▁vocation	-11.7244
▁lamb	-11.7245
▁aerospace	-11.7246
▁optimistic	-11.7248
▁algorithm	-11.7256
tec	-11.7259
fe	-11.7261
▁aesthetic	-11.7262
ivity	-11.7263
▁accredit	-11.7264
▁catastrophe	-11.7266
▁cv	-11.727
▁metals	-11.7271
▁ur	-11.7274
▁expressions	-11.7277
▁postpon	-11.7278
▁thou	-11.7284
▁taliban	-11.7285
▁tre	-11.7289
▁mixing	-11.7292
▁disappointing	-11.7292
▁prototype	-11.7295
▁77	-11.7297
▁nestl	-11.7297
▁attendance	-11.7297
▁vitamin	-11.7297
▁fitting	-11.73
▁rwanda	-11.73
▁tin	-11.7301
gar	-11.7302
mark	-11.7303
▁simon	-11.7304
▁cypriot	-11.7305
▁courageous	-11.7306
▁accusation	-11.7307
▁mali	-11.7309
▁worship	-11.7311
▁monti	-11.7312
▁digits	-11.7313
▁breed	-11.7314
▁populat	-11.7316
▁brok	-11.732
cast	-11.7322
▁cafe	-11.7322
▁beverages	-11.7323
▁deterioration	-11.7325
▁offensive	-11.7325
▁poultry	-11.7325
lon	-11.7327
▁chapel	-11.733
▁atr	-11.7331
▁puzzle	-11.7335
▁aluminum	-11.7335
▁franc	-11.7335
▁om	-11.7336
▁forcing	-11.7337
neath	-11.7341
▁mono	-11.7344
ala	-11.7345
▁sq	-11.7345
▁enlighten	-11.7345
▁failures	-11.7346
gu	-11.735
▁enact	-11.7352
▁oils	-11.7353
/2000	-11.7356
▁im	-11.7362
ima	-11.7363
▁earliest	-11.7365
▁bor	-11.7366
▁cl	-11.7368
get	-11.737
ther	-11.7371
▁xenophobia	-11.7385
▁flesh	-11.7385
bit	-11.7389
▁acknowledg	-11.7393
▁winds	-11.7396
▁92	-11.7397
▁qualification	-11.7399
▁lee	-11.7404
▁absent	-11.7404
▁encoding	-11.7405
▁scottish	-11.7405
▁lush	-11.7406
key	-11.7406
▁swim	-11.7407
eur	-11.7408
nia	-11.7409
ell	-11.7409
▁prov	-11.7409
▁je	-11.7413
▁rc	-11.7423
▁creditor	-11.7424
bre	-11.7426
▁relay	-11.7426
▁odd	-11.7428
ren	-11.7431
▁bu	-11.7432
my	-11.7432
▁microwave	-11.7435
▁preferabl	-11.7436
▁1982	-11.7438
200	-11.7441
olo	-11.7443
▁patience	-11.7445
▁brave	-11.7449
risen	-11.7449
▁dated	-11.7452
▁nutrient	-11.7455
▁accomplish	-11.7455
▁tall	-11.7456
▁targeting	-11.7456
▁gel	-11.7461
▁destin	-11.7462
▁letting	-11.7463
▁minors	-11.7464
ée	-11.7465
▁hurt	-11.7466
vin	-11.7466
▁jurisdictions	-11.7468
▁pal	-11.7469
▁cala	-11.7474
▁midst	-11.7475
cal	-11.7476
▁sectoral	-11.7479
▁versatile	-11.748
▁tide	-11.7482
ens	-11.7483
▁priests	-11.7485
▁hydraulic	-11.7486
▁fruitful	-11.7488
▁sisters	-11.7493
▁pit	-11.7494
lic	-11.7495
▁vegetarian	-11.7496
▁wheat	-11.7497
▁frontier	-11.7498
▁riders	-11.7503
▁synthetic	-11.7506
▁vegetation	-11.7506
▁medina	-11.7506
▁creature	-11.7512
▁calculations	-11.7512
ny	-11.7513
▁ab	-11.7516
100	-11.7517
▁cereals	-11.7518
▁mall	-11.7518
▁har	-11.752
▁forefront	-11.7526
▁fortune	-11.7527
▁josé	-11.7529
▁capitalist	-11.7537
▁neglect	-11.7537
▁ears	-11.7538
▁gu	-11.754
entrepreneurship	-11.7541
stone	-11.7543
▁sar	-11.7544
▁salvation	-11.7547
▁backdrop	-11.7547
burg	-11.7551
▁violated	-11.7554
▁caucasus	-11.7557
▁liberalization	-11.7558
▁albums	-11.7559
▁utilities	-11.7567
▁decentralis	-11.7567
lia	-11.7567
▁sensation	-11.7572
▁sexy	-11.7578
▁catalan	-11.7578
▁appalling	-11.7587
▁verheugen	-11.7587
▁boutiques	-11.7588
55	-11.7591
▁confused	-11.7594
az	-11.7596
▁inherit	-11.7597
▁umbrella	-11.7598
▁multitude	-11.7598
cho	-11.7598
▁sauce	-11.7606
44	-11.7607
▁explosion	-11.7608
▁communicated	-11.761
▁discard	-11.7619
gone	-11.7629
▁quartet	-11.7629
▁somehow	-11.7632
▁associates	-11.7633
▁debit	-11.7633
▁cock	-11.7634
db	-11.7637
▁civilization	-11.764
▁fragment	-11.7645
▁ceilings	-11.7647
▁plot	-11.7649
▁signatures	-11.7649
▁stopping	-11.765
▁ap	-11.765
▁polio	-11.7651
▁carpet	-11.7658
▁navigate	-11.7658
▁slovak	-11.7658
▁dancing	-11.7659
▁pressed	-11.7663
▁propaganda	-11.7669
ue	-11.7671
▁steady	-11.7671
▁additives	-11.7672
▁tolerate	-11.7672
▁trusted	-11.7677
▁bow	-11.7678
▁automation	-11.7682
▁blessing	-11.7682
▁adapter	-11.7695
mu	-11.7695
▁repairs	-11.7697
▁amaze	-11.7699
£	-11.77
49	-11.7706
▁sunset	-11.7707
38	-11.7708
▁appropriately	-11.7709
▁assumption	-11.771
▁donate	-11.771
▁worthwhile	-11.7713
▁enthusiasts	-11.7713
book	-11.7713
▁specialty	-11.7721
▁attributes	-11.7725
▁forgive	-11.7725
▁dri	-11.773
▁acrobat	-11.7731
▁majestic	-11.7733
▁meta	-11.7734
▁waiver	-11.7735
▁dirty	-11.7736
▁publishers	-11.7738
▁shores	-11.7741
▁horizon	-11.7742
▁grab	-11.7742
▁redeem	-11.7748
▁importer	-11.7753
▁2.2	-11.7753
▁va	-11.7754
▁infinite	-11.7755
ata	-11.7758
▁lanka	-11.7758
▁andré	-11.776
▁paste	-11.7762
▁editorial	-11.7763
▁ftp	-11.7765
▁ruin	-11.7767
▁serbian	-11.7767
▁exercised	-11.7769
71	-11.7771
▁reconsider	-11.7773
▁cet	-11.7777
▁rocks	-11.7778
oli	-11.7783
▁fever	-11.7787
▁69	-11.7789
▁node	-11.7792
▁pepper	-11.7794
▁disney	-11.7794
▁hunt	-11.7797
▁relatives	-11.7797
▁dynamics	-11.7798
ating	-11.78
uches	-11.7803
▁linear	-11.7803
▁vigilant	-11.7804
33	-11.7804
▁chains	-11.7808
pl	-11.781
▁tampere	-11.7812
▁detriment	-11.7812
▁swing	-11.7814
▁physically	-11.7815
▁vaccines	-11.7819
▁playa	-11.782
▁civilisation	-11.7822
▁straightforward	-11.7825
▁testimony	-11.7825
▁cite	-11.7828
▁pole	-11.7828
▁poorly	-11.7831
48	-11.7836
▁bills	-11.7838
▁phenomena	-11.7845
▁computing	-11.7846
▁decorative	-11.7846
▁67	-11.7847
▁1981	-11.7847
tin	-11.7848
▁tie	-11.7851
▁lying	-11.7851
▁legendar	-11.7853
▁notices	-11.7855
▁rotarian	-11.7857
▁hoc	-11.7858
▁learnt	-11.7861
▁stamp	-11.7862
.000	-11.7867
/2009	-11.7867
▁97	-11.787
▁northwest	-11.7871
tv	-11.7871
▁outlines	-11.7871
▁configur	-11.7875
▁approx	-11.7879
▁roth	-11.788
▁addict	-11.7885
▁disciplines	-11.7886
68	-11.7887
▁deliberation	-11.7889
▁condemnation	-11.7892
heim	-11.7895
▁tra	-11.7898
▁carriage	-11.7899
▁mould	-11.7903
26	-11.7904
99	-11.7906
▁youtube	-11.7908
yo	-11.7909
▁savour	-11.791
elle	-11.7915
▁santer	-11.7917
▁slogan	-11.792
té	-11.7924
▁referral	-11.7926
▁criticise	-11.7928
▁bangladesh	-11.793
▁charitable	-11.793
▁mediation	-11.7932
▁93	-11.7934
▁spouse	-11.7934
▁blessed	-11.7935
▁cal	-11.7937
▁warranties	-11.7937
▁divorce	-11.7941
▁rebate	-11.7942
▁grows	-11.7943
▁88	-11.7946
name	-11.7948
ux	-11.795
▁pear	-11.7951
▁bur	-11.7952
▁seafood	-11.7952
▁circus	-11.7962
▁grip	-11.7967
▁communicat	-11.7969
▁erect	-11.797
ula	-11.7972
▁envisage	-11.7973
▁hockey	-11.7973
ties	-11.7973
ub	-11.7973
▁holland	-11.7974
illa	-11.7974
▁greet	-11.7974
▁employs	-11.7976
▁workstation	-11.7976
▁ken	-11.7977
▁discourage	-11.7983
del	-11.7989
▁trap	-11.7989
▁ratings	-11.7989
tro	-11.7992
▁philippines	-11.7993
▁fm	-11.7993
og	-11.7993
win	-11.7994
▁courtesy	-11.7994
▁mortalit	-11.7995
▁breakthrough	-11.7998
▁communism	-11.8005
▁funny	-11.8005
▁optimization	-11.8006
▁blu	-11.8009
▁fri	-11.8009
▁lag	-11.8009
▁depriv	-11.8012
▁smoker	-11.8019
▁abu	-11.8021
▁nationalism	-11.8022
-8	-11.8027
▁querie	-11.803
▁perpetrators	-11.803
▁é	-11.803
▁germain	-11.8037
▁insect	-11.8039
▁manipulation	-11.8039
09	-11.8041
room	-11.8046
▁intuitive	-11.8047
web	-11.805
▁slice	-11.805
▁emails	-11.805
/2001	-11.8051
▁sap	-11.8051
▁facto	-11.8053
29	-11.8055
▁explanatory	-11.8058
▁lawrence	-11.8059
soft	-11.806
▁balkan	-11.8064
▁smoothly	-11.8065
ique	-11.8065
▁zoo	-11.8067
▁exemplar	-11.8069
▁gastronomy	-11.8069
▁prosperous	-11.8069
▁beaten	-11.807
▁musician	-11.8071
▁char	-11.8077
▁omission	-11.808
▁neu	-11.8082
▁dictate	-11.8082
▁socket	-11.8086
▁criticised	-11.8087
▁merge	-11.809
▁subsidy	-11.8093
▁directories	-11.8095
▁immigrant	-11.8096
▁oxygen	-11.8101
▁bookings	-11.8109
▁100,000	-11.8109
▁minerals	-11.811
▁resolute	-11.8112
▁louvre	-11.8112
▁electorate	-11.8112
▁maison	-11.8114
▁0.5	-11.8115
▁factories	-11.8116
▁pont	-11.8117
▁cn	-11.812
▁hatred	-11.8123
▁advocat	-11.8129
▁muscle	-11.813
▁microphone	-11.8134
▁miracle	-11.8134
▁uganda	-11.8139
▁surfing	-11.8141
▁gal	-11.8141
▁substantive	-11.8144
▁stuck	-11.8145
▁practic	-11.8145
▁policymaker	-11.8147
▁chad	-11.815
▁manhattan	-11.8155
▁frontiers	-11.8161
▁predominant	-11.8167
▁gar	-11.8174
▁pad	-11.8174
88	-11.8176
wikicars	-11.8178
▁analys	-11.8178
▁robot	-11.8182
▁mann	-11.8186
▁messaging	-11.8188
▁kb	-11.8188
▁woody	-11.8191
▁wales	-11.8192
▁instrumental	-11.8197
▁tear	-11.8197
ika	-11.8198
wi	-11.8198
▁mysterious	-11.8198
▁voluntari	-11.8198
94	-11.8199
▁void	-11.8199
▁exhaust	-11.8205
▁creations	-11.8205
▁inspect	-11.8206
▁gastronomic	-11.8208
▁realiz	-11.8209
▁provoke	-11.8209
▁zip	-11.8214
▁streams	-11.8218
▁fighter	-11.822
▁gnome	-11.8231
▁unequivocal	-11.8231
▁maturity	-11.8232
▁cer	-11.8237
▁abbey	-11.8242
▁harmonization	-11.8242
▁fond	-11.8244
war	-11.8246
sk	-11.8247
directly	-11.825
▁billing	-11.8253
▁radioactive	-11.8253
▁derive	-11.8255
lis	-11.8257
▁concluding	-11.8264
ão	-11.8266
▁coral	-11.8269
▁lap	-11.827
▁cop	-11.827
▁casting	-11.8272
▁dar	-11.8277
▁fauna	-11.8277
tta	-11.8279
▁franco	-11.8279
ven	-11.8279
▁ou	-11.828
▁disturbing	-11.8285
▁spock	-11.8286
▁rival	-11.8289
▁periodic	-11.8294
haus	-11.8296
▁mounting	-11.8296
▁voltage	-11.8297
▁veto	-11.8298
▁1976	-11.8308
ned	-11.8313
▁shots	-11.8317
▁fischler	-11.8319
▁recourse	-11.8319
▁salmon	-11.8319
▁pu	-11.8324
▁mistaken	-11.8324
ken	-11.8335
▁sahara	-11.8336
pol	-11.8336
▁diversifi	-11.8339
▁taxpayer	-11.834
▁stolen	-11.8341
▁supervise	-11.8344
▁observer	-11.8348
▁swap	-11.835
▁beau	-11.8351
▁fantasy	-11.8352
▁syrian	-11.8356
▁jail	-11.8357
37	-11.8357
▁burdens	-11.8361
▁charts	-11.8367
▁attacker	-11.8368
▁bernard	-11.8368
met	-11.8371
▁exercis	-11.8373
▁struggling	-11.8374
▁georgian	-11.8375
▁pastoral	-11.8376
▁somebody	-11.8376
▁cab	-11.8377
▁dg	-11.8379
▁61	-11.838
gra	-11.8381
▁casual	-11.8383
▁thrust	-11.8387
▁monopoli	-11.8388
▁mercy	-11.8393
▁hormone	-11.8396
▁appendix	-11.8396
▁liberation	-11.8397
▁spice	-11.8399
▁thy	-11.8401
tag	-11.8403
▁stresse	-11.8404
▁74	-11.8406
▁browsers	-11.8406
▁covenant	-11.8407
▁soccer	-11.8407
▁transposition	-11.8407
▁bachelor	-11.8407
▁observatory	-11.8407
▁dame	-11.8408
▁thickness	-11.841
▁bombing	-11.8414
▁vo	-11.842
▁purchaser	-11.842
▁cooperat	-11.8421
▁odds	-11.8425
▁borrowing	-11.8427
▁incompatible	-11.8428
▁traceabilit	-11.8432
▁weaker	-11.8432
ole	-11.8435
▁quo	-11.8438
▁happi	-11.8439
▁declining	-11.844
▁firearm	-11.8441
▁migrant	-11.8441
▁cake	-11.8443
06	-11.8462
▁vintage	-11.8463
▁traders	-11.8463
▁bronze	-11.8463
▁drops	-11.8465
▁sentiment	-11.8469
▁playstation	-11.8475
▁endorsement	-11.8476
▁outer	-11.8477
▁extraction	-11.8478
br	-11.8482
▁yacht	-11.8486
▁1975	-11.8486
▁storey	-11.8487
▁nh	-11.849
ello	-11.849
▁underestimate	-11.849
▁longest	-11.8492
▁disarmament	-11.8496
▁balconies	-11.8496
▁mosque	-11.8496
▁bedding	-11.8498
▁neighbor	-11.8498
▁sainte	-11.85
▁apt	-11.8501
▁tray	-11.8504
"	-11.8504
ay	-11.8506
▁paramount	-11.8507
▁bistro	-11.8507
ale	-11.8508
▁judg	-11.851
▁enshrin	-11.851
▁deepen	-11.8514
]	-11.8516
▁chris	-11.8517
▁chicago	-11.8519
▁invoke	-11.8519
▁intensify	-11.8519
har	-11.852
▁corners	-11.8525
▁bilingual	-11.8529
▁encompass	-11.8529
▁remedies	-11.8534
▁mapping	-11.8536
gg	-11.8537
▁ve	-11.8537
▁successor	-11.8538
▁triumph	-11.8541
gs	-11.8541
▁outskirts	-11.8541
▁anytime	-11.8541
▁provisional	-11.8541
-20	-11.8543
see	-11.8549
▁rustic	-11.8551
▁istanbul	-11.8552
▁seamless	-11.8552
▁basilica	-11.8552
▁brick	-11.8555
▁equitabl	-11.8557
▁midi	-11.8562
stitution	-11.8562
▁masterpiece	-11.8564
▁remuneration	-11.8564
▁fonts	-11.8564
▁educator	-11.8564
▁rap	-11.8565
▁patrick	-11.8575
▁obligatory	-11.8575
▁expose	-11.8578
▁lighter	-11.8579
▁clip	-11.858
▁contractors	-11.8581
▁albert	-11.8582
„	-11.8586
▁triangle	-11.8586
▁knock	-11.8586
▁rooftop	-11.8586
/2008	-11.8589
▁upgraded	-11.8591
▁reaffirm	-11.8593
▁criticisms	-11.8596
▁miami	-11.8597
▁han	-11.86
.50	-11.8604
án	-11.8614
77	-11.8616
▁metre	-11.8617
▁merg	-11.8622
▁broke	-11.8623
▁ineffective	-11.8626
▁irregular	-11.8628
▁temptation	-11.8632
▁accreditation	-11.8633
▁premiere	-11.8633
solvency	-11.8639
▁2.4	-11.864
▁greeting	-11.8641
▁pub	-11.865
47	-11.865
▁upward	-11.8651
▁attorney	-11.8654
▁idyllic	-11.8654
46	-11.8658
▁potato	-11.866
▁bri	-11.8661
▁hedge	-11.8665
▁shanghai	-11.8665
▁cc	-11.8667
▁extensions	-11.867
crtc	-11.8671
▁em	-11.8674
▁floating	-11.8675
▁contractor	-11.8676
▁bikes	-11.8677
▁dependency	-11.8677
▁phases	-11.8681
▁clinics	-11.8684
▁cro	-11.8684
▁pie	-11.8685
▁dns	-11.8688
▁surrender	-11.8688
▁waterfall	-11.8689
85	-11.8693
cia	-11.8694
▁contradict	-11.8694
▁disruption	-11.8699
▁costume	-11.8699
advocacy	-11.87
▁responsive	-11.87
▁focal	-11.87
▁router	-11.8704
▁priced	-11.8705
▁eg	-11.8707
ator	-11.8708
▁duo	-11.8708
ric	-11.8709
▁injection	-11.8711
▁donat	-11.8712
▁leap	-11.8713
▁malaysia	-11.8717
▁bud	-11.8718
▁08:00	-11.8722
▁scatter	-11.8723
▁cruel	-11.8724
▁bak	-11.8725
▁printers	-11.8727
▁specialise	-11.8727
▁yemen	-11.8727
▁plateau	-11.8728
aw	-11.8731
,00	-11.8732
▁identifier	-11.8733
▁cambridge	-11.8734
▁aerial	-11.8734
hl	-11.8738
▁accelerated	-11.874
▁cr	-11.8743
▁champions	-11.8744
▁bail	-11.8745
ú	-11.8745
▁feast	-11.8745
▁realization	-11.8747
.10	-11.8748
01	-11.8748
▁laurent	-11.8748
▁massages	-11.8749
▁vegas	-11.875
▁bundle	-11.875
oo	-11.8751
ring	-11.8753
▁tiles	-11.8756
via	-11.8757
▁barack	-11.8759
▁emperor	-11.8768
lt	-11.8768
▁shaping	-11.8768
▁reinforc	-11.8769
▁airways	-11.8769
▁seville	-11.8769
▁bali	-11.8772
▁venues	-11.8773
etc	-11.8773
▁vendors	-11.8775
▁conquer	-11.8778
▁interoperabil	-11.878
▁scenic	-11.878
▁rrsp	-11.878
▁accumulate	-11.8781
▁licenses	-11.8786
pen	-11.8787
▁lamp	-11.879
▁twitter	-11.8791
▁rocket	-11.8792
▁header	-11.8792
▁joe	-11.8792
▁hamburg	-11.8793
▁foam	-11.8794
erie	-11.8801
▁volcano	-11.8802
▁neglected	-11.8802
▁racial	-11.8803
▁horn	-11.8804
▁civic	-11.8804
▁palma	-11.881
▁enjoyment	-11.8813
▁eucharist	-11.8814
▁ministri	-11.8815
▁insulation	-11.8816
▁hook	-11.8826
▁akvis	-11.8826
▁undermining	-11.8826
▁teaches	-11.8827
▁mor	-11.8829
▁cho	-11.8832
▁hits	-11.8837
▁authoritarian	-11.8837
▁gare	-11.8839
▁secrets	-11.8841
▁sons	-11.8841
▁bas	-11.8841
▁amp	-11.8842
▁84	-11.8846
▁comitology	-11.8849
▁plasma	-11.8849
▁racist	-11.885
▁slim	-11.8853
▁supportive	-11.8854
▁useless	-11.8863
ska	-11.8864
▁springs	-11.8866
▁painter	-11.8868
▁unchanged	-11.8872
▁motogp	-11.8872
▁memorandum	-11.8873
▁pollut	-11.8873
▁boil	-11.8878
▁ext	-11.8881
▁tur	-11.8882
▁disciplinar	-11.8884
▁avi	-11.8885
ori	-11.8887
▁worrie	-11.8889
▁hero	-11.8891
▁knights	-11.8891
▁folders	-11.8894
▁allergy	-11.8896
▁banning	-11.8896
▁drum	-11.8896
▁retir	-11.8899
▁tunisian	-11.89
23	-11.8905
▁rhine	-11.8905
▁dynamism	-11.8907
▁builder	-11.8908
▁loads	-11.891
dia	-11.8911
▁portage	-11.8911
▁electronical	-11.8913
▁physics	-11.8919
▁lille	-11.892
▁128	-11.892
▁deplet	-11.8922
▁creatures	-11.8924
▁supplying	-11.8928
▁arrow	-11.8929
▁ze	-11.893
▁downturn	-11.8931
▁af	-11.8933
▁systemic	-11.8935
▁wolf	-11.8936
▁counterfeit	-11.8937
▁fishery	-11.8939
▁eec	-11.8941
▁invisible	-11.8943
▁clearance	-11.8943
▁1983	-11.8944
▁vibration	-11.8945
▁sta	-11.8945
▁naval	-11.8949
▁aging	-11.8949
▁pretend	-11.895
▁appealing	-11.8954
▁toolbar	-11.8956
▁succession	-11.8964
ière	-11.8965
▁composite	-11.8966
su	-11.8968
▁addiction	-11.8969
halifax	-11.8978
▁fraudulent	-11.8978
▁ridiculous	-11.8978
▁santiago	-11.8978
▁baroness	-11.8978
▁tsx	-11.8978
▁photoshop	-11.8978
▁distribut	-11.898
▁dump	-11.898
▁downward	-11.898
▁pig	-11.898
▁contradictor	-11.8982
▁depict	-11.8982
▁recycled	-11.8983
▁landmark	-11.899
▁babies	-11.8991
▁recordings	-11.8993
▁breathe	-11.8995
▁hose	-11.8996
▁originate	-11.8996
len	-11.8997
▁assembled	-11.8997
lar	-11.8999
▁buenos	-11.9001
▁uranium	-11.9001
▁excise	-11.9001
.-	-11.9002
▁shirt	-11.9003
nu	-11.9003
▁mails	-11.9003
▁perceiv	-11.9004
▁ci	-11.901
tc	-11.9016
▁asean	-11.9017
▁rows	-11.9019
▁exam	-11.9023
▁discrepanc	-11.9025
▁milosevic	-11.9025
▁wheelchair	-11.9025
▁retire	-11.9025
▁politician	-11.9025
▁diploma	-11.9027
▁detrimental	-11.9027
▁pluralis	-11.9036
▁hamper	-11.9037
▁reimbursement	-11.9037
▁trick	-11.9037
▁dev	-11.9038
▁warnings	-11.9044
▁cloning	-11.9048
▁predecessor	-11.9049
▁lobbyist	-11.9052
▁aires	-11.9052
▁insured	-11.9054
▁deduction	-11.9057
▁bananas	-11.9059
▁spark	-11.9059
▁stephen	-11.9061
▁pearl	-11.9064
▁axis	-11.9065
▁footing	-11.9065
▁productions	-11.9065
▁wholesale	-11.9069
▁lg	-11.9075
▁encrypted	-11.9075
▁gt	-11.9077
mus	-11.9081
▁oc	-11.9081
▁forex	-11.9083
▁adhesive	-11.9084
▁stall	-11.9086
▁maple	-11.9089
▁blast	-11.909
▁viewer	-11.9091
▁tooth	-11.9092
▁halls	-11.9094
▁wizard	-11.9096
▁cfsp	-11.9096
▁termination	-11.9097
▁pas	-11.9098
▁florida	-11.9098
▁gray	-11.91
▁76	-11.9102
▁shelf	-11.9102
▁rod	-11.9106
-3	-11.9106
▁stereo	-11.9107
▁guantánamo	-11.9108
▁unconditional	-11.9108
▁clever	-11.9108
▁compression	-11.9109
▁relieve	-11.911
▁commence	-11.9112
tion	-11.9114
bin	-11.9116
▁anna	-11.9117
▁barbecue	-11.912
▁deregulation	-11.912
▁complication	-11.9122
▁consciousness	-11.9123
▁constituents	-11.9123
▁hor	-11.9124
▁deficienc	-11.9126
▁86	-11.9128
ille	-11.913
▁nicolas	-11.9131
▁inuit	-11.9131
▁canoe	-11.9132
▁bishops	-11.9132
▁accidental	-11.9133
▁blogs	-11.9133
ère	-11.9137
▁porte	-11.9137
▁valleys	-11.9138
▁dem	-11.9138
▁lobbying	-11.9142
▁exile	-11.9145
76	-11.9149
▁mergers	-11.9149
cat	-11.915
▁elementary	-11.9153
▁intact	-11.9155
▁bubble	-11.9158
▁gon	-11.9159
▁hydrogen	-11.9166
mac	-11.9167
▁dawn	-11.9169
ans	-11.9172
▁ei	-11.9174
▁vin	-11.9175
▁privately	-11.9176
▁buri	-11.9177
▁palacio	-11.9179
▁puerto	-11.9186
▁denis	-11.9189
▁marseille	-11.9194
▁vineyard	-11.9194
file	-11.9201
▁differentiate	-11.9201
▁charging	-11.9203
▁gbp	-11.9206
▁tutorial	-11.9206
pped	-11.9212
▁judgments	-11.9213
▁avg	-11.9215
gan	-11.9215
▁warsaw	-11.9215
▁illnesses	-11.9217
▁bridal	-11.9227
▁facade	-11.9227
▁ven	-11.9228
▁alcoholic	-11.9231
▁graph	-11.9235
▁shipments	-11.9238
▁wool	-11.9239
▁frustration	-11.9239
▁dispatch	-11.9239
▁destructive	-11.9239
▁ml	-11.9241
▁optimism	-11.9241
▁guild	-11.9242
ice	-11.9244
▁offerings	-11.9245
▁graduates	-11.9248
▁cycles	-11.9248
▁unaids	-11.9251
▁oversight	-11.9251
park	-11.9254
pass	-11.9254
▁mentor	-11.9254
pc	-11.9257
▁inject	-11.926
▁builds	-11.9261
▁qua	-11.9265
▁pest	-11.9267
▁manoeuvre	-11.9268
ball	-11.9268
kk	-11.9268
▁desires	-11.9269
▁mold	-11.9269
▁berg	-11.9275
▁influential	-11.9276
▁mugabe	-11.9276
▁logging	-11.9276
61	-11.9277
▁committ	-11.9279
▁cocoa	-11.9279
▁cement	-11.928
worth	-11.928
▁fox	-11.928
▁potatoes	-11.9281
▁fame	-11.9282
▁cigarettes	-11.9283
▁pp	-11.9287
▁litigation	-11.9288
▁spill	-11.9289
98	-11.9291
▁homepage	-11.9291
▁cofinanc	-11.9295
39	-11.9297
▁distress	-11.9297
▁sen	-11.9298
▁investigating	-11.93
▁spyware	-11.93
▁knee	-11.9303
▁mud	-11.9304
▁angeles	-11.9308
▁authorise	-11.9308
▁assistants	-11.931
▁terminals	-11.932
▁killings	-11.9322
▁scent	-11.9323
▁hull	-11.9323
▁literar	-11.9326
▁fence	-11.9327
▁dip	-11.9332
▁rejecting	-11.9332
▁delet	-11.9335
▁wald	-11.9336
▁clinton	-11.9336
▁5,000	-11.9339
▁counterfeiting	-11.9342
▁loyal	-11.9342
▁poles	-11.9343
▁caves	-11.9349
▁curb	-11.9352
▁designation	-11.9353
▁sec	-11.9355
mas	-11.9358
▁characterize	-11.9359
code	-11.9362
tur	-11.9362
▁analytical	-11.9364
▁mauritania	-11.9368
▁inhabit	-11.9373
▁incidence	-11.9373
▁glance	-11.9373
62	-11.9375
▁vs	-11.9383
▁anxious	-11.9385
▁nokia	-11.9385
aro	-11.9387
▁eurostat	-11.9387
▁mario	-11.9391
▁kings	-11.9395
▁ref	-11.9395
▁habit	-11.9405
▁interiors	-11.9405
▁stove	-11.9408
▁piracy	-11.941
89	-11.9411
▁hol	-11.9411
▁kid	-11.9418
▁breache	-11.942
gate	-11.9421
▁feasibilit	-11.9422
▁malicious	-11.9422
▁unwante	-11.9422
▁creators	-11.9427
▁fertil	-11.9427
▁copying	-11.9429
▁ul	-11.9429
▁oriental	-11.9429
▁prisons	-11.9431
▁slovenian	-11.9431
▁simultaneous	-11.9431
lessness	-11.9432
▁sarge	-11.9434
▁sanctuary	-11.9434
▁precedence	-11.9434
▁privatisation	-11.9434
▁aboard	-11.9437
▁burst	-11.9438
▁rat	-11.9439
rn	-11.9439
▁careers	-11.944
▁mobilise	-11.9444
▁speeds	-11.9446
▁scourge	-11.9446
▁silk	-11.9447
withstand	-11.9449
▁reproduc	-11.9453
▁coating	-11.9458
▁floppy	-11.9459
▁worn	-11.946
▁photographic	-11.9461
▁vault	-11.9462
▁2014	-11.9462
▁cardio	-11.9465
▁strings	-11.9468
▁preferential	-11.9471
▁marathon	-11.9471
▁presidenci	-11.9471
▁unwilling	-11.9471
▁xi	-11.9471
▁respondent	-11.9473
▁faction	-11.9473
▁whoever	-11.948
▁cylinder	-11.9483
▁canvas	-11.9485
▁ngl	-11.9488
▁suppose	-11.949
▁antonio	-11.9492
▁denounce	-11.9495
▁tuberculosis	-11.9496
▁prescribe	-11.9496
▁ozone	-11.9496
▁chest	-11.9501
gue	-11.9503
58	-11.9503
dc	-11.9504
▁ceramic	-11.9504
▁boss	-11.9507
ob	-11.9508
▁kinnock	-11.9508
/2002	-11.9508
▁swarm	-11.9508
town	-11.9511
▁87	-11.9517
▁eric	-11.9517
▁slave	-11.9518
▁balancing	-11.9521
▁gorgeous	-11.9521
43	-11.9522
▁clay	-11.9522
▁tablet	-11.9523
▁steve	-11.9524
▁embryo	-11.9525
▁deduct	-11.9526
iest	-11.9531
rt	-11.9531
▁metropolitan	-11.9533
▁align	-11.9535
▁activat	-11.9535
41	-11.9539
▁wellbe	-11.9541
▁laugh	-11.9545
▁compilation	-11.9545
▁infectious	-11.9545
▁mainstream	-11.9546
▁ballot	-11.9546
chen	-11.9546
▁roadmap	-11.9547
▁needless	-11.9549
media	-11.9557
rio	-11.9558
▁fixes	-11.956
elli	-11.9562
▁dirt	-11.9565
▁parental	-11.9566
▁absorption	-11.957
▁esteem	-11.957
▁aquatic	-11.9571
exe	-11.9575
▁spiral	-11.9576
dorf	-11.9578
▁inspiring	-11.9579
▁censor	-11.9579
▁obsolete	-11.9583
▁striving	-11.9583
▁climatic	-11.9583
▁hither	-11.9584
▁coupon	-11.9585
▁compressor	-11.9585
▁rocky	-11.9591
missible	-11.9595
▁marvellous	-11.9595
▁myanmar	-11.9595
▁safari	-11.9595
▁2,000	-11.9596
▁prospective	-11.9596
▁poet	-11.9603
dev	-11.9603
▁vest	-11.9607
▁implicit	-11.9608
▁moisture	-11.9608
▁slope	-11.9609
▁1967	-11.9609
▁summarize	-11.9612
▁indulge	-11.9613
▁grapes	-11.9616
▁bets	-11.9617
▁ter	-11.9622
▁assent	-11.9622
▁1974	-11.9622
rk	-11.9623
▁anxiety	-11.9624
▁fired	-11.9625
▁bal	-11.9631
▁redundant	-11.9633
▁balls	-11.964
▁lacks	-11.9641
▁steadi	-11.9641
▁gl	-11.9643
▁marginal	-11.9644
ery	-11.9645
▁questionnaire	-11.9645
▁madeira	-11.9645
▁noisy	-11.9646
ible	-11.9646
▁tenth	-11.9649
91	-11.9651
▁passwords	-11.9655
▁jim	-11.9656
ito	-11.9657
▁lean	-11.9661
▁activation	-11.9662
▁roast	-11.9664
▁performs	-11.9667
▁destiny	-11.9667
▁vocal	-11.9669
▁venetian	-11.967
▁novotel	-11.9671
▁accent	-11.9671
▁stupid	-11.9671
▁educate	-11.9673
▁mai	-11.9675
▁duly	-11.9677
▁scar	-11.9677
▁rotation	-11.9681
rès	-11.9682
▁versus	-11.9683
▁snowboard	-11.9683
▁skating	-11.9683
▁sponsorship	-11.9683
▁farmhouse	-11.9684
▁1973	-11.9684
▁kor	-11.9687
▁prevailing	-11.9689
nc	-11.9691
▁deteriorate	-11.9696
▁nu	-11.9699
▁comic	-11.9699
ow	-11.9702
▁73	-11.9702
▁deepening	-11.9704
lle	-11.9704
▁nazi	-11.9706
▁packing	-11.9707
▁escort	-11.9708
▁likelihood	-11.9708
▁pyrenees	-11.9708
▁jungle	-11.9709
▁lightweight	-11.9709
▁hans	-11.9711
tes	-11.9715
▁tiger	-11.9715
bb	-11.9718
▁css	-11.9719
▁combinations	-11.972
offshore	-11.9728
▁redress	-11.9734
▁drying	-11.9743
▁competenc	-11.9747
▁yoga	-11.9747
▁cosmetics	-11.9748
ept	-11.9748
▁overcom	-11.975
▁mercure	-11.9759
▁ville	-11.9761
▁rings	-11.9764
▁chateau	-11.9771
▁impair	-11.9771
▁quotation	-11.9773
▁commandment	-11.9776
yl	-11.9776
▁advancement	-11.9776
ene	-11.9777
▁azerbaijan	-11.9779
▁scrap	-11.9781
59	-11.9783
▁hanging	-11.9784
▁coincide	-11.9787
▁refunds	-11.9787
midst	-11.9788
bach	-11.9795
▁footprint	-11.9797
▁lagoon	-11.9797
▁atomic	-11.9798
▁orthodox	-11.9799
master	-11.9799
▁wired	-11.9802
▁ranked	-11.9805
sson	-11.9805
69	-11.9806
tan	-11.9809
ova	-11.9809
▁confederation	-11.981
▁copied	-11.9816
▁token	-11.9821
▁uv	-11.9822
▁mou	-11.9822
▁brake	-11.9822
▁poetr	-11.9822
▁mozilla	-11.9823
,5	-11.9823
▁geopolitical	-11.9823
▁nest	-11.9824
▁170	-11.9827
▁norm	-11.9828
▁fixing	-11.9832
▁cliff	-11.9834
▁locust	-11.9835
stein	-11.984
▁dressing	-11.9842
▁alien	-11.9843
▁illusion	-11.9844
▁adventures	-11.9845
▁excitement	-11.9848
▁trillion	-11.9848
▁jackson	-11.9849
▁zu	-11.985
▁webmaster	-11.9851
▁projector	-11.9857
▁redirect	-11.9857
▁personalize	-11.9858
ick	-11.986
▁unsatisfactory	-11.9861
▁synergy	-11.9861
▁mobilisation	-11.9862
▁unfold	-11.9863
▁footage	-11.9863
▁satisfying	-11.9865
▁vulnerabiliti	-11.9868
▁sas	-11.987
57	-11.9873
▁poison	-11.9874
▁hiring	-11.9874
eb	-11.9877
▁activist	-11.9877
▁pos	-11.9878
some	-11.9883
▁intolerabl	-11.9883
▁deplore	-11.9884
▁synthesis	-11.9887
,2	-11.9888
▁dom	-11.9889
▁predator	-11.9889
king	-11.989
zz	-11.9892
▁1.4	-11.9893
▁persecut	-11.9897
▁notebook	-11.9898
▁unus	-11.9902
▁proclaimed	-11.9907
▁spirits	-11.9914
▁sword	-11.9915
are	-11.9916
▁approving	-11.9925
▁consortium	-11.9925
▁advisable	-11.9929
▁lessen	-11.993
▁lense	-11.9935
▁alleviate	-11.9935
▁henri	-11.9937
▁mag	-11.9938
▁compliant	-11.9938
▁2.1	-11.994
▁draftsman	-11.994
è	-11.9941
▁sens	-11.9947
▁acoustic	-11.9947
▁rosa	-11.995
▁dictionary	-11.9951
▁exhibitor	-11.9955
73	-11.9958
▁showers	-11.996
▁southeast	-11.9963
▁exhaustive	-11.9965
54	-11.9968
▁cottage	-11.9969
56	-11.997
▁sab	-11.997
ox	-11.9972
tified	-11.9972
▁fiber	-11.9975
▁1977	-11.9978
▁devise	-11.9979
▁demonstrator	-11.998
▁slr	-11.998
▁81	-11.998
▁baden	-11.9981
▁bel	-11.9988
51	-11.999
osa	-11.9993
base	-11.9996
▁kits	-11.9997
▁tempt	-11.9998
▁belle	-12
▁biomass	-12.0003
▁celebrit	-12.0004
▁acclaim	-12.0005
▁deprive	-12.0007
▁fats	-12.001
▁stain	-12.0012
marquis	-12.0012
▁mari	-12.0013
▁csc	-12.0017
int	-12.0017
▁circular	-12.0017
▁94	-12.0018
capable	-12.0021
▁flavor	-12.0021
▁cultivat	-12.0021
ili	-12.0022
▁dismantl	-12.0022
ois	-12.0024
peacekeeping	-12.0025
▁clips	-12.0025
▁allaah	-12.0028
▁indefinite	-12.0029
▁pavilion	-12.0029
▁booklet	-12.003
▁championships	-12.0031
▁rises	-12.0034
▁homosexual	-12.0035
▁devil	-12.0036
▁perfection	-12.0042
▁carlos	-12.0043
fold	-12.0044
▁din	-12.0044
▁petit	-12.0044
▁mpeg	-12.0045
▁degrad	-12.0049
▁executives	-12.0049
▁expectation	-12.0052
▁coaching	-12.0057
ben	-12.0059
▁victor	-12.0061
▁parade	-12.0064
mm	-12.0068
▁domains	-12.0068
▁secrec	-12.0068
▁crossed	-12.0069
▁fingers	-12.0069
rton	-12.0073
▁142	-12.0073
▁refine	-12.0078
▁hurricane	-12.0082
▁2.6	-12.0083
▁overhead	-12.0083
▁surprisingly	-12.0089
▁notable	-12.009
stream	-12.0092
▁gasoline	-12.0095
▁filesystem	-12.0095
▁tent	-12.0096
▁pointer	-12.0099
▁delights	-12.0103
▁seine	-12.0105
▁shed	-12.0106
▁kra	-12.0107
▁shrink	-12.0108
bugtraq	-12.0108
▁palette	-12.0108
more	-12.0109
▁pwc	-12.011
mb	-12.0113
aux	-12.0114
,1	-12.0115
400	-12.0119
▁informative	-12.0122
ban	-12.0124
▁fares	-12.0135
03	-12.0138
▁oct	-12.0141
▁deco	-12.0143
▁homeland	-12.0146
‐	-12.0147
eta	-12.0149
▁proclaim	-12.0153
▁seas	-12.0157
▁cia	-12.0162
▁guesthouse	-12.0162
▁contributors	-12.0164
eg	-12.0165
▁ser	-12.017
group	-12.0171
▁pipes	-12.0173
bluetooth	-12.0174
▁atmospheric	-12.0174
▁expedition	-12.0174
▁hilton	-12.0174
▁catalonia	-12.0174
▁durability	-12.0174
▁ot	-12.0175
▁alpes	-12.0176
tti	-12.018
▁bl	-12.0181
▁growers	-12.0183
▁reset	-12.0184
▁edges	-12.0185
▁nationalist	-12.0186
▁equip	-12.0186
▁remembered	-12.0188
▁750	-12.0189
▁cfp	-12.0189
▁forgetting	-12.0189
▁connects	-12.0194
nor	-12.0196
▁epic	-12.0197
▁wow	-12.02
▁arbitration	-12.02
▁census	-12.02
▁mechanic	-12.0201
▁tabling	-12.0201
▁1968	-12.0201
kar	-12.0203
row	-12.0204
▁sho	-12.0205
▁bother	-12.0205
▁valve	-12.0207
▁sme	-12.0209
▁imbalance	-12.0209
▁slower	-12.0211
▁unambiguous	-12.0214
▁sunshine	-12.0214
42	-12.0216
▁eradicate	-12.0225
▁polar	-12.0225
▁prudent	-12.0227
▁decommission	-12.0227
▁merkel	-12.0227
▁intercultural	-12.0227
▁internship	-12.0227
▁betting	-12.0228
▁olympics	-12.0235
▁interfaces	-12.0236
▁soup	-12.0241
▁rt	-12.0242
▁haute	-12.025
ram	-12.0251
▁salzburg	-12.0253
▁icc	-12.0257
83	-12.0257
▁streamline	-12.0258
bro	-12.0258
gui	-12.0261
ire	-12.0263
▁matrix	-12.0267
▁oslo	-12.0268
07	-12.0268
▁beans	-12.0269
▁gem	-12.027
▁controversy	-12.028
▁hierarchy	-12.028
▁hollywood	-12.028
▁slavery	-12.0281
ofar	-12.0284
▁od	-12.0289
▁writes	-12.0291
▁reef	-12.0296
▁polite	-12.0301
aa	-12.0302
▁techno	-12.0304
ret	-12.0305
space	-12.0305
▁ghost	-12.0306
▁beneficiary	-12.0308
▁cairo	-12.0308
93	-12.031
▁83	-12.0313
▁pakistani	-12.0314
▁brew	-12.0314
▁beam	-12.0316
▁compounds	-12.0316
▁contests	-12.0317
▁catherine	-12.032
▁hypocrisy	-12.032
▁terminology	-12.032
▁slots	-12.0326
▁gre	-12.0326
▁lemon	-12.0326
▁md	-12.0327
ras	-12.0327
▁invention	-12.0333
making	-12.0333
▁cafes	-12.0334
▁exchanged	-12.0337
▁hay	-12.0337
▁ash	-12.034
stat	-12.0341
▁jeopardise	-12.0345
lab	-12.0346
▁incumbent	-12.0347
▁panic	-12.0348
▁89	-12.0349
pin	-12.0353
▁endure	-12.036
▁speedy	-12.0364
,3	-12.0364
ati	-12.0365
▁optimiz	-12.0369
▁intern	-12.037
▁funeral	-12.0374
04	-12.0374
▁tick	-12.0375
▁posters	-12.0378
zen	-12.0378
▁dig	-12.0386
▁unrealistic	-12.0388
▁fingerprint	-12.0388
▁registrar	-12.0388
▁republican	-12.0395
conf	-12.0401
▁ink	-12.0401
▁motors	-12.0402
▁switching	-12.0402
▁thirds	-12.0403
▁catalyst	-12.0403
▁tuscany	-12.0403
ax	-12.0404
▁roger	-12.0406
▁sync	-12.0408
▁fl	-12.0408
▁drastic	-12.0409
▁nervous	-12.0415
▁jones	-12.042
▁petrol	-12.0427
96	-12.0428
▁supranational	-12.0428
▁geography	-12.0429
[	-12.043
▁mike	-12.0431
▁cp	-12.0434
▁wondering	-12.0434
ain	-12.0434
▁float	-12.0435
▁20,000	-12.0438
▁imminent	-12.0442
▁reunification	-12.0442
▁improper	-12.0442
▁motto	-12.0445
▁shifting	-12.0446
▁heal	-12.0448
▁sealed	-12.045
▁bloc	-12.0451
▁antibiotics	-12.0455
▁explosive	-12.0455
▁liabilities	-12.0456
▁beware	-12.0456
▁senses	-12.046
▁astonishing	-12.046
▁inaugurat	-12.0463
gr	-12.0464
▁mango	-12.0464
▁navy	-12.0465
▁rob	-12.0465
▁prints	-12.0466
▁mirrors	-12.0467
▁portray	-12.0468
▁tsunami	-12.0469
▁pamper	-12.0469
▁plague	-12.047
▁competitor	-12.047
▁boston	-12.047
vis	-12.0471
▁apologise	-12.0471
▁everest	-12.0472
▁guards	-12.0474
05	-12.0477
▁invalid	-12.0479
▁fleets	-12.048
▁repent	-12.0483
▁niger	-12.0483
▁gravity	-12.0483
amp	-12.0484
▁leban	-12.0484
ls	-12.0484
▁broadcaster	-12.0486
▁easter	-12.0486
nik	-12.0489
▁typ	-12.0494
▁cats	-12.0495
▁1945	-12.0498
▁reopen	-12.05
ius	-12.0501
▁duplicate	-12.0502
▁raft	-12.0504
nen	-12.051
▁companion	-12.0511
▁interruption	-12.0516
▁reg	-12.0517
ema	-12.0519
▁cheques	-12.052
▁diplomat	-12.0522
▁repeal	-12.0524
tory	-12.0524
▁roam	-12.0527
▁unification	-12.0529
▁revive	-12.0536
▁miser	-12.0537
▁holocaust	-12.0538
▁stuttgart	-12.0538
▁legislature	-12.0538
▁templates	-12.054
▁pol	-12.054
aq	-12.054
▁duke	-12.0541
▁labell	-12.0546
▁modernization	-12.0547
lé	-12.0548
▁trio	-12.0551
▁unresolv	-12.0551
▁metallic	-12.0552
▁elysées	-12.0553
▁repli	-12.0554
▁oceans	-12.0555
▁pod	-12.0557
▁entiret	-12.0561
▁ghana	-12.0565
type	-12.0565
▁rec	-12.0566
▁bonuses	-12.0574
▁sided	-12.0576
▁gaulle	-12.0579
▁erosion	-12.0579
▁bang	-12.0583
▁tony	-12.0585
▁restraint	-12.0586
ges	-12.0588
▁spatial	-12.0593
▁antoine	-12.0593
▁archiv	-12.0595
▁kon	-12.0596
▁overflow	-12.0597
ral	-12.0601
▁calgary	-12.0607
▁mentions	-12.061
▁brass	-12.0614
▁possesse	-12.0614
▁rays	-12.0616
78	-12.0618
▁precarious	-12.062
▁picking	-12.0621
rate	-12.0621
▁divers	-12.0627
sse	-12.0628
š	-12.0628
▁adriatic	-12.0631
▁riad	-12.0633
▁fundraising	-12.0634
▁johannesburg	-12.0634
▁alteration	-12.0639
▁performers	-12.064
din	-12.0643
▁gra	-12.0645
▁turbine	-12.0649
▁cult	-12.065
sha	-12.0656
▁mediator	-12.0658
▁advertiser	-12.066
▁discreet	-12.0662
▁texas	-12.0662
▁validate	-12.0663
▁remainder	-12.0665
▁proportional	-12.0667
▁surge	-12.0672
▁maternity	-12.0676
▁contraception	-12.0676
▁collision	-12.0676
▁screenshots	-12.068
▁backwards	-12.0684
▁beating	-12.0684
▁credentials	-12.0688
▁battlefield	-12.0691
▁incur	-12.0691
▁sanit	-12.0692
▁reinforcement	-12.0692
▁horror	-12.0694
▁heroes	-12.0696
▁descend	-12.07
▁mé	-12.0703
▁supervis	-12.0704
▁biking	-12.0704
▁pvc	-12.0706
▁treats	-12.0709
gl	-12.071
▁croatian	-12.0711
▁explored	-12.0712
html	-12.0714
with	-12.0715
▁doubled	-12.0716
5,000	-12.0717
▁belgrade	-12.0718
▁oppression	-12.0718
▁touring	-12.0719
▁amid	-12.0719
▁abused	-12.0722
▁spontaneous	-12.0732
▁carlo	-12.0735
▁jewel	-12.0736
▁grove	-12.0738
lock	-12.0738
▁vitamins	-12.0743
▁dentist	-12.0747
▁manifestation	-12.0748
▁fool	-12.0749
▁tricks	-12.075
▁insult	-12.0752
▁fc	-12.0753
copter	-12.0758
gel	-12.0758
▁billiard	-12.076
▁pertinent	-12.076
▁seeming	-12.076
▁condom	-12.0762
▁christianity	-12.0765
▁accumulat	-12.0768
▁pixel	-12.0768
▁wrap	-12.077
▁choir	-12.0774
▁tango	-12.0776
▁gloss	-12.0777
▁statistic	-12.078
300	-12.0784
▁supplements	-12.0784
97	-12.0785
▁wonders	-12.0786
▁duplication	-12.0789
▁gimp	-12.0789
▁hungr	-12.0793
▁scholarship	-12.0794
▁ramada	-12.0794
▁armenia	-12.0797
aj	-12.0802
▁accomodation	-12.0803
▁unlock	-12.0804
▁respectful	-12.0805
▁canton	-12.0809
▁gp	-12.0809
▁derivatives	-12.081
▁alain	-12.0811
rp	-12.0813
▁gil	-12.0814
hn	-12.0816
▁bandwidth	-12.0816
▁henry	-12.0816
▁prisoner	-12.0817
▁diversify	-12.0817
eng	-12.0823
ves	-12.0823
`	-12.0827
▁notre	-12.0827
▁cum	-12.0829
▁sonic	-12.0829
▁lever	-12.083
▁monks	-12.083
▁negotiator	-12.083
▁censure	-12.083
▁easies	-12.0834
▁dei	-12.0837
▁vitality	-12.084
▁hal	-12.0842
you	-12.0845
▁rein	-12.0846
var	-12.085
bed	-12.0851
▁princess	-12.0851
▁storing	-12.0854
▁bonn	-12.0855
▁fiction	-12.0856
▁inflict	-12.0858
▁tanzania	-12.0858
▁muscles	-12.0864
▁parcel	-12.0866
cos	-12.0867
▁plains	-12.0871
▁façade	-12.0873
▁energetic	-12.0874
▁crafts	-12.0877
ious	-12.0878
pf	-12.088
▁incomprehensibl	-12.088
▁bankers	-12.0886
▁abundance	-12.0887
▁panasonic	-12.0887
▁apparatus	-12.0887
▁lido	-12.089
▁zo	-12.089
▁bypass	-12.0895
▁earning	-12.0896
▁flame	-12.0898
▁dense	-12.0901
▁workflow	-12.0904
▁1.6	-12.0905
▁organisational	-12.0909
map	-12.091
▁bicycles	-12.0911
▁shortages	-12.0912
▁algerian	-12.0913
▁oracle	-12.0915
▁rename	-12.0919
pot	-12.0919
▁fines	-12.0919
end	-12.0922
▁convictions	-12.0922
mic	-12.0923
light	-12.0924
▁servant	-12.0924
▁1.8	-12.0924
▁kam	-12.0924
▁manor	-12.0927
▁yea	-12.0928
part	-12.0928
▁blizzard	-12.093
▁cholesterol	-12.093
▁liaison	-12.093
::	-12.0931
▁1972	-12.0931
uf	-12.0931
87	-12.0934
▁aroma	-12.0934
▁brokers	-12.0936
▁researcher	-12.0938
▁releas	-12.0939
▁......	-12.0941
ado	-12.0941
▁volatility	-12.0944
▁entrant	-12.0944
▁flour	-12.0944
▁clash	-12.0944
trans	-12.0944
▁stagnat	-12.0945
▁pier	-12.0946
ore	-12.0947
▁3000	-12.0948
ratom	-12.0949
▁hello	-12.0949
▁universit	-12.095
▁peel	-12.0953
▁levy	-12.0954
▁antenna	-12.0958
▁jacob	-12.0958
▁esp	-12.0963
ela	-12.0963
▁ros	-12.0963
▁turbo	-12.0966
trium	-12.0968
▁zi	-12.0971
▁respirator	-12.0973
▁06:00	-12.0973
▁connectivity	-12.0973
▁5000	-12.0975
▁revealing	-12.0977
gy	-12.098
▁berlusconi	-12.0987
▁nourish	-12.0987
gau	-12.0989
▁exacerbate	-12.0991
▁chess	-12.0993
▁leon	-12.0995
una	-12.0997
▁neighbors	-12.0998
▁institut	-12.0999
▁sr	-12.1001
▁outgoing	-12.1001
▁fierce	-12.1002
▁guideline	-12.1005
▁grape	-12.1007
▁pause	-12.1008
500	-12.1012
▁lion	-12.1013
ward	-12.1013
▁knot	-12.1013
▁ramp	-12.1015
▁tarifa	-12.1016
▁breathing	-12.1019
▁reap	-12.1021
▁seniors	-12.1023
▁consultanc	-12.1024
▁newfoundland	-12.103
▁loft	-12.103
▁fra	-12.1043
▁esc	-12.1043
84	-12.1044
▁queue	-12.1045
otonou	-12.1046
grad	-12.1047
▁canyon	-12.1047
▁yourselve	-12.1047
▁upgrades	-12.1048
▁cons	-12.1049
▁pronounced	-12.1053
eh	-12.1054
▁disconnect	-12.1055
▁apprenticeship	-12.1059
▁patron	-12.1059
▁resemble	-12.106
▁dm	-12.1062
▁soak	-12.1063
▁scholars	-12.1064
▁canary	-12.1065
▁acids	-12.1067
▁nurs	-12.107
▁generosity	-12.1073
minance	-12.1074
▁alex	-12.1075
▁psp	-12.1075
▁atlas	-12.1075
▁1920	-12.1078
▁vitally	-12.1078
▁skate	-12.1079
▁curtain	-12.1081
▁4.5	-12.1082
▁subscribers	-12.1083
▁nominal	-12.1088
▁uncover	-12.1088
▁attache	-12.109
▁calorie	-12.1091
▁mars	-12.1093
xi	-12.1097
▁karl	-12.1098
▁cereal	-12.11
shop	-12.1102
▁advancing	-12.1102
▁pyramid	-12.1102
▁bind	-12.1104
▁assertion	-12.1106
▁excited	-12.1109
forehand	-12.1111
▁justifie	-12.1116
▁entitlement	-12.1117
▁migrator	-12.1122
▁fer	-12.1122
▁hath	-12.1124
▁dvds	-12.1128
active	-12.1128
▁uzbekistan	-12.1131
▁fraction	-12.1132
▁yahoo	-12.1133
▁imperialist	-12.1133
▁deed	-12.1133
▁hint	-12.1134
▁quit	-12.1138
▁perfume	-12.114
▁ic	-12.1142
▁mel	-12.1143
▁fetch	-12.1144
▁plantation	-12.1144
▁magnitude	-12.1146
▁aspire	-12.1146
▁fellowship	-12.1148
gia	-12.115
▁1500	-12.115
▁sm	-12.115
▁weakening	-12.1153
▁mare	-12.1153
▁thrill	-12.1156
▁conversations	-12.1157
▁rogers	-12.1159
▁responsib	-12.116
▁petroleum	-12.1161
▁diagnose	-12.1162
▁handbook	-12.1167
▁taxis	-12.1168
▁encode	-12.1169
uch	-12.117
▁ranges	-12.1171
,8	-12.1173
▁kw	-12.1174
▁statue	-12.1174
▁overhaul	-12.1175
▁entrepreneurial	-12.1175
lit	-12.118
▁bru	-12.118
▁authorize	-12.1184
▁rer	-12.1185
▁beginners	-12.1185
▁ker	-12.1185
▁preach	-12.1186
ological	-12.1188
79	-12.1188
▁cgi	-12.1189
lli	-12.1189
▁wings	-12.119
▁emergencies	-12.119
▁insulin	-12.1191
▁polls	-12.1191
mel	-12.1192
▁scored	-12.1193
▁incorporation	-12.1195
▁strategical	-12.1196
▁med	-12.12
▁embodie	-12.1205
▁invoices	-12.1208
▁slides	-12.1208
▁pasta	-12.121
▁149	-12.121
▁welding	-12.1211
▁jr	-12.1211
aya	-12.1212
ere	-12.1214
▁91	-12.1217
▁confusing	-12.1219
▁fluctuations	-12.1219
▁12:00	-12.1221
▁unload	-12.1221
pat	-12.1224
▁quicker	-12.1226
peg	-12.1229
▁cosmopolitan	-12.1234
▁prevalence	-12.1234
▁consular	-12.1234
▁pollutants	-12.1235
▁eighth	-12.1236
▁versa	-12.1237
▁processors	-12.1242
▁polluter	-12.1246
▁ignor	-12.1247
▁rendering	-12.1247
▁aggression	-12.1249
▁sydney	-12.1249
▁indicative	-12.125
▁newcomer	-12.1252
▁verse	-12.1252
▁riot	-12.1255
63	-12.1261
▁swallow	-12.1263
▁ingredient	-12.1264
max	-12.1264
▁barnier	-12.1266
bri	-12.1266
▁suck	-12.1267
▁clearing	-12.1271
dir	-12.1273
▁salvador	-12.1278
▁logged	-12.1278
▁yugoslav	-12.1279
▁ren	-12.128
▁catching	-12.1283
shot	-12.1284
ila	-12.1285
▁tire	-12.1286
▁monumental	-12.1286
ller	-12.1288
oro	-12.1288
▁bolkestein	-12.1293
▁frattini	-12.1293
▁harness	-12.1295
▁economist	-12.1297
▁thirteen	-12.1308
▁ibiza	-12.1308
▁realism	-12.131
▁daylight	-12.1313
▁sixty	-12.1314
▁penal	-12.1314
jet	-12.1314
▁outdoors	-12.1316
▁upstream	-12.1321
▁edf	-12.1323
▁amazon	-12.1325
▁angola	-12.1331
▁boots	-12.1333
▁mitigate	-12.1334
▁devis	-12.1334
▁rev	-12.1335
▁picard	-12.1338
▁scandalous	-12.1338
▁stan	-12.1339
▁monster	-12.1339
▁mattress	-12.1339
▁rouge	-12.134
▁dimensional	-12.134
▁colony	-12.1347
▁characterise	-12.1352
▁cursor	-12.1353
▁passports	-12.1353
▁hostile	-12.1354
hof	-12.1355
kan	-12.1356
▁casinos	-12.1357
pr	-12.1364
▁mainland	-12.1364
▁pockets	-12.1365
▁articulate	-12.1369
▁pri	-12.1375
▁circulat	-12.1376
▁sil	-12.1377
▁stems	-12.1379
▁richness	-12.138
rr	-12.1382
▁repressive	-12.1383
▁obey	-12.1383
ians	-12.1384
▁sighted	-12.1385
▁domaine	-12.1386
▁analyz	-12.1386
▁unrest	-12.1387
rat	-12.139
▁guatemala	-12.1392
▁packaged	-12.1392
▁rigour	-12.1397
▁nineteenth	-12.1398
cf	-12.1402
▁stir	-12.1402
took	-12.1406
▁caring	-12.1406
▁metric	-12.1409
▁gst	-12.141
ories	-12.1412
▁sumptuous	-12.1412
▁delicaci	-12.1412
▁intolerance	-12.1412
▁stomach	-12.1412
▁psychology	-12.1412
▁granada	-12.1412
▁conceptual	-12.1413
▁ballet	-12.1415
pan	-12.1416
▁advantageous	-12.1418
▁spectacle	-12.1427
▁slowdown	-12.1427
ault	-12.1429
▁beverage	-12.143
gin	-12.1431
▁differs	-12.1431
ack	-12.1432
▁auditor	-12.1434
▁realisation	-12.1437
▁pubs	-12.1438
lay	-12.1438
ico	-12.1439
▁dilemma	-12.1442
▁sharon	-12.1443
▁dwelling	-12.1443
fl	-12.1444
▁publishe	-12.1449
▁tanker	-12.1452
▁widen	-12.1452
▁itinerar	-12.1454
tl	-12.1456
▁indonesian	-12.1456
▁marrakech	-12.1457
▁erasmus	-12.1457
▁crossroads	-12.1465
▁reside	-12.1466
fish	-12.1467
▁conservator	-12.1471
▁organizers	-12.1471
▁totalitarian	-12.1472
▁disposition	-12.1472
ants	-12.1472
▁ethernet	-12.1472
oboda	-12.1473
▁leonardo	-12.1474
aria	-12.1474
▁blanket	-12.1475
bet	-12.1476
▁ritual	-12.1476
▁stardoll	-12.1477
gradation	-12.1481
▁ordering	-12.1485
▁cameroon	-12.1487
▁expulsion	-12.1487
▁seattle	-12.1488
mis	-12.1489
▁zend	-12.149
▁pills	-12.1491
▁mansion	-12.1492
▁fertilizer	-12.1493
▁gauge	-12.1496
▁lender	-12.1497
▁drift	-12.1498
▁kiss	-12.1498
▁rotat	-12.1499
▁herbs	-12.1499
cr	-12.1502
▁renting	-12.1502
▁manchester	-12.1502
▁chrome	-12.1503
▁proportionate	-12.1504
▁calculator	-12.1507
▁armenian	-12.1508
▁digit	-12.1509
▁envelope	-12.1516
over	-12.1517
▁textures	-12.1523
▁zen	-12.1523
▁hiding	-12.1524
74	-12.1524
ill	-12.1529
▁bloom	-12.1532
▁antwerp	-12.1533
▁efficacy	-12.1533
▁ambient	-12.1533
▁wal	-12.1533
▁gazette	-12.1533
▁chin	-12.1534
-4	-12.1534
▁optic	-12.1539
ude	-12.154
▁bunch	-12.154
▁shocks	-12.1542
▁norwegian	-12.1548
▁mazda	-12.1548
▁wax	-12.1551
▁kat	-12.1552
▁pumps	-12.1553
▁practis	-12.1553
▁pizza	-12.1554
▁accuse	-12.1554
72	-12.1555
▁accede	-12.1557
▁condoms	-12.1557
▁reseller	-12.1558
▁hy	-12.1559
▁hail	-12.156
▁rossi	-12.1561
▁utilize	-12.1562
▁commented	-12.1562
▁terra	-12.1563
▁bombs	-12.1563
▁burmese	-12.1563
▁surgical	-12.1563
▁leasing	-12.1563
▁hostilit	-12.1565
cap	-12.1566
▁fe	-12.1567
▁shareholder	-12.1569
▁replies	-12.1569
▁lama	-12.157
club	-12.1575
▁tuscan	-12.1576
▁chant	-12.1577
▁evolio	-12.1578
▁symposium	-12.1578
▁brasserie	-12.1578
▁watson	-12.1578
▁doorstep	-12.1579
asa	-12.158
▁inches	-12.158
▁barber	-12.1586
,7	-12.1586
zer	-12.1588
▁reluctant	-12.159
▁concerted	-12.159
-10	-12.1591
valuable	-12.1592
▁repertoire	-12.1594
▁intensifie	-12.1594
▁freezing	-12.1594
▁1971	-12.1595
▁traded	-12.1597
▁exhibits	-12.1601
▁avail	-12.1603
▁aforemention	-12.1609
▁testament	-12.1609
▁protectionist	-12.1609
▁heights	-12.1609
▁facial	-12.1609
app	-12.1612
▁forgot	-12.1616
▁sentenc	-12.1617
▁realis	-12.1617
▁flex	-12.1618
bank	-12.1622
▁deliverie	-12.1623
▁enlarge	-12.1623
▁illicit	-12.1624
▁ignorance	-12.1624
▁rolls	-12.1626
▁lin	-12.1626
▁gis	-12.1627
02	-12.163
▁dna	-12.163
▁beams	-12.1635
▁redesign	-12.1641
▁personalis	-12.1641
bal	-12.1642
gon	-12.1644
▁meda	-12.1644
▁hammer	-12.1645
▁res	-12.1647
▁accountant	-12.1651
▁impede	-12.1652
▁benjamin	-12.1655
▁defensive	-12.1655
▁outdated	-12.1655
▁lane	-12.1655
▁alignment	-12.1655
▁mathematic	-12.1656
▁verbal	-12.1662
▁steer	-12.1663
/2003	-12.1664
▁projections	-12.1667
▁modernise	-12.1667
▁kin	-12.1668
▁extradition	-12.167
▁smuggling	-12.167
▁communal	-12.1672
rum	-12.1672
▁mainstreaming	-12.1673
point	-12.1674
▁khan	-12.1676
▁permitt	-12.1677
▁battles	-12.1677
▁darkness	-12.1681
/10	-12.1685
▁cellular	-12.1688
▁lawn	-12.169
.30	-12.1692
▁lined	-12.1694
▁cables	-12.1696
▁matt	-12.1698
▁oxford	-12.1701
▁cordial	-12.1701
▁magnet	-12.1704
ivoire	-12.1704
▁arose	-12.171
▁pac	-12.1712
▁bucharest	-12.1716
▁volcanic	-12.1716
▁violin	-12.1718
▁unequal	-12.1719
▁mir	-12.1722
ave	-12.1727
▁neat	-12.1727
▁shocking	-12.1728
ré	-12.1729
▁chernobyl	-12.1732
▁obesity	-12.1732
▁accomplishment	-12.1733
▁jewellery	-12.1734
81	-12.1736
rel	-12.1737
▁lang	-12.1738
▁lung	-12.1738
▁agro	-12.1741
▁crush	-12.1743
▁poettering	-12.1747
lausanne	-12.1748
▁repayment	-12.1748
▁garde	-12.1749
php	-12.1751
▁coache	-12.1751
▁tc	-12.1753
▁neuro	-12.1755
▁cultivate	-12.1756
▁flyer	-12.1757
▁humane	-12.1758
mount	-12.1761
▁bloody	-12.1765
run	-12.1767
ets	-12.1774
oon	-12.1776
▁strips	-12.1777
▁resin	-12.1783
ception	-12.1785
▁issuer	-12.1785
▁reciprocal	-12.1786
▁pave	-12.1788
▁pond	-12.1789
▁combustion	-12.1794
▁outreach	-12.1794
▁syntax	-12.1794
▁rub	-12.1797
▁portraits	-12.1799
▁relian	-12.1801
▁manuel	-12.1803
bility	-12.1805
ches	-12.1805
right	-12.1806
ks	-12.1806
▁centralis	-12.1807
▁yu	-12.1808
▁savage	-12.181
▁0.1	-12.181
▁pes	-12.1812
game	-12.1812
▁vincent	-12.1812
▁crude	-12.1813
▁remedi	-12.1821
▁pound	-12.1825
▁resumption	-12.1825
▁uncontroll	-12.1825
▁spotlight	-12.1825
▁trunk	-12.1826
doc	-12.1827
▁cida	-12.1835
gie	-12.1836
▁leone	-12.1839
▁wallpaper	-12.1841
▁bolivia	-12.1841
▁dominican	-12.1844
▁discriminate	-12.1848
▁therein	-12.1853
otti	-12.1853
,4	-12.1853
▁mana	-12.1854
▁windsurf	-12.1856
▁intimidation	-12.1857
▁chemistry	-12.1859
▁interactions	-12.1867
▁believ	-12.1868
,6	-12.1875
▁math	-12.1877
▁phare	-12.1881
▁motorways	-12.1883
▁contributor	-12.1885
iel	-12.1887
▁positioning	-12.1888
▁machin	-12.1889
▁touristic	-12.189
▁3,000	-12.1891
▁winding	-12.1896
▁admin	-12.1898
▁conferr	-12.1899
▁yard	-12.1899
▁enchant	-12.19
▁unjustifi	-12.19
▁plastics	-12.19
▁mate	-12.1903
▁junction	-12.1903
▁avant	-12.1904
ington	-12.1905
▁polymer	-12.1906
▁um	-12.191
▁cliffs	-12.1911
▁mast	-12.1914
▁wiki	-12.1915
▁ji	-12.1917
▁wager	-12.1918
▁rectify	-12.1919
▁sampling	-12.1919
▁resurrection	-12.192
▁boring	-12.1922
▁kindly	-12.1923
▁underwater	-12.1929
▁vines	-12.1933
▁ccd	-12.1934
▁extremism	-12.1935
▁flowing	-12.1938
▁hof	-12.1939
▁toilets	-12.1941
▁constrain	-12.1942
day	-12.1943
▁sensors	-12.1946
cp	-12.1946
▁dine	-12.1947
▁landfill	-12.1951
▁airspace	-12.1954
▁sard	-12.1966
▁congregation	-12.1967
▁tranquillity	-12.1967
▁integer	-12.1967
▁mercosu	-12.1967
▁comp	-12.1967
▁deletion	-12.1972
▁intervals	-12.1972
▁automate	-12.1973
▁borg	-12.1974
bl	-12.1976
▁catastrophic	-12.1982
▁concierge	-12.1982
▁inconsistent	-12.1982
▁wilderness	-12.1982
▁bruges	-12.1982
▁rediscover	-12.1983
▁starr	-12.1983
▁unsustainable	-12.1983
▁irc	-12.1983
▁rewarding	-12.1984
▁sundays	-12.1985
▁damn	-12.1987
▁bis	-12.1988
▁columbus	-12.1998
▁hamilton	-12.1998
▁ascertain	-12.1998
▁palazzo	-12.1998
▁standpoint	-12.2
nz	-12.2001
design	-12.2002
enberg	-12.2004
tter	-12.2008
▁ré	-12.2009
▁levi	-12.201
▁soothing	-12.2014
▁calcium	-12.2014
▁mushroom	-12.2014
▁erika	-12.2016
▁tcp	-12.2016
▁paradoxical	-12.2017
▁compelling	-12.2019
▁altar	-12.2021
plus	-12.2022
▁gum	-12.2024
▁survivors	-12.2028
▁dome	-12.2029
▁pcs	-12.2029
▁pivot	-12.203
▁urging	-12.203
▁nigerian	-12.203
▁knife	-12.2032
▁sailor	-12.2033
▁masses	-12.2036
▁bones	-12.2037
▁manipulate	-12.2044
▁athletic	-12.2046
▁saskatchewan	-12.2046
▁nouveau	-12.2046
▁balloon	-12.2046
▁pardon	-12.2047
▁sto	-12.2055
92	-12.2057
▁analysts	-12.2058
ido	-12.2061
▁spells	-12.2062
▁kazakhstan	-12.2062
▁shirts	-12.2063
▁trim	-12.2065
▁collaborat	-12.2066
▁brittany	-12.2068
▁herbal	-12.207
▁refresh	-12.2078
▁nano	-12.2078
▁dividing	-12.2078
▁fourteen	-12.2078
▁congestion	-12.2078
▁irrigation	-12.2078
▁expell	-12.208
▁mailbox	-12.2081
▁reactors	-12.2082
existence	-12.2084
bert	-12.2087
▁curl	-12.2087
▁natura	-12.2091
▁itunes	-12.2091
▁roy	-12.2092
▁tactical	-12.2093
▁volatile	-12.2094
▁dubious	-12.2094
sta	-12.2097
▁belarusian	-12.2098
▁enclos	-12.21
▁turin	-12.2107
▁conf	-12.2107
▁kur	-12.2107
▁verdict	-12.211
▁aparthotel	-12.2113
▁stairs	-12.2119
▁minimise	-12.212
▁editors	-12.2126
▁bol	-12.213
▁armor	-12.2138
▁aligned	-12.214
▁sakharov	-12.2142
▁naked	-12.2142
▁disturbance	-12.2142
▁redistribution	-12.2143
▁3.1	-12.2145
▁populist	-12.2147
sselt	-12.2147
0.00	-12.2148
▁pilots	-12.2152
▁residences	-12.2154
▁alliances	-12.2155
▁eminent	-12.2158
▁unleash	-12.2158
rb	-12.2159
▁excursion	-12.2159
▁cushion	-12.216
▁firmware	-12.2161
▁heater	-12.2168
▁whirlpool	-12.2175
▁hyperlink	-12.2175
iac	-12.218
flanders	-12.2183
▁descent	-12.2186
▁nuts	-12.2186
▁travelle	-12.2187
▁ceasefire	-12.2191
▁solemn	-12.2191
▁flair	-12.2191
tri	-12.2191
▁vir	-12.2192
▁receiver	-12.2193
zu	-12.2195
▁rica	-12.2197
▁epp	-12.2198
▁nick	-12.2198
▁sunni	-12.22
▁lamps	-12.2201
▁divert	-12.2203
▁isolate	-12.2204
▁taylor	-12.2207
▁flagship	-12.2208
▁glove	-12.2212
▁frost	-12.2212
▁sy	-12.2214
▁trapp	-12.2216
▁sins	-12.2216
▁sing	-12.2217
ern	-12.2218
▁colorful	-12.222
▁versaille	-12.2223
▁humidity	-12.2225
▁rim	-12.2225
▁qatar	-12.2227
▁andrew	-12.2227
▁rounds	-12.223
320	-12.2231
host	-12.2231
▁logs	-12.2232
ij	-12.2232
▁castro	-12.2236
▁skip	-12.2238
▁bustl	-12.2239
▁kremlin	-12.2239
▁glorious	-12.2239
lib	-12.224
▁dictator	-12.2242
▁etch	-12.2244
vented	-12.2249
▁0.00	-12.2251
▁streamlin	-12.2253
▁imposition	-12.2256
▁resignation	-12.2257
ssa	-12.226
▁mom	-12.2261
▁wit	-12.2264
▁torn	-12.2265
▁standardisation	-12.2268
▁freezer	-12.2269
▁lecture	-12.2269
▁enhances	-12.227
▁rimini	-12.2272
▁summits	-12.2272
▁uninstall	-12.2273
▁fifa	-12.2274
▁discs	-12.2275
▁worsen	-12.2277
▁dispariti	-12.2279
▁terre	-12.2283
▁dies	-12.2284
vel	-12.2288
▁cleansing	-12.229
▁underpin	-12.2295
▁adjourned	-12.2298
▁vent	-12.2304
▁reconstruct	-12.2304
▁rotterdam	-12.2305
▁friendliness	-12.2305
▁regulator	-12.2315
▁richer	-12.232
▁ctrl	-12.2321
sel	-12.2321
▁improvisation	-12.2322
▁strand	-12.2323
▁plea	-12.2327
uff	-12.2327
▁fled	-12.2328
mc	-12.233
▁cites	-12.2332
▁scans	-12.2334
wan	-12.2336
▁summarise	-12.2336
▁shipbuilding	-12.2338
▁suffice	-12.2338
▁charities	-12.2338
▁embrac	-12.2339
tain	-12.234
▁loire	-12.234
▁prediction	-12.234
▁lar	-12.234
▁variant	-12.2341
▁securely	-12.2345
▁scam	-12.2352
▁multidisciplin	-12.2354
▁adher	-12.2357
matic	-12.2359
aud	-12.2362
dan	-12.2364
▁paradox	-12.2367
▁admir	-12.2368
pu	-12.237
▁roche	-12.237
▁montparnasse	-12.2371
▁olympus	-12.2371
▁wu	-12.2372
▁assumptions	-12.2372
iya	-12.2373
rad	-12.2376
▁resid	-12.2377
▁poem	-12.2377
mina	-12.238
▁dressed	-12.2385
▁silverfast	-12.2387
▁unveiled	-12.2389
▁beast	-12.239
like	-12.239
▁williams	-12.2396
▁allied	-12.2398
▁flemish	-12.2404
▁trialogue	-12.2404
▁loophole	-12.2404
▁rumour	-12.2404
▁advent	-12.2404
▁shadows	-12.2408
▁tro	-12.2411
▁bois	-12.2412
▁evoke	-12.2412
▁weighing	-12.2414
▁dia	-12.2416
fc	-12.2417
▁bangkok	-12.242
▁inefficient	-12.242
▁forcibl	-12.2424
bury	-12.2424
▁tubes	-12.2424
▁endow	-12.2425
▁handicapp	-12.2427
▁madagascar	-12.2437
▁rebuilt	-12.2437
/2006	-12.2437
▁deportation	-12.2438
far	-12.2438
▁lagg	-12.2439
▁soldier	-12.2446
▁1900	-12.2451
▁nets	-12.2452
control	-12.2453
▁vector	-12.2453
▁homemade	-12.2455
▁labeled	-12.2456
▁identiti	-12.2457
▁buddhist	-12.2457
▁playlist	-12.2459
▁doc	-12.2464
▁lectures	-12.2468
▁podium	-12.247
▁famine	-12.247
▁uen	-12.2474
▁alley	-12.2475
▁pounds	-12.2476
▁cigarette	-12.2476
ping	-12.248
▁decreasing	-12.2487
▁philosophical	-12.2487
▁mos	-12.2489
▁barrel	-12.2496
▁unpleasant	-12.2503
▁pussy	-12.2503
lla	-12.2506
▁fulfilment	-12.2506
bat	-12.2511
bridge	-12.2511
wide	-12.2515
▁tr	-12.2516
▁reciproc	-12.2517
pre	-12.2517
▁platinum	-12.252
▁policing	-12.252
▁cardinal	-12.2521
▁drums	-12.2521
ii	-12.2525
▁cbsa	-12.2525
▁monde	-12.2527
▁cre	-12.2528
▁dun	-12.253
▁hostage	-12.253
▁mathematical	-12.2534
▁catche	-12.2537
▁proposition	-12.2537
▁sweat	-12.2538
▁sep	-12.2539
▁ry	-12.2539
▁cot	-12.254
▁nov	-12.254
▁mil	-12.2541
▁streaming	-12.2545
ash	-12.2548
▁ir	-12.2549
▁spouses	-12.255
▁kyriad	-12.2554
▁professionally	-12.2556
ual	-12.256
▁premise	-12.2563
porno	-12.2567
▁fittings	-12.2567
▁thrive	-12.257
++	-12.2571
press	-12.2572
▁collector	-12.2573
▁613	-12.2575
▁strap	-12.2575
uz	-12.2579
▁ridge	-12.258
▁translat	-12.2581
ug	-12.2581
▁corps	-12.2583
ml	-12.2585
▁lithuanian	-12.2586
▁contradictions	-12.2587
▁alzheimer	-12.2587
▁reservoir	-12.2587
▁trekking	-12.2587
▁radar	-12.2588
▁refinement	-12.2588
▁shortcut	-12.2589
▁revival	-12.2589
down	-12.2589
▁gang	-12.2589
800	-12.259
▁grams	-12.2591
▁eden	-12.2592
▁webpage	-12.2593
▁fibres	-12.2596
▁saves	-12.2596
▁ibis	-12.2597
▁alma	-12.2599
▁remarkabl	-12.2602
▁harmonize	-12.2603
▁bbc	-12.2603
▁burkina	-12.2604
▁kayak	-12.2604
▁dubai	-12.2604
▁und	-12.2606
▁quotes	-12.2606
▁alloy	-12.2608
▁crisp	-12.2608
▁accompanie	-12.2609
▁sti	-12.2611
▁qu	-12.2618
▁andorra	-12.2618
ites	-12.2619
outsourcing	-12.2621
▁compartment	-12.2621
▁redemption	-12.2621
▁shrine	-12.2623
▁sketch	-12.2624
▁10.00	-12.2625
▁std	-12.2625
▁haul	-12.2629
▁legislate	-12.2631
▁satisfie	-12.2633
wo	-12.2634
▁wipe	-12.2638
▁peaks	-12.2638
▁lenovo	-12.2638
▁sofia	-12.2638
▁observance	-12.2639
iers	-12.264
tric	-12.2642
▁dwell	-12.2642
▁tac	-12.2642
▁50,000	-12.2644
▁knight	-12.2644
▁fake	-12.2645
▁220	-12.2646
▁plunge	-12.2647
▁handicap	-12.2648
▁disparit	-12.2648
ï	-12.2648
▁fade	-12.2649
▁866	-12.265
hen	-12.2652
▁immunization	-12.2655
▁divx	-12.2655
▁headlines	-12.2656
▁maize	-12.2656
▁shelve	-12.2658
▁accumulation	-12.2658
▁crow	-12.2659
/98	-12.266
▁nail	-12.266
▁101	-12.2662
▁mah	-12.2663
▁exchang	-12.2665
▁obscure	-12.2665
▁counsell	-12.2667
380	-12.267
▁graduat	-12.2672
▁malaga	-12.2673
▁bullet	-12.2675
ua	-12.2677
▁yen	-12.2677
▁winni	-12.2678
▁severit	-12.268
▁bé	-12.2683
▁chefs	-12.2684
,9	-12.2685
▁abduct	-12.2687
▁curiosit	-12.2689
▁chassis	-12.2689
▁podcast	-12.2689
▁ebuild	-12.269
▁conductor	-12.269
▁assassination	-12.2692
service	-12.2693
▁briefing	-12.2699
▁scientist	-12.2699
▁herald	-12.2702
▁vein	-12.2703
ich	-12.2704
-7	-12.2709
▁lip	-12.271
▁upset	-12.2713
▁seo	-12.2722
▁meticulous	-12.2723
▁sliding	-12.2723
▁nonsense	-12.2723
▁jardin	-12.2723
▁dancers	-12.2723
▁essay	-12.2723
▁rip	-12.2724
▁acceleration	-12.2724
▁packs	-12.2727
▁rust	-12.2727
▁validated	-12.2727
▁governors	-12.2732
▁planes	-12.2736
▁rounded	-12.2736
▁meditation	-12.274
▁summon	-12.2741
kit	-12.2742
▁journalism	-12.2742
▁sanction	-12.2743
▁homeless	-12.2743
▁cour	-12.275
▁rationale	-12.2753
works	-12.2756
ali	-12.2757
▁cyclist	-12.2757
▁inconvenience	-12.2757
▁aftermath	-12.2757
▁deforestation	-12.2758
▁clashe	-12.2759
zar	-12.2759
▁planting	-12.2759
▁shameful	-12.276
▁overlap	-12.2761
▁islamist	-12.2764
nie	-12.2764
cht	-12.2766
kh	-12.2768
▁dunes	-12.2769
▁wan	-12.277
▁mit	-12.277
▁adolescents	-12.2772
▁undesirable	-12.2775
▁infringe	-12.2775
▁blockade	-12.2777
wear	-12.2777
▁inventions	-12.2777
▁projection	-12.278
82	-12.2781
ense	-12.2785
▁ff	-12.2786
fertility	-12.2789
▁relaunch	-12.2791
▁suspicious	-12.2791
▁tribal	-12.2792
▁recurring	-12.2792
/2010	-12.2792
▁knowledgeable	-12.2794
▁bare	-12.2796
lat	-12.2798
▁pigs	-12.2799
▁surpass	-12.28
▁dinners	-12.2802
▁kelly	-12.2803
▁wound	-12.2805
▁multiply	-12.2809
▁eos	-12.2809
▁sweeping	-12.2813
▁watches	-12.2819
▁colombian	-12.2822
jan	-12.2823
▁sheer	-12.2824
▁unparallel	-12.2826
▁guns	-12.2826
▁1969	-12.2827
▁rep	-12.2828
▁pill	-12.283
▁deserved	-12.2831
▁evans	-12.2831
hand	-12.2832
▁liberalis	-12.2835
▁supplemented	-12.2835
borne	-12.2837
▁175	-12.2837
▁pharmacy	-12.2843
▁defective	-12.2844
▁starter	-12.2845
fu	-12.2847
▁prof	-12.2848
▁vain	-12.2848
▁slut	-12.2849
▁halo	-12.285
▁tale	-12.2856
▁circuits	-12.2857
▁harbor	-12.2858
▁boycott	-12.286
▁iud	-12.2861
▁bos	-12.2861
gio	-12.2869
ct	-12.287
▁symphon	-12.2873
▁ceremonie	-12.2874
▁viabilit	-12.2875
▁nr	-12.2878
▁lesbian	-12.2878
▁toyota	-12.2878
▁mur	-12.2879
▁wounded	-12.2887
▁penetrate	-12.2887
▁induce	-12.2889
▁manipulat	-12.2895
▁despair	-12.2895
▁fatigue	-12.2895
▁multiplayer	-12.2895
▁pale	-12.2896
▁bits	-12.29
▁stiff	-12.2901
▁conserve	-12.2904
▁loom	-12.2905
▁recorder	-12.2905
▁impulse	-12.2913
▁hammam	-12.2913
▁grassroot	-12.2913
▁wr	-12.2913
power	-12.2916
▁confess	-12.2918
▁fry	-12.292
play	-12.292
▁deadlock	-12.293
▁groundwater	-12.2932
▁interrupt	-12.2932
▁bg	-12.2937
▁3.2	-12.2939
▁northeast	-12.294
▁pairs	-12.2943
▁vivid	-12.2947
▁squares	-12.2947
sol	-12.2947
▁appetite	-12.2947
▁bristol	-12.2947
▁synergie	-12.2947
▁megapixel	-12.2947
▁highland	-12.2951
▁acknowledgement	-12.2953
▁pla	-12.296
▁touching	-12.2963
▁departmental	-12.2963
ign	-12.2964
▁pharmacist	-12.2965
▁vocabular	-12.2965
▁reminiscent	-12.2965
▁uncertainties	-12.2965
▁assortment	-12.2965
▁yves	-12.2965
▁siena	-12.2965
▁believers	-12.2966
free	-12.2968
▁graz	-12.297
▁startup	-12.2971
▁bans	-12.2973
▁offline	-12.2975
▁alias	-12.2979
▁codec	-12.298
rou	-12.298
tle	-12.2981
▁brink	-12.2983
▁holistic	-12.2983
▁miniature	-12.2983
▁paradigm	-12.2983
▁cheer	-12.2983
ao	-12.2984
▁sands	-12.2986
▁sci	-12.2988
▁rulers	-12.2994
▁dividends	-12.2994
▁hugo	-12.2994
▁tm	-12.2995
▁victorian	-12.2996
▁singular	-12.3
▁throat	-12.3
▁plural	-12.3001
▁fragmentation	-12.3002
▁yeah	-12.3002
▁invent	-12.3008
▁clone	-12.301
▁archipelago	-12.3018
▁envoy	-12.3018
▁unavoidabl	-12.3018
▁cove	-12.3019
▁pointless	-12.3026
test	-12.3027
▁fundamentalist	-12.3027
▁115	-12.3029
▁floral	-12.3033
/3	-12.3035
▁cheat	-12.3035
▁speculative	-12.3035
▁unaware	-12.3035
▁vicious	-12.3035
▁coincidence	-12.3035
▁valuation	-12.3035
fort	-12.3036
lf	-12.3037
roll	-12.3037
▁heighten	-12.3041
ici	-12.3044
▁freshness	-12.3044
53	-12.3049
onne	-12.3051
▁announc	-12.3051
▁gothenburg	-12.3053
▁mcdonald	-12.3053
▁membrane	-12.3053
▁bahrain	-12.3053
▁endemic	-12.3053
▁nitrogen	-12.3053
▁sunlight	-12.3054
▁escalation	-12.3054
▁lounges	-12.3058
▁banners	-12.3059
▁transcend	-12.306
▁trailers	-12.3064
▁shin	-12.3065
▁hood	-12.3069
▁burundi	-12.3069
▁kilometre	-12.307
▁affiliation	-12.307
aki	-12.3077
▁fundamentalism	-12.3079
▁prepares	-12.3083
mond	-12.3086
▁elve	-12.3087
č	-12.3088
▁equilibrium	-12.3088
▁chirac	-12.3088
▁cemeter	-12.3088
▁strait	-12.3089
▁unreasonable	-12.3091
▁1940	-12.3091
▁punch	-12.3091
▁bavarian	-12.3092
▁episodes	-12.3098
▁tasteful	-12.3101
▁convent	-12.3101
▁ct	-12.3102
▁residual	-12.3106
▁tropez	-12.3106
▁soundtrack	-12.3107
▁mala	-12.3111
llo	-12.3112
▁throwing	-12.3114
▁ny	-12.312
▁liver	-12.3122
▁southwest	-12.3124
vascular	-12.3124
▁greed	-12.3131
▁interrupted	-12.3132
▁ripe	-12.3132
▁takeover	-12.3133
nier	-12.3135
▁cg	-12.3135
tus	-12.3135
▁888	-12.3138
▁decentraliz	-12.3142
▁cherry	-12.3142
▁followers	-12.3144
▁industrialis	-12.3145
▁prosecute	-12.3147
▁cork	-12.3148
▁serbs	-12.3149
nan	-12.3149
▁herman	-12.3151
▁americas	-12.3152
une	-12.3156
▁probabilit	-12.3156
▁drilling	-12.3157
sberg	-12.3157
oid	-12.3159
iva	-12.3159
▁radius	-12.316
▁pesticide	-12.3161
▁gh	-12.3163
▁inputs	-12.3165
wing	-12.3166
▁optimise	-12.317
lder	-12.317
▁sacrament	-12.3171
▁bot	-12.3172
▁asbestos	-12.3177
▁tavern	-12.3177
▁consulate	-12.3177
▁snap	-12.3178
▁pork	-12.3178
▁fatty	-12.3179
▁scandinavian	-12.318
▁germans	-12.318
▁fontaine	-12.3181
600	-12.3184
▁worm	-12.3184
▁egf	-12.3185
▁mdg	-12.3185
dis	-12.3188
▁sqm	-12.3189
▁unsafe	-12.319
▁crowded	-12.3191
▁contempt	-12.3195
▁montpellier	-12.3195
▁lulu	-12.3196
(3	-12.3203
▁tabs	-12.3205
▁mk	-12.3205
▁stalin	-12.3207
▁0.9	-12.3207
▁obstruct	-12.3207
not	-12.3212
;	-12.3213
▁kodak	-12.3213
▁negligence	-12.3213
▁sabbath	-12.3213
▁hardship	-12.322
ech	-12.3221
▁niche	-12.3224
▁genes	-12.3226
▁sul	-12.3227
oma	-12.3227
▁numerical	-12.3228
▁bend	-12.3229
▁lid	-12.3231
▁sulphur	-12.3231
▁tendencies	-12.3231
▁garlic	-12.3231
▁controllers	-12.3236
▁minus	-12.3236
▁withstand	-12.3236
▁grades	-12.3238
scan	-12.324
▁exhausted	-12.3241
ami	-12.3244
▁dire	-12.3245
▁bologna	-12.3249
▁gatineau	-12.3249
▁manuscript	-12.3249
▁aquarium	-12.3249
▁utilization	-12.3249
▁contemplate	-12.3251
▁polo	-12.3252
cio	-12.3254
▁neutrality	-12.3255
▁pda	-12.3259
ail	-12.3259
▁conven	-12.326
eri	-12.3264
▁modeling	-12.3264
ters	-12.3266
▁discourse	-12.3267
▁festive	-12.3267
▁penetration	-12.3268
gri	-12.3269
anda	-12.3273
▁fp	-12.3275
ibility	-12.3277
▁palate	-12.3279
▁transposed	-12.328
▁rented	-12.328
▁interven	-12.3285
▁mozambique	-12.3285
▁blackberry	-12.3285
hal	-12.3286
▁taci	-12.3287
▁sender	-12.3288
▁youngest	-12.3289
▁thermo	-12.3291
▁timeframe	-12.3291
▁brava	-12.3292
▁orbit	-12.3293
▁emphatical	-12.3294
▁ef	-12.3297
▁clouds	-12.3297
/97	-12.3298
▁multicultural	-12.3299
▁fal	-12.33
path	-12.3301
▁della	-12.3301
▁ras	-12.3302
▁condolence	-12.3303
▁inexpensive	-12.3303
▁nairob	-12.3303
▁peasant	-12.3304
▁backbone	-12.3304
ér	-12.3305
▁aero	-12.3308
pac	-12.3309
shire	-12.3311
▁disclaimer	-12.3317
▁elevated	-12.3318
▁gabriel	-12.3318
▁ancestors	-12.3319
script	-12.3321
▁surcharge	-12.3321
▁narrative	-12.3321
ending	-12.3322
reg	-12.3323
▁baptism	-12.3324
▁subordinate	-12.3325
▁4.0	-12.3326
▁thumb	-12.3326
ía	-12.3332
▁illustrat	-12.3334
▁perl	-12.3335
▁monsters	-12.3338
▁unjust	-12.3338
▁enquiries	-12.3339
▁impoverish	-12.3339
▁starfleet	-12.3339
▁footwear	-12.334
cam	-12.3342
▁massif	-12.3346
▁travels	-12.3347
cra	-12.3348
▁bau	-12.335
52	-12.3352
▁drill	-12.3352
▁programmer	-12.3357
▁mallorca	-12.3357
▁syndrome	-12.3357
▁xlstat	-12.3358
▁eagle	-12.3358
▁fredericton	-12.3358
▁socrates	-12.3359
▁launche	-12.336
▁interconnection	-12.336
dr	-12.3363
▁immers	-12.3367
▁finishe	-12.3371
▁encounters	-12.3375
gua	-12.3376
/20	-12.3377
▁1965	-12.3378
▁reconcil	-12.3378
▁sore	-12.3379
▁disseminate	-12.3381
ante	-12.3382
▁fancy	-12.3383
,500	-12.3387
▁differential	-12.3388
lang	-12.3392
▁investigator	-12.3394
▁pnr	-12.3394
▁insertion	-12.3396
350	-12.3396
▁johnson	-12.3396
▁expectanc	-12.3398
▁reversed	-12.3401
▁pins	-12.3405
▁lover	-12.3408
▁reasoning	-12.3409
▁genital	-12.3409
ache	-12.341
▁corp	-12.3411
▁impeccabl	-12.3412
▁jersey	-12.3412
▁heathrow	-12.3412
▁pedal	-12.3414
▁instruct	-12.3414
▁pci	-12.3414
lander	-12.3415
▁peculiar	-12.342
hem	-12.3423
▁plugins	-12.3424
load	-12.3427
▁saxon	-12.3427
▁blatant	-12.3431
▁qaeda	-12.3431
▁synonymous	-12.3431
▁brotherhood	-12.3431
▁festivities	-12.3431
▁flats	-12.3431
▁aix	-12.3433
▁recalled	-12.3435
▁facilitation	-12.3436
▁assemble	-12.3438
▁stemm	-12.3439
▁outright	-12.3442
▁offend	-12.3445
▁olivier	-12.3449
▁arsenal	-12.3449
▁presume	-12.3449
▁awful	-12.3449
▁rot	-12.345
▁cohn	-12.3451
▁innovate	-12.3452
▁approximate	-12.3453
▁pulp	-12.3454
▁advertise	-12.3457
▁widening	-12.3458
▁faso	-12.346
▁scanners	-12.346
▁mafia	-12.3467
▁courteous	-12.3467
▁tec	-12.3469
▁1.7	-12.3475
lift	-12.3478
nic	-12.348
cent	-12.3484
▁turmoil	-12.3486
▁overdue	-12.3486
▁angry	-12.3486
aga	-12.3486
▁24/7	-12.3487
▁pleasing	-12.3487
▁aromatic	-12.3487
▁prop	-12.349
▁deferr	-12.3491
lea	-12.3492
▁lou	-12.3492
▁fig	-12.3493
dom	-12.3499
▁guitarist	-12.3502
▁cakes	-12.3504
▁militant	-12.3504
▁ventilation	-12.3505
▁relais	-12.3505
▁lorrie	-12.3508
▁influenc	-12.351
▁confuse	-12.3511
▁petro	-12.3512
▁diamonds	-12.3512
▁proportionalit	-12.3517
onic	-12.3519
sim	-12.3521
▁georges	-12.3521
▁serenity	-12.3523
▁yamaha	-12.3523
▁biology	-12.3523
▁weddings	-12.3524
▁cardiff	-12.3524
gging	-12.3528
▁tit	-12.3533
▁journals	-12.3534
▁bro	-12.3535
▁rides	-12.3536
site	-12.3539
pad	-12.3539
▁condo	-12.3539
clock	-12.354
montmartre	-12.3541
▁notorious	-12.3541
▁onboard	-12.3541
▁geological	-12.3541
▁icecat	-12.3542
▁appraisal	-12.3542
▁postponement	-12.3543
▁hezbollah	-12.3543
▁picnic	-12.3544
▁resign	-12.3554
▁psycho	-12.3556
dor	-12.3559
▁correlation	-12.356
▁wreck	-12.356
▁genius	-12.356
▁brian	-12.3561
▁accommodating	-12.3562
▁webcam	-12.3563
▁kla	-12.3563
▁eviction	-12.3566
▁criticiz	-12.3566
▁cip	-12.3569
▁sf	-12.3574
this	-12.3575
▁mol	-12.3575
▁bilbao	-12.3578
▁basketball	-12.3578
▁beloved	-12.3579
▁repay	-12.3579
▁frequenc	-12.3579
▁cartridges	-12.3581
ky	-12.3582
▁liberia	-12.3582
▁mills	-12.3587
▁conduc	-12.3588
▁1/2	-12.359
rian	-12.359
▁waterways	-12.3592
word	-12.3593
camp	-12.3594
gas	-12.3595
▁adjoin	-12.3597
▁cows	-12.3598
▁wrappe	-12.3604
▁michelin	-12.3605
▁handful	-12.3607
▁burg	-12.3609
▁exacerbat	-12.361
▁evasion	-12.3616
▁sparkling	-12.3616
▁intranet	-12.3617
kov	-12.362
▁stretche	-12.3621
▁motives	-12.3628
etti	-12.3628
▁carl	-12.3628
▁4.1	-12.3632
▁enquiry	-12.3634
▁pencil	-12.3634
▁ontarian	-12.3634
arritz	-12.3635
uro	-12.3635
▁nightmare	-12.3635
▁spur	-12.3637
▁borrower	-12.3637
▁ifrs	-12.3649
▁concise	-12.3653
▁lukashenko	-12.3653
▁pxi	-12.3655
▁tranquilit	-12.3658
:1	-12.3659
▁dur	-12.3659
▁bios	-12.366
▁supporter	-12.3667
▁msn	-12.3668
▁shorten	-12.367
▁rm	-12.3675
▁mosaic	-12.3678
▁mobilize	-12.3678
▁ide	-12.3679
eva	-12.3681
▁scholarships	-12.3682
▁pisa	-12.3687
▁2.3	-12.3689
▁uncomfortable	-12.3691
▁rains	-12.3695
▁packet	-12.3695
▁aromas	-12.3699
▁humble	-12.3703
▁dick	-12.3705
-09	-12.3708
▁que	-12.3709
▁blowjob	-12.3709
▁harden	-12.371
▁fidelity	-12.371
▁oscar	-12.371
aut	-12.3711
▁bendit	-12.3712
ström	-12.3713
▁rum	-12.3717
rew	-12.3717
▁fx	-12.3718
▁penalise	-12.3719
▁carp	-12.3721
▁basement	-12.3721
mos	-12.3721
▁scout	-12.3721
▁wd	-12.3724
city	-12.3724
ivory	-12.3726
▁roller	-12.3726
▁105	-12.3727
gli	-12.3728
▁irreversibl	-12.3728
▁discredit	-12.3728
▁musique	-12.3728
▁veil	-12.3733
▁soften	-12.3737
-5	-12.3739
▁hemisphere	-12.3747
▁uruguay	-12.3747
▁spreads	-12.3747
▁sticks	-12.3751
▁nas	-12.3751
▁sanitary	-12.3752
▁uploaded	-12.3758
▁scientifically	-12.3759
▁glacier	-12.3759
▁nicaragua	-12.3761
700	-12.3762
awa	-12.3765
▁curtail	-12.3766
▁mauritius	-12.3766
▁staircase	-12.3766
▁bolster	-12.3766
▁ankara	-12.3767
▁headache	-12.3767
▁hitler	-12.3768
▁vine	-12.3768
▁10:30	-12.3773
▁tal	-12.3778
▁scholar	-12.3779
mod	-12.3779
cri	-12.3779
▁240	-12.3782
▁ecuador	-12.3785
▁dresden	-12.3785
▁equation	-12.3785
▁molecule	-12.3785
▁brokerage	-12.3786
▁domination	-12.3788
nch	-12.3789
▁devastat	-12.3789
aï	-12.3792
zy	-12.3795
pt	-12.3797
▁ron	-12.3798
▁constituent	-12.3798
▁pilgrim	-12.3804
▁catalunya	-12.3804
▁eurojust	-12.3804
▁1948	-12.3806
▁probe	-12.3807
▁atrocitie	-12.381
▁adorn	-12.3813
▁104	-12.3814
▁fashioned	-12.3818
▁mn	-12.3818
▁aperitif	-12.3823
▁apostolic	-12.3823
▁unsuccessful	-12.3823
▁modulation	-12.3824
▁granite	-12.3824
▁dedicate	-12.3824
▁comedy	-12.3828
▁woven	-12.3828
▁2050	-12.3829
iri	-12.3831
▁mesh	-12.3832
lomé	-12.3832
▁inhuman	-12.3838
▁pil	-12.3839
▁commemorate	-12.384
mal	-12.384
rrelevant	-12.3842
▁bizarre	-12.3842
▁tenerife	-12.3842
▁mitchell	-12.3842
lite	-12.3843
▁grim	-12.3844
▁pulse	-12.3845
▁sticker	-12.3846
▁detached	-12.3846
mit	-12.3849
▁brit	-12.3851
ui	-12.3858
▁pav	-12.386
▁confedera	-12.3861
▁hollow	-12.3861
▁netscape	-12.3862
▁redundancies	-12.3862
court	-12.3864
▁bust	-12.3864
▁cle	-12.3865
▁reactor	-12.3866
lam	-12.3867
▁nb	-12.3874
▁fried	-12.3875
sure	-12.3876
zzo	-12.3878
▁peers	-12.388
▁112	-12.388
▁auspice	-12.388
▁dissident	-12.388
▁dealership	-12.3881
▁substitution	-12.3883
▁fallout	-12.3883
▁sac	-12.3888
▁boundary	-12.3888
tier	-12.3888
▁audi	-12.3888
▁shallow	-12.3891
▁confer	-12.3891
▁loves	-12.3892
iana	-12.3895
shi	-12.3895
sport	-12.3898
▁worms	-12.3898
say	-12.3898
feld	-12.3899
▁doping	-12.3899
▁wallström	-12.39
▁botanical	-12.3901
▁cups	-12.3901
▁1956	-12.3901
▁lite	-12.3907
▁modernis	-12.3908
itt	-12.3911
▁plead	-12.3916
▁nat	-12.3917
▁cage	-12.3917
▁glasgow	-12.3919
▁hypocritical	-12.3919
▁mcgill	-12.3919
▁ninth	-12.3919
▁simulator	-12.3919
▁inscription	-12.392
▁temples	-12.3922
▁drastical	-12.3927
ew	-12.3933
▁prosecut	-12.3935
▁labrador	-12.3938
▁anticipation	-12.3942
▁ev	-12.3944
▁woodland	-12.3952
▁threads	-12.3955
▁masks	-12.3956
▁hike	-12.3956
▁circumvent	-12.3958
▁mun	-12.3959
▁qa	-12.396
▁tam	-12.3962
▁duck	-12.3962
cker	-12.3963
▁mortgages	-12.3965
▁cartridge	-12.3974
▁oclc	-12.3977
▁omega	-12.3977
▁kurds	-12.3977
▁courier	-12.3978
▁allocat	-12.3979
▁genoa	-12.3979
▁compromis	-12.398
▁lapse	-12.398
most	-12.3982
gh	-12.3986
▁crm	-12.3987
▁tents	-12.399
▁tires	-12.399
▁ana	-12.3991
▁militaris	-12.3991
▁curse	-12.3994
▁emphasiz	-12.3995
▁tomb	-12.3995
▁troika	-12.3996
▁inheritance	-12.3997
▁surgeon	-12.3998
▁outrage	-12.3998
▁pascal	-12.4005
▁disks	-12.4005
▁cinemas	-12.4009
iq	-12.4013
▁elizabeth	-12.4016
▁proclamation	-12.4016
▁costasur	-12.4016
▁mitigation	-12.4017
▁colonies	-12.4017
▁wav	-12.4018
▁gru	-12.4019
▁worsening	-12.4019
▁annan	-12.402
▁stitch	-12.4025
gal	-12.4029
ç	-12.403
▁polished	-12.4034
▁tat	-12.4034
▁damp	-12.4035
▁musée	-12.4035
▁gsp	-12.4036
now	-12.4037
▁lawful	-12.4039
▁devotion	-12.4041
▁barn	-12.4046
▁starch	-12.4049
▁bleeding	-12.405
kel	-12.4052
▁uneven	-12.4052
▁fragrance	-12.4053
▁ambiguous	-12.4055
▁breeze	-12.4055
▁metropolis	-12.4055
ín	-12.4055
▁diego	-12.4057
▁grocery	-12.4057
▁signator	-12.4058
▁logistical	-12.4061
▁overload	-12.4062
oa	-12.4065
▁bil	-12.407
text	-12.4073
▁centred	-12.4074
▁abraham	-12.4074
▁superintendent	-12.4074
▁settling	-12.4074
▁hesitation	-12.4074
▁underscore	-12.4074
▁therapist	-12.4074
▁renne	-12.4076
▁overturn	-12.4076
▁facilitator	-12.4079
▁rf	-12.4079
▁preset	-12.4081
▁lind	-12.4084
▁sew	-12.4088
▁0.7	-12.4089
▁kal	-12.409
▁lump	-12.4092
▁bite	-12.4092
▁yards	-12.4093
connect	-12.4094
yle	-12.4096
▁yachts	-12.4099
▁athlete	-12.4105
ô	-12.4111
▁disciples	-12.4111
▁trauma	-12.4112
▁spectators	-12.4113
▁converse	-12.4113
▁nickname	-12.4113
▁corbett	-12.4114
▁brethr	-12.4114
▁ferrero	-12.4114
▁horde	-12.4114
▁flooring	-12.4117
idi	-12.412
hold	-12.4124
▁workout	-12.4125
ès	-12.4126
lexmark	-12.4129
hood	-12.4131
▁unforesee	-12.4133
▁flock	-12.4134
▁assembli	-12.4134
▁.....	-12.4135
▁portions	-12.4136
▁factual	-12.4138
▁stabilise	-12.4138
▁belts	-12.4142
▁escap	-12.4144
▁apostles	-12.4145
▁valle	-12.4146
adi	-12.415
▁seals	-12.415
▁manuals	-12.4151
▁strokes	-12.4152
▁auditing	-12.4152
▁maternal	-12.4153
▁pianist	-12.4153
▁reboot	-12.4154
▁1957	-12.4154
itz	-12.4156
bad	-12.4157
ace	-12.4165
new	-12.4165
▁cas	-12.4171
▁indebted	-12.4172
▁repetition	-12.4172
cz	-12.4174
▁intersection	-12.4174
und	-12.4176
▁timeline	-12.4176
▁existent	-12.4177
rm	-12.4179
▁voucher	-12.4179
lie	-12.4181
▁1800	-12.4181
▁carv	-12.4182
las	-12.4183
▁joke	-12.4186
▁meadows	-12.4188
▁pf	-12.4189
▁discontinue	-12.4191
▁unhappy	-12.4192
▁kevin	-12.4192
lier	-12.4193
▁tgv	-12.4193
▁5.1	-12.4194
▁sys	-12.4197
▁seiz	-12.4199
▁abbas	-12.4199
▁5.0	-12.42
330	-12.4203
▁greenery	-12.4204
▁testify	-12.4205
▁impress	-12.4209
▁saturat	-12.4211
▁hung	-12.4212
▁cancún	-12.4212
/2004	-12.4212
▁dakar	-12.4212
▁trojan	-12.4213
▁transformer	-12.4214
phone	-12.4216
▁cheeses	-12.4221
▁stabilize	-12.4221
▁avian	-12.4222
nk	-12.4222
▁businessmen	-12.4224
▁federalist	-12.4225
illo	-12.4226
gre	-12.4231
▁dreadful	-12.4232
▁buzz	-12.4233
▁delhi	-12.4233
maker	-12.4235
▁atm	-12.4237
▁cute	-12.4244
▁sca	-12.4244
▁imo	-12.4245
▁sceptic	-12.4246
▁cvs	-12.4249
▁downloadable	-12.425
▁dash	-12.425
ele	-12.4251
▁radisson	-12.4252
▁biometric	-12.4252
▁martial	-12.4252
▁conceive	-12.4253
▁horizons	-12.4253
▁waterfront	-12.4253
tone	-12.4259
▁storms	-12.426
▁orphan	-12.4262
▁tract	-12.4263
▁swinger	-12.4263
▁educat	-12.4264
▁afp	-12.4264
cot	-12.4265
activity	-12.4265
▁morgan	-12.4271
▁acquaint	-12.4271
▁communautaire	-12.4272
▁glimpse	-12.4272
▁sleek	-12.4272
▁rugged	-12.4272
▁cafeteria	-12.4272
▁eldr	-12.4272
▁crete	-12.4272
▁vietnamese	-12.4273
▁deport	-12.4274
▁impressions	-12.4277
▁vie	-12.4279
▁framed	-12.428
▁eea	-12.428
▁collectors	-12.4283
▁baking	-12.4283
etta	-12.4284
ase	-12.4286
▁presid	-12.4288
▁fil	-12.4291
▁ecumenical	-12.4292
▁cradle	-12.4292
▁dioxin	-12.4292
▁pilgrimage	-12.4292
gp	-12.4292
▁ecology	-12.4292
▁tas	-12.4296
▁therapie	-12.4297
▁brp	-12.4297
vé	-12.4299
lets	-12.4301
▁depths	-12.4305
▁config	-12.4306
▁bathrobe	-12.4311
▁paramilitar	-12.4311
▁fernand	-12.4313
▁globalis	-12.4313
▁visually	-12.4315
guard	-12.4315
▁crusade	-12.4317
▁fps	-12.4321
yan	-12.4321
▁abbot	-12.4322
▁bic	-12.4326
▁groove	-12.4327
▁marginalis	-12.4331
▁collateral	-12.4332
▁disguise	-12.4332
▁switched	-12.4334
▁null	-12.4337
▁glucos	-12.4337
▁tile	-12.4338
▁suu	-12.4338
dar	-12.434
▁mobilis	-12.4346
▁transplant	-12.4351
▁disgrace	-12.4351
oph	-12.4358
▁corrective	-12.4359
▁souls	-12.4359
▁annoying	-12.436
▁wm	-12.4361
▁confin	-12.4366
ress	-12.4366
▁wondered	-12.4369
▁720	-12.4369
▁electroacoustic	-12.4372
▁liikanen	-12.4372
▁foyer	-12.4373
aught	-12.4381
▁importation	-12.4387
▁vila	-12.4387
▁tribe	-12.4388
mor	-12.439
▁discriminat	-12.439
▁burgundy	-12.4392
▁cedar	-12.4392
▁bias	-12.4393
▁patrol	-12.4393
▁11.30	-12.4394
rov	-12.4396
lese	-12.4398
tive	-12.4398
▁tad	-12.4398
bon	-12.4401
▁flush	-12.4402
▁123	-12.4407
dp	-12.441
▁dissolve	-12.4411
▁seventeen	-12.4412
▁undemocratic	-12.4412
▁moderation	-12.4413
▁breton	-12.4413
▁1964	-12.4415
▁xvi	-12.4418
▁fon	-12.4419
non	-12.4422
▁traps	-12.4425
band	-12.4428
▁dungeon	-12.4432
dale	-12.4437
▁das	-12.4439
lb	-12.4439
▁aka	-12.4441
▁kart	-12.4442
lio	-12.4444
▁spy	-12.4444
▁bustle	-12.4446
▁cru	-12.4451
▁frustrate	-12.4453
▁clan	-12.4453
▁compassion	-12.4453
▁throne	-12.4453
▁promoter	-12.4453
▁jpeg	-12.4453
▁encompasse	-12.4454
▁cots	-12.4457
▁spe	-12.4458
▁eta	-12.4461
▁protester	-12.4465
▁kyi	-12.447
lc	-12.4471
▁angels	-12.4472
▁carnival	-12.4473
▁shepherd	-12.4473
▁servicing	-12.4473
▁accustom	-12.4473
▁enduring	-12.4473
▁chechen	-12.4473
[...]
