<unk>	0
<s>	0
</s>	0
▁de	-3.10994
▁,	-3.29077
▁.	-3.41267
'	-3.55659
s	-3.70063
▁la	-3.71914
▁et	-3.91759
▁le	-4.02446
▁l	-4.02946
▁les	-4.11784
▁à	-4.13406
▁des	-4.29875
▁d	-4.30033
’	-4.42164
▁en	-4.48994
▁un	-4.68647
▁est	-4.75184
▁que	-4.78548
▁une	-4.78903
▁du	-4.80789
▁pour	-4.81445
▁dans	-4.93181
▁nous	-5.22972
▁qui	-5.242
▁sur	-5.24643
▁a	-5.24875
▁au	-5.27663
▁il	-5.28479
▁-	-5.29351
▁par	-5.39408
▁ce	-5.42621
▁vous	-5.47196
▁pas	-5.54988
▁plus	-5.60836
▁ne	-5.75218
▁avec	-5.78244
nt	-5.79039
▁je	-5.80428
▁sont	-5.8493
▁qu	-5.85074
▁)	-5.8619
▁ou	-5.86377
▁(	-5.87893
-	-5.90907
▁s	-5.9519
▁aux	-5.98669
▁n	-6.00156
▁se	-6.04914
▁cette	-6.0847
ment	-6.13714
▁:	-6.16653
▁être	-6.28296
▁c	-6.30031
▁ont	-6.31147
e	-6.36115
▁mais	-6.37049
▁	-6.38189
▁si	-6.41206
▁été	-6.42163
▁votre	-6.44866
.	-6.45932
▁"	-6.45972
▁ces	-6.49003
▁comme	-6.50126
▁tout	-6.50535
▁son	-6.53714
▁commission	-6.59427
t	-6.63546
▁notre	-6.64695
▁y	-6.65959
▁pays	-6.67846
▁fait	-6.68557
ons	-6.69176
▁leur	-6.70288
▁bien	-6.73065
▁elle	-6.75478
▁j	-6.75903
▁on	-6.76155
▁tous	-6.78051
▁peut	-6.78238
▁?	-6.79108
▁aussi	-6.793
▁européenne	-6.83857
▁faire	-6.85011
▁même	-6.85235
▁m	-6.85284
▁autres	-6.87755
▁également	-6.88576
▁sa	-6.90974
▁très	-6.92204
▁nos	-6.92678
z	-6.93608
▁entre	-6.93714
▁ses	-6.94505
▁président	-6.97285
▁union	-6.99101
▁rapport	-7.00352
▁'	-7.01954
▁politique	-7.08001
▁!	-7.08717
▁hôtel	-7.09022
▁«	-7.10187
▁deux	-7.10504
▁ainsi	-7.10778
▁monsieur	-7.11496
▁sans	-7.12422
▁états	-7.1341
▁ils	-7.15225
▁membres	-7.15485
▁non	-7.16879
▁parlement	-7.17217
▁conseil	-7.17477
a	-7.17585
▁cela	-7.18307
▁avons	-7.19155
▁»	-7.19199
▁doit	-7.2114
▁...	-7.24395
▁europe	-7.28973
▁ai	-7.30749
▁leurs	-7.35796
▁où	-7.36358
▁dont	-7.37789
▁vos	-7.38418
▁toutes	-7.38963
▁cet	-7.39313
▁européen	-7.39536
▁autre	-7.40581
▁après	-7.42314
▁temps	-7.4321
▁cas	-7.43609
▁travail	-7.4407
▁soit	-7.44354
es	-7.45026
▁contre	-7.45379
▁encore	-7.45984
▁développement	-7.4642
r	-7.46597
▁question	-7.47095
▁toute	-7.47803
▁donc	-7.49114
▁sera	-7.50036
▁monde	-7.50061
▁;	-7.50258
▁site	-7.50831
▁afin	-7.52385
▁avoir	-7.53123
▁/	-7.53474
▁personnes	-7.5416
▁depuis	-7.54746
▁services	-7.54782
▁avant	-7.55856
▁jour	-7.57157
▁peuvent	-7.57552
▁droits	-7.58387
▁sous	-7.59224
▁système	-7.60429
ant	-7.60944
ait	-7.61033
▁fois	-7.61204
▁aujourd	-7.61209
er	-7.62095
ez	-7.62116
hui	-7.62663
▁sécurité	-7.62834
▁service	-7.63418
▁grande	-7.64828
▁produits	-7.65038
▁était	-7.65041
▁%	-7.661
▁groupe	-7.67125
▁point	-7.67549
▁cadre	-7.67921
▁chaque	-7.68866
▁marché	-7.70054
▁me	-7.70349
▁moins	-7.70989
▁devons	-7.71176
▁centre	-7.71447
▁compte	-7.71808
▁doivent	-7.72036
▁chambres	-7.72726
▁situation	-7.72759
▁programme	-7.73148
▁mon	-7.73675
▁accord	-7.74551
▁prix	-7.75844
▁droit	-7.76599
▁car	-7.7661
▁faut	-7.76657
▁grand	-7.77512
▁ans	-7.77565
▁partie	-7.78262
▁lors	-7.7865
▁ville	-7.79061
h	-7.79694
▁2	-7.79815
▁qualité	-7.79819
▁elles	-7.80444
▁déjà	-7.80513
▁nombre	-7.81035
▁vie	-7.81312
▁1	-7.81406
▁pouvez	-7.82095
▁niveau	-7.82175
▁toujours	-7.82447
▁année	-7.83527
▁matière	-7.84181
▁cours	-7.84763
▁dire	-7.84941
▁manière	-7.84968
▁seulement	-7.85381
▁quelques	-7.8544
▁ici	-7.85698
▁certains	-7.85902
▁lui	-7.8602
▁tant	-7.86441
▁avez	-7.87839
▁3	-7.8787
▁vue	-7.88094
▁première	-7.88255
▁jusqu	-7.88494
▁nouveau	-7.88511
▁sommes	-7.88837
▁plusieurs	-7.88925
▁ue	-7.89322
▁suis	-7.89538
▁place	-7.89995
▁lieu	-7.90317
▁important	-7.90589
▁état	-7.91434
▁demande	-7.9179
▁vers	-7.92368
▁exemple	-7.92788
▁nouvelle	-7.92821
▁peu	-7.93286
▁données	-7.94101
▁mise	-7.94186
▁aide	-7.94317
▁voudrais	-7.94426
▁informations	-7.94509
▁beaucoup	-7.94728
▁économique	-7.94999
▁alors	-7.95363
▁ceux	-7.95629
▁nom	-7.95653
▁recherche	-7.96037
▁canada	-7.96241
▁possible	-7.96247
▁premier	-7.9656
▁proposition	-7.9659
▁années	-7.97233
▁part	-7.97506
▁mesures	-7.97519
▁base	-7.97972
▁accès	-7.98722
▁selon	-7.99606
▁offre	-7.99824
▁politiques	-8.00065
▁gouvernement	-8.00101
▁problème	-8.00828
▁ensemble	-8.01452
▁trouve	-8.02728
▁prendre	-8.0313
▁besoin	-8.0367
▁santé	-8.04511
▁questions	-8.05051
▁débat	-8.05737
▁information	-8.05825
il	-8.06135
▁domaine	-8.06148
▁entreprises	-8.06265
▁bonne	-8.06708
▁agit	-8.06889
▁environnement	-8.06926
▁mes	-8.06965
▁concernant	-8.07638
▁fin	-8.07662
o	-8.07731
▁mettre	-8.07987
▁permet	-8.08133
▁pourquoi	-8.08238
▁trois	-8.08427
ront	-8.0857
▁commissaire	-8.08876
▁processus	-8.09238
▁projet	-8.093
▁protection	-8.1023
x	-8.10268
▁utilisation	-8.11234
▁façon	-8.11363
▁internet	-8.1156
vous	-8.11676
▁effet	-8.11809
▁seront	-8.12417
▁concerne	-8.12462
▁bon	-8.12701
▁savoir	-8.12857
▁pense	-8.13044
▁société	-8.13439
▁dit	-8.13837
▁voir	-8.1387
▁secteur	-8.14071
▁pendant	-8.14791
▁4	-8.1486
▁ligne	-8.15106
▁citoyens	-8.1572
aient	-8.15941
▁raison	-8.16006
▁enfants	-8.16179
▁–	-8.17228
▁mesure	-8.17263
▁homme	-8.17319
▁clients	-8.18025
▁lorsque	-8.18307
▁nombreux	-8.19135
▁utiliser	-8.19696
▁problèmes	-8.19945
▁5	-8.20203
▁ma	-8.21008
▁web	-8.21069
▁conditions	-8.21586
▁région	-8.21632
▁sein	-8.21762
▁nécessaire	-8.22047
▁parce	-8.22175
▁pouvoir	-8.22229
▁directive	-8.22443
▁fonds	-8.23238
▁maintenant	-8.24355
▁petit	-8.24494
ent	-8.24942
▁moment	-8.24987
n	-8.25035
▁ni	-8.25161
▁mois	-8.25325
▁grâce	-8.25901
▁nouvelles	-8.26255
▁sujet	-8.26484
▁nouveaux	-8.2661
▁particulière	-8.27068
▁situé	-8.27471
▁notamment	-8.27816
▁activités	-8.27976
d	-8.2834
▁quand	-8.28403
▁10	-8.28847
▁gestion	-8.28851
▁international	-8.28853
▁aucun	-8.2916
▁devrait	-8.29282
▁comment	-8.29394
▁affaires	-8.29486
▁personne	-8.29785
▁présent	-8.3006
▁femmes	-8.3079
ci	-8.30991
▁propose	-8.31874
▁plan	-8.31919
▁rôle	-8.31959
▁madame	-8.32035
▁toutefois	-8.32304
▁particulier	-8.32308
▁avait	-8.32871
é	-8.32988
▁établissement	-8.33445
▁va	-8.34059
▁hotel	-8.3412
▁page	-8.34181
unis	-8.34533
▁celui	-8.3503
i	-8.35339
▁chambre	-8.35887
▁laquelle	-8.36399
▁action	-8.36687
▁entreprise	-8.37046
▁contrôle	-8.37292
▁cependant	-8.37897
▁eu	-8.38115
▁forme	-8.38789
▁ci	-8.38859
▁dès	-8.39277
▁objectif	-8.3945
▁européens	-8.39739
▁œuvre	-8.40746
▁soient	-8.40767
▁période	-8.40921
▁pouvons	-8.40983
▁soutien	-8.41201
▁coopération	-8.41208
▁constitue	-8.41285
▁là	-8.4166
▁certaines	-8.41867
être	-8.41936
▁aucune	-8.42763
▁reste	-8.43136
▁emploi	-8.43577
▁celle	-8.43755
▁serait	-8.43898
▁terme	-8.44195
▁énergie	-8.44398
▁production	-8.44507
▁jours	-8.44558
▁trouver	-8.44749
▁millions	-8.45178
▁long	-8.45258
▁pourrait	-8.45671
▁seul	-8.45825
▁liste	-8.45831
▁souvent	-8.45987
▁e	-8.46856
▁produit	-8.46967
▁obtenir	-8.46974
▁stratégie	-8.47362
▁règlement	-8.4779
▁mieux	-8.48038
▁eau	-8.4843
▁trop	-8.48491
▁position	-8.48538
▁résolution	-8.48992
▁traité	-8.49451
▁vote	-8.49758
▁mis	-8.50326
▁dernier	-8.50374
▁ressources	-8.50378
▁deuxième	-8.50388
▁application	-8.50575
▁salle	-8.51085
▁suite	-8.51172
▁personnel	-8.51496
▁moyen	-8.5179
▁internationale	-8.51869
▁différents	-8.51898
2	-8.51919
▁avis	-8.52082
▁partir	-8.52102
▁assurer	-8.52217
▁mme	-8.52423
▁public	-8.52509
▁loi	-8.52705
▁réponse	-8.52729
▁ailleurs	-8.52855
▁objectifs	-8.52934
▁chez	-8.52966
▁puis	-8.52979
▁programmes	-8.53068
▁renseignements	-8.53224
c	-8.53262
▁article	-8.53836
▁croissance	-8.54047
▁ordre	-8.54063
▁20	-8.54092
▁nombreuses	-8.54825
▁avenir	-8.55525
▁population	-8.55659
▁moi	-8.55713
▁fonction	-8.56303
▁dernière	-8.56313
▁près	-8.56436
▁décision	-8.56505
▁importance	-8.56634
▁face	-8.56737
▁version	-8.56805
▁unique	-8.56915
ce	-8.57048
▁crise	-8.57407
▁outre	-8.57679
▁enfin	-8.57735
▁choix	-8.58148
▁type	-8.58203
▁membre	-8.58223
▁semble	-8.58247
▁économie	-8.58321
▁2009	-8.58604
▁nord	-8.5966
▁formation	-8.59676
▁sens	-8.605
▁chose	-8.60592
▁assemblée	-8.60599
▁existe	-8.60977
▁résultats	-8.61029
▁commune	-8.61057
▁6	-8.61565
©	-8.61709
▁projets	-8.62059
▁points	-8.62358
▁intérêt	-8.62459
▁propre	-8.62639
▁contenu	-8.62689
▁jeu	-8.62716
▁créer	-8.62799
▁font	-8.62832
▁réseau	-8.6304
▁minutes	-8.63066
▁sud	-8.6312
▁b	-8.6324
▁carte	-8.63419
▁communauté	-8.63494
▁étant	-8.63541
▁faveur	-8.63755
▁mer	-8.63889
▁solution	-8.63932
▁eux	-8.64194
raient	-8.64492
▁actuellement	-8.64604
▁rien	-8.64747
▁égard	-8.64752
▁création	-8.64838
▁rapporteur	-8.64925
▁valeur	-8.65105
▁15	-8.65113
▁parmi	-8.65576
▁́	-8.6567
▁aider	-8.65703
▁expérience	-8.66002
▁présidence	-8.66227
▁cause	-8.66281
▁maison	-8.66365
▁donner	-8.66618
▁jamais	-8.6663
▁seule	-8.66733
▁industrie	-8.66957
▁abord	-8.66987
▁budget	-8.67063
ra	-8.67354
▁attention	-8.67357
▁présente	-8.67495
y	-8.67565
on	-8.67654
▁général	-8.677
rez	-8.67839
▁quelque	-8.67955
▁texte	-8.68065
▁améliorer	-8.68109
▁règles	-8.68465
▁titre	-8.68579
▁bas	-8.68707
▁pratique	-8.69109
▁compris	-8.69212
▁organisation	-8.69253
▁sociale	-8.69428
▁étaient	-8.69459
com	-8.69813
▁juste	-8.6987
▁institutions	-8.70156
▁quelle	-8.70183
▁7	-8.70417
▁donne	-8.7052
▁possibilité	-8.70615
▁intérieur	-8.70635
▁besoins	-8.70993
▁responsabilité	-8.71099
▁restaurant	-8.71165
▁importante	-8.71215
▁heures	-8.71365
▁aura	-8.71479
l	-8.71619
▁occasion	-8.71829
▁mondiale	-8.71999
▁équipe	-8.72046
▁propositions	-8.7209
▁surtout	-8.72226
▁france	-8.72455
▁quel	-8.72532
▁différentes	-8.72676
ux	-8.72802
▁collègues	-8.73076
▁respect	-8.73166
▁approche	-8.73196
▁30	-8.73248
▁24	-8.73271
▁actuelle	-8.73732
▁donné	-8.73919
▁transport	-8.74072
▁régions	-8.74271
▁taux	-8.74632
▁espace	-8.74902
▁efforts	-8.75479
▁haut	-8.75616
▁côté	-8.75715
▁principe	-8.75723
▁tel	-8.75965
▁sorte	-8.76008
▁bureau	-8.76014
▁000	-8.76372
▁risque	-8.76846
m	-8.77118
▁dispose	-8.77297
▁disponible	-8.7755
▁amendements	-8.77729
▁heure	-8.77884
▁2008	-8.77895
▁puisse	-8.78237
▁histoire	-8.78372
▁objet	-8.78475
▁jeunes	-8.78999
▁plupart	-8.79114
▁systèmes	-8.79143
▁groupes	-8.79165
▁18	-8.79308
▁lutte	-8.79629
▁bar	-8.79679
▁but	-8.79922
▁rapidement	-8.80114
▁famille	-8.80391
▁séjour	-8.80595
▁commerce	-8.80614
▁frais	-8.80643
▁rendre	-8.80665
▁12	-8.80666
▁quatre	-8.80708
▁fort	-8.8083
▁pris	-8.80839
▁simple	-8.8146
▁début	-8.81647
▁porte	-8.818
▁garantir	-8.81832
▁zone	-8.81836
▁autorités	-8.82417
▁travers	-8.82558
▁8	-8.82617
▁publique	-8.82873
▁ayant	-8.82968
▁euro	-8.83273
▁espère	-8.83313
▁an	-8.83408
▁traitement	-8.83613
▁parties	-8.83744
▁répondre	-8.83884
▁régime	-8.83984
▁davantage	-8.84066
▁sites	-8.84175
▁lorsqu	-8.84644
▁liberté	-8.84662
▁direction	-8.84751
▁ensuite	-8.84778
▁efficace	-8.84787
▁disposition	-8.84955
▁simplement	-8.85103
▁environ	-8.85308
▁vraiment	-8.85666
▁nécessaires	-8.85731
▁telle	-8.86191
▁disponibles	-8.86446
▁date	-8.86452
▁t	-8.86617
▁pu	-8.86686
▁r	-8.86743
▁consommateurs	-8.86758
▁adresse	-8.86788
▁procédure	-8.86791
▁h	-8.86824
▁relations	-8.86851
▁importe	-8.86971
▁amendement	-8.87146
▁crois	-8.87364
▁passe	-8.87396
▁présidente	-8.87662
▁communication	-8.87741
▁tels	-8.87827
▁national	-8.87833
▁permettre	-8.88661
▁concurrence	-8.88673
▁2010	-8.88785
▁clairement	-8.88966
▁lequel	-8.88974
▁autant	-8.89247
▁évaluation	-8.89269
▁connaissance	-8.8989
▁êtes	-8.9033
▁éléments	-8.90471
▁veuillez	-8.9071
▁changement	-8.90728
▁sûr	-8.90759
▁législation	-8.90848
▁plutôt	-8.90992
▁devant	-8.91053
▁visant	-8.91347
elle	-8.91505
▁financière	-8.91516
▁économiques	-8.91544
▁argent	-8.91575
▁difficile	-8.91652
▁2007	-8.9178
▁libre	-8.9185
it	-8.92008
▁dernières	-8.92032
p	-8.92067
▁paix	-8.92163
▁ait	-8.92169
b	-8.92275
▁écrit	-8.92315
▁ceci	-8.92461
▁députés	-8.92795
▁quant	-8.92835
▁directement	-8.92836
▁nature	-8.92847
▁devraient	-8.93119
▁normes	-8.93202
▁moyens	-8.93385
▁conférence	-8.93435
▁gens	-8.9347
▁&	-8.93537
▁air	-8.93639
▁passer	-8.93673
▁chine	-8.93887
▁g	-8.94154
▁technique	-8.94156
▁demander	-8.94172
▁termes	-8.94219
▁guerre	-8.94226
▁téléphone	-8.94426
▁grands	-8.94498
▁cour	-8.94518
▁choses	-8.94541
▁nations	-8.95002
▁solutions	-8.95052
▁marchés	-8.95105
▁voie	-8.95136
▁or	-8.95191
▁esprit	-8.95346
▁financement	-8.95446
▁culture	-8.95629
▁communautaire	-8.95712
▁actions	-8.959
▁meilleur	-8.95989
▁conséquent	-8.96
▁domaines	-8.9601
▁certain	-8.96159
▁juridique	-8.96167
▁voici	-8.96289
▁initiative	-8.9677
▁semaine	-8.96792
▁négociations	-8.97204
▁p	-8.97612
▁meilleure	-8.97794
▁celles	-8.97868
▁propos	-8.97945
▁messieurs	-8.98153
▁[	-8.98293
▁vu	-8.98759
▁image	-8.98994
▁large	-8.99331
▁série	-8.99334
▁documents	-8.99392
▁siècle	-8.99557
▁remercier	-8.99763
▁passé	-8.99772
▁pêche	-8.99778
▁origine	-8.99809
▁cuisine	-8.99874
▁réduire	-8.99883
▁cinq	-8.99928
▁uniquement	-9.00155
le	-9.00455
▁activité	-9.00605
▁doute	-9.00836
▁démocratie	-9.00915
▁suivant	-9.01098
(	-9.01409
▁idée	-9.01523
▁succès	-9.0156
▁nécessité	-9.01748
▁éviter	-9.01788
▁capacité	-9.0179
▁art	-9.02098
▁ministre	-9.02255
dames	-9.02376
▁grandes	-9.02465
▁durant	-9.0271
▁véritable	-9.02835
ions	-9.02991
▁paris	-9.03089
▁hommes	-9.03284
k	-9.03686
▁appel	-9.03734
▁cœur	-9.03883
▁utilisateur	-9.04076
▁soutenir	-9.04193
▁éducation	-9.04198
▁fournir	-9.04278
nous	-9.04331
▁euros	-9.04416
▁essentiel	-9.04595
▁français	-9.05035
▁quartier	-9.05153
▁100	-9.0519
▁exercice	-9.05205
▁amélioration	-9.05211
▁progrè	-9.05276
▁cliquez	-9.05336
▁km	-9.05351
▁musique	-9.0549
▁comprend	-9.05671
▁exigences	-9.0597
en	-9.06328
▁responsable	-9.06463
▁50	-9.06488
▁9	-9.06498
▁offrir	-9.06642
▁contraire	-9.06679
▁prise	-9.06759
▁déclaration	-9.0689
▁plein	-9.06891
▁réception	-9.06894
▁résultat	-9.06939
▁document	-9.07094
▁loin	-9.07117
▁proximité	-9.07147
3	-9.0723
▁mondial	-9.07258
ation	-9.07279
▁réalité	-9.07304
▁construction	-9.07618
▁intérêts	-9.07798
aux	-9.0784
ing	-9.08044
00	-9.08239
▁trouverez	-9.08266
▁pied	-9.08343
▁client	-9.08427
▁chacun	-9.08431
▁travailleurs	-9.08481
▁administration	-9.0852
▁aurait	-9.08545
▁permis	-9.08594
▁in	-9.08604
▁rapide	-9.08609
▁tiers	-9.08776
▁mal	-9.08803
▁etc	-9.08939
▁fichiers	-9.0901
▁convention	-9.09099
▁propres	-9.09158
▁russie	-9.09251
▁utilisateurs	-9.09299
▁2006	-9.09313
▁engagement	-9.09409
▁dialogue	-9.09449
▁social	-9.09576
▁technologie	-9.0959
▁commentaires	-9.09653
▁justice	-9.09656
▁signifie	-9.09671
▁commun	-9.10037
▁haute	-9.10088
▁décisions	-9.10091
▁représente	-9.10114
▁mêmes	-9.10177
▁entrée	-9.10196
▁permettant	-9.10401
▁majorité	-9.10472
▁telles	-9.10518
▁11	-9.10553
▁souhaite	-9.10667
▁25	-9.10689
▁voulons	-9.10704
▁voté	-9.10837
▁main	-9.10971
▁section	-9.11018
▁partenaires	-9.11124
▁jeux	-9.11457
▁images	-9.11876
_	-9.11946
u	-9.1199
▁confort	-9.12097
▁modèle	-9.12427
▁montre	-9.12469
▁facile	-9.12511
▁centrale	-9.12554
▁déjeuner	-9.12555
▁fut	-9.12664
▁petite	-9.12679
▁souhaitez	-9.12717
▁contexte	-9.12888
▁code	-9.12931
▁efficacité	-9.12932
v	-9.12964
▁afrique	-9.13066
▁mode	-9.13089
▁logiciel	-9.13171
▁force	-9.13184
g	-9.13275
▁continue	-9.13298
▁durable	-9.13299
▁techniques	-9.1334
▁confiance	-9.13353
▁]	-9.13472
▁complète	-9.1352
▁troisième	-9.13759
▁utilisé	-9.13796
▁valeurs	-9.13842
▁étoiles	-9.13953
▁générale	-9.14306
▁vente	-9.14325
$	-9.14325
▁comité	-9.14421
▁auprès	-9.14463
1	-9.14776
▁importants	-9.14813
▁pratiques	-9.14882
▁coûts	-9.14925
▁17	-9.15029
▁vidéo	-9.15219
f	-9.15277
▁contien	-9.15363
▁utilise	-9.15363
▁travaux	-9.15436
▁européennes	-9.15465
▁charge	-9.15491
▁renforcer	-9.15492
▁nationale	-9.15612
▁historique	-9.15661
▁re	-9.16097
▁juin	-9.16165
▁mai	-9.1636
▁travailler	-9.16434
▁adhésion	-9.16572
▁organisations	-9.16865
de	-9.1695
▁16	-9.17069
▁partage	-9.17142
▁saint	-9.17201
▁ajouter	-9.17272
▁total	-9.17374
▁inter	-9.17375
▁participation	-9.17545
▁télévision	-9.17757
▁atteindre	-9.17783
▁fichier	-9.18013
ne	-9.18232
▁terre	-9.18802
▁voyage	-9.18926
▁mots	-9.19017
▁départ	-9.19144
▁parler	-9.192
▁journée	-9.1923
▁quoi	-9.19323
▁raisons	-9.19355
▁i	-9.19433
▁montant	-9.19479
▁dispositions	-9.19494
▁protéger	-9.19513
▁tu	-9.19523
▁the	-9.1967
▁parti	-9.19684
al	-9.1983
▁tour	-9.19852
▁mot	-9.19966
▁association	-9.201
▁gamme	-9.20256
▁assez	-9.20394
▁technologies	-9.20447
▁analyse	-9.20778
ca	-9.20809
▁veut	-9.20832
▁preuve	-9.20886
▁idéal	-9.21463
▁nationaux	-9.21538
▁sommet	-9.21622
▁banque	-9.21681
▁parc	-9.22042
▁2005	-9.22053
▁tiens	-9.22142
▁co	-9.22267
▁moderne	-9.22303
▁ouverte	-9.22333
▁faites	-9.22348
▁présenter	-9.2252
▁décembre	-9.22643
▁référence	-9.22703
▁évolution	-9.22742
▁réserve	-9.22833
▁piscine	-9.2298
▁ouverture	-9.23027
▁intégration	-9.23038
ont	-9.23341
▁principes	-9.23559
▁accueil	-9.23582
▁risques	-9.23588
▁ordinateur	-9.2362
▁aller	-9.23771
▁convient	-9.23824
in	-9.23903
▁chance	-9.2399
▁entièrement	-9.24072
▁sociétés	-9.24078
▁*	-9.24131
▁émission	-9.24212
▁réduction	-9.24259
▁entendu	-9.24383
▁style	-9.2446
▁augmentation	-9.24781
▁partenariat	-9.24874
▁possède	-9.24888
▁gouvernements	-9.25063
▁dieu	-9.25064
▁profiter	-9.25362
▁importantes	-9.25527
▁jouer	-9.25534
▁route	-9.25585
▁malheureusement	-9.25605
▁vient	-9.2595
▁études	-9.25987
/	-9.26082
▁réalisé	-9.26189
▁petites	-9.26204
▁soins	-9.26208
▁collaboration	-9.26215
▁source	-9.26268
▁commande	-9.2632
▁manque	-9.26411
même	-9.26511
▁volonté	-9.26557
▁2000	-9.26579
▁crédit	-9.26984
▁14	-9.27008
▁malgré	-9.27039
▁développer	-9.27238
▁suivi	-9.27246
▁septembre	-9.27407
▁extrêmement	-9.27429
▁mars	-9.27501
▁devez	-9.27603
▁réglementation	-9.2763
▁exploitation	-9.27652
▁financiers	-9.27807
▁peux	-9.2805
▁mort	-9.28067
▁clair	-9.28093
▁estime	-9.2815
▁réunion	-9.28188
▁tard	-9.28345
▁agriculture	-9.28484
▁découvrir	-9.28532
▁récemment	-9.28669
▁message	-9.2868
▁numéro	-9.28919
▁pression	-9.28961
▁“	-9.29022
▁adopté	-9.29036
▁réforme	-9.29116
▁reçu	-9.29267
▁souligner	-9.29377
▁étude	-9.29457
▁vigueur	-9.29491
▁changements	-9.29536
▁comprendre	-9.29572
▁nuit	-9.29593
▁apporter	-9.29761
▁aéroport	-9.30116
▁catégorie	-9.30382
▁x	-9.30393
▁assurance	-9.30393
▁appelle	-9.30394
▁avaient	-9.30462
▁démocratique	-9.30572
▁pourra	-9.30619
▁suivre	-9.30675
me	-9.31117
moi	-9.31485
▁visite	-9.31572
▁stabilité	-9.31584
▁outils	-9.31605
▁turquie	-9.31629
▁élargissement	-9.3167
▁parfoi	-9.31708
▁langue	-9.31714
▁effets	-9.31787
▁entier	-9.31902
▁permettra	-9.31938
▁photo	-9.31997
▁janvier	-9.32013
▁octobre	-9.32114
▁impact	-9.32229
ur	-9.32266
▁aspects	-9.32432
▁contrat	-9.32478
▁désormais	-9.32529
▁petits	-9.32647
г	-9.32948
▁unies	-9.33065
▁dix	-9.33155
▁livre	-9.33382
▁critères	-9.3341
▁six	-9.33492
▁anglais	-9.33526
us	-9.33564
▁formulaire	-9.33618
▁critique	-9.33664
▁amérique	-9.33846
▁zones	-9.33928
▁permettent	-9.33957
▁prend	-9.33975
▁proche	-9.34084
▁néanmoins	-9.34143
▁examen	-9.34182
▁agence	-9.34353
▁événements	-9.3442
▁salon	-9.34504
▁installation	-9.3478
▁venir	-9.34802
▁continuer	-9.3494
▁2004	-9.34979
▁met	-9.35079
▁conséquences	-9.35092
▁complexe	-9.35184
▁vrai	-9.35231
▁lisbonne	-9.35281
▁ouvert	-9.35325
▁dépenses	-9.35349
▁tenu	-9.35396
▁financier	-9.3542
▁excellent	-9.35707
▁nationales	-9.35719
▁électronique	-9.35723
▁via	-9.35767
▁facilement	-9.3584
▁13	-9.35869
▁active	-9.35898
▁relatives	-9.359
▁intervention	-9.36035
▁emplois	-9.36333
▁bénéficie	-9.36384
▁compétences	-9.36387
▁ontario	-9.36427
▁rapports	-9.36453
▁demandé	-9.36482
▁accords	-9.36543
▁publics	-9.36709
▁mission	-9.36767
▁port	-9.36877
▁train	-9.36931
je	-9.37006
▁novembre	-9.3703
▁accepter	-9.3706
▁longtemps	-9.37194
▁échange	-9.37251
▁époque	-9.37257
▁agir	-9.37303
▁animaux	-9.37475
▁terrasse	-9.37515
▁canadienne	-9.37533
▁durée	-9.3755
▁taille	-9.37707
▁matériel	-9.37762
▁ça	-9.37839
▁principaux	-9.37873
▁bord	-9.37999
▁allemagne	-9.38022
▁merci	-9.38031
▁pourtant	-9.38065
▁vacances	-9.38092
▁défense	-9.38342
▁prises	-9.38371
▁compromis	-9.38436
▁principal	-9.38492
▁promouvoir	-9.38528
▁longue	-9.38561
▁victimes	-9.38644
▁sociaux	-9.38997
▁chef	-9.39038
▁peine	-9.39163
▁lien	-9.39293
▁caractère	-9.39399
▁endroit	-9.39564
▁plage	-9.39574
▁tenir	-9.39669
▁fil	-9.39761
▁etats	-9.39832
▁distribution	-9.40001
▁présence	-9.40167
▁responsables	-9.40198
▁peuple	-9.40321
▁garantie	-9.40405
▁liens	-9.40443
▁possibilités	-9.4059
▁participer	-9.40637
▁devri	-9.4068
▁dollars	-9.4083
age	-9.40868
▁québec	-9.4094
▁plaisir	-9.4119
▁réaliser	-9.41206
▁divers	-9.41235
▁menace	-9.41267
▁ancienne	-9.41306
▁gauche	-9.41461
▁établir	-9.41547
▁”	-9.41547
▁commencer	-9.4159
▁lignes	-9.41811
▁prochain	-9.41828
▁salles	-9.41866
▁professionnels	-9.41898
▁secteurs	-9.41916
▁autour	-9.42085
▁bois	-9.42115
▁rue	-9.42335
▁recevoir	-9.42396
▁essentielle	-9.42402
▁niveaux	-9.42596
▁40	-9.42604
▁déclaré	-9.42704
▁investissement	-9.42748
▁méthode	-9.42837
▁arrivée	-9.42847
▁retour	-9.42999
▁élément	-9.43043
▁meilleurs	-9.43204
▁forte	-9.43235
▁devenir	-9.43264
▁fournisseur	-9.4336
▁genre	-9.43384
▁prochaine	-9.43408
▁propriété	-9.43587
▁milliards	-9.43601
▁équipements	-9.43639
▁juillet	-9.43641
▁recommandation	-9.43773
▁statut	-9.43822
▁élections	-9.43953
▁transparence	-9.43986
▁presque	-9.44037
re	-9.44081
▁écran	-9.4421
▁photos	-9.44259
▁procédures	-9.44299
à	-9.4444
▁urgence	-9.44464
▁of	-9.44495
▁anti	-9.44546
▁avantages	-9.44655
▁terrain	-9.44704
▁spécifiques	-9.44889
▁jardin	-9.44896
▁f	-9.44927
▁adopter	-9.44996
▁transports	-9.4506
▁pages	-9.45121
▁internationales	-9.45123
▁derniers	-9.4517
▁police	-9.45192
▁certainement	-9.45287
▁promotion	-9.4538
▁vont	-9.45396
▁choisir	-9.45456
▁modifier	-9.45457
▁financières	-9.45459
▁respecter	-9.4552
rait	-9.45588
▁paiement	-9.45628
▁conformément	-9.45632
▁permettez	-9.45874
▁gare	-9.45983
▁marque	-9.45993
▁19	-9.4608
▁budgétaire	-9.46342
▁double	-9.46362
▁windows	-9.46384
▁privé	-9.46455
la	-9.46483
▁contribution	-9.46607
▁coût	-9.46629
▁v	-9.46692
▁enfant	-9.46813
▁lumière	-9.46838
▁spécifique	-9.46927
▁professionnelle	-9.47063
▁pièces	-9.47157
▁présenté	-9.47192
▁lecture	-9.47444
▁fond	-9.47496
▁usage	-9.47506
▁supplémentaires	-9.47535
▁forces	-9.47577
▁articles	-9.47588
▁pauvreté	-9.47849
®	-9.47866
▁faisant	-9.47909
▁souhait	-9.47911
▁constitution	-9.47995
▁instruments	-9.48131
▁totalement	-9.48362
▁fonctionnement	-9.48458
5	-9.48507
▁royaume	-9.48545
▁corps	-9.48608
▁amis	-9.48658
▁outil	-9.48723
vient	-9.48756
▁discussion	-9.48905
▁intention	-9.48926
▁contact	-9.49014
▁chers	-9.49016
▁paragraphe	-9.49027
▁égalité	-9.49047
▁savons	-9.49146
▁située	-9.49177
ée	-9.492
▁21	-9.49232
▁agricole	-9.4928
▁appliquer	-9.49311
▁dossier	-9.49338
▁échelle	-9.49411
▁adoption	-9.49532
▁innovation	-9.49573
▁parvenir	-9.49626
▁vis	-9.4967
▁investissements	-9.49774
▁agréable	-9.49867
▁avril	-9.4988
▁actuel	-9.50031
▁lesquels	-9.5021
▁campagne	-9.50269
▁demain	-9.50488
▁remercie	-9.5054
▁profit	-9.50668
▁village	-9.50805
▁élevé	-9.50881
▁uni	-9.51089
▁priorité	-9.51096
▁milieu	-9.51116
▁gaz	-9.51268
▁consommation	-9.51327
▁design	-9.51334
▁humains	-9.51345
▁destiné	-9.51397
▁accéder	-9.5148
▁nouvel	-9.51566
▁puisque	-9.51585
▁affaire	-9.51741
▁22	-9.52037
▁alimentaire	-9.52089
▁option	-9.52225
▁utilisez	-9.5224
▁mètres	-9.52384
te	-9.52396
▁considérable	-9.52422
▁frontières	-9.5244
▁enseignement	-9.52554
▁relative	-9.52582
▁enregistrement	-9.52728
▁territoire	-9.52732
▁internationaux	-9.53188
▁ex	-9.53285
▁violence	-9.53299
▁connexion	-9.53358
▁précisé	-9.53515
▁utilisant	-9.53596
▁atteint	-9.53612
▁proposé	-9.53622
4	-9.53625
▁poste	-9.53763
▁note	-9.53814
▁instrument	-9.53835
▁rend	-9.53878
▁2003	-9.53977
▁solidarité	-9.54048
▁étape	-9.5409
▁utilisés	-9.54129
▁structure	-9.54321
▁énergétique	-9.54338
▁ancien	-9.54589
▁coeur	-9.54671
▁voilà	-9.54683
▁conçu	-9.54813
▁bain	-9.54819
▁classe	-9.54906
▁conception	-9.5498
▁pro	-9.55101
▁envoyer	-9.55142
▁parole	-9.55311
▁personnelle	-9.55344
▁location	-9.55371
▁presse	-9.55418
▁école	-9.5553
▁tendance	-9.55584
▁court	-9.55637
▁commence	-9.55743
▁fonctionne	-9.55821
▁voix	-9.55867
▁connaître	-9.55875
▁réservation	-9.55919
▁opinion	-9.56116
▁arrive	-9.56227
▁université	-9.5624
▁employés	-9.56267
▁évidemment	-9.56268
▁décidé	-9.56319
ème	-9.56566
▁initiatives	-9.56601
▁langues	-9.56604
▁organismes	-9.56605
▁résoudre	-9.5669
▁serveur	-9.56704
▁types	-9.56733
▁considération	-9.5677
▁augmenter	-9.56787
▁obtenu	-9.5681
▁fondamentaux	-9.56838
▁contribuer	-9.56851
▁considère	-9.56867
▁belle	-9.56899
is	-9.56911
▁dois	-9.56965
▁détails	-9.56971
▁république	-9.57055
▁liés	-9.57235
▁lesquelles	-9.57237
▁médias	-9.57249
▁consiste	-9.5726
w	-9.5733
▁diverses	-9.57452
▁connu	-9.57465
▁direct	-9.57525
▁compagnie	-9.57593
▁potentiel	-9.57695
▁ministère	-9.57735
▁table	-9.57837
▁calme	-9.57841
▁dû	-9.58022
▁directeur	-9.58053
▁caractéristique	-9.58129
▁matin	-9.58137
▁femme	-9.58412
▁environnemental	-9.58436
▁canadiens	-9.58436
▁opérations	-9.5852
▁semaines	-9.58577
▁faible	-9.58588
▁réellement	-9.58648
▁créé	-9.58688
▁emplacement	-9.58699
▁vaste	-9.58733
▁changer	-9.58768
▁défaut	-9.58779
dessous	-9.5883
▁extérieur	-9.58847
▁fonctions	-9.58898
▁consulter	-9.58929
▁voulez	-9.59057
▁offrent	-9.59338
ch	-9.5937
▁format	-9.59371
▁civile	-9.59408
▁mandat	-9.59466
▁sortie	-9.59515
▁yeux	-9.59605
▁maintenir	-9.59731
▁chemin	-9.59785
▁âge	-9.59921
▁climatique	-9.6007
▁exprimer	-9.60333
▁change	-9.60352
▁soir	-9.60547
▁attend	-9.60564
▁utile	-9.60571
▁al	-9.60658
▁difficultés	-9.60665
▁gratuit	-9.61032
▁privée	-9.61148
▁généralement	-9.61164
▁23	-9.61217
és	-9.6123
▁indispensable	-9.61356
▁pose	-9.61398
▁procès	-9.61438
▁réunions	-9.61484
▁assistance	-9.61588
▁repas	-9.61595
▁rester	-9.61695
▁absolument	-9.61717
▁pourront	-9.61958
▁marche	-9.61966
▁60	-9.62047
▁partout	-9.62123
▁laisser	-9.62294
▁club	-9.62309
▁disque	-9.6237
▁candidats	-9.62379
▁applications	-9.62383
▁représentants	-9.62404
▁pleinement	-9.62468
▁complet	-9.62672
▁défis	-9.62782
▁sources	-9.62793
▁voiture	-9.628
▁île	-9.62877
▁parking	-9.63028
▁guide	-9.63041
▁étudiants	-9.63081
▁cartes	-9.63094
▁fins	-9.63168
▁lire	-9.63204
▁réseaux	-9.63239
▁vise	-9.63358
▁servir	-9.63366
iez	-9.63515
▁quantité	-9.63516
▁oui	-9.63525
▁achat	-9.63572
▁principale	-9.63603
▁revenu	-9.63667
▁appartement	-9.63674
▁enquête	-9.63727
▁collègue	-9.63823
▁montréal	-9.63838
▁limite	-9.63898
▁capitale	-9.63947
▁effectuer	-9.64266
▁installations	-9.64302
▁parfaitement	-9.6437
▁expression	-9.64475
▁coup	-9.64516
▁oeuvre	-9.64587
▁fera	-9.64672
▁condition	-9.64681
▁armes	-9.64798
▁couleur	-9.64804
▁adoptée	-9.64941
▁dessus	-9.65092
▁paquet	-9.65144
ta	-9.65207
▁tourisme	-9.65233
▁tête	-9.65474
▁réalisation	-9.65542
na	-9.6555
ie	-9.65642
▁terrorisme	-9.65701
▁auteur	-9.65715
&	-9.65721
▁globale	-9.65935
ia	-9.6597
▁rappeler	-9.66015
▁devoir	-9.66079
▁réformes	-9.66106
▁équilibre	-9.66125
▁personnels	-9.6617
▁poursuivre	-9.66211
▁militaire	-9.6627
▁erreur	-9.66292
et	-9.66338
▁impression	-9.6635
▁vivre	-9.66361
▁mouvement	-9.66426
▁féliciter	-9.66455
▁conflit	-9.66481
▁méthodes	-9.66545
▁maximum	-9.66553
▁priorités	-9.66623
▁février	-9.66707
▁situe	-9.66887
▁demandes	-9.66924
▁aspect	-9.66984
▁new	-9.67005
▁italie	-9.67046
▁devra	-9.6711
▁mises	-9.67225
▁joue	-9.67319
▁capital	-9.67448
▁clé	-9.67492
▁positive	-9.67492
▁sociales	-9.67532
▁hors	-9.67585
▁publiques	-9.67603
▁exécution	-9.67864
▁musée	-9.68065
▁immédiatement	-9.68217
▁principalement	-9.6824
▁vision	-9.68249
▁voter	-9.68257
▁sport	-9.68311
▁grave	-9.68377
▁défi	-9.68413
▁idées	-9.68544
▁restaurants	-9.68549
▁vertu	-9.6863
ité	-9.6864
▁el	-9.68706
▁absence	-9.69129
▁lois	-9.69141
▁véhicules	-9.69149
▁lit	-9.69193
▁idéale	-9.69384
▁options	-9.69516
▁veiller	-9.69543
▁fer	-9.69551
vis	-9.69561
▁couleurs	-9.69569
▁logiciels	-9.69969
▁proposer	-9.69983
▁autorité	-9.70016
▁support	-9.70017
▁fi	-9.70041
▁familles	-9.70061
▁experts	-9.70144
▁participants	-9.70249
▁vol	-9.70308
▁définition	-9.70309
▁tandis	-9.70385
▁envers	-9.70449
▁scène	-9.70702
▁bains	-9.70706
▁suisse	-9.70768
▁offert	-9.709
▁villes	-9.71031
▁revenus	-9.71259
▁droite	-9.71372
▁locaux	-9.71373
les	-9.71503
▁immigration	-9.71533
▁rendu	-9.71671
▁2002	-9.7171
▁gratuitement	-9.71718
▁formes	-9.71862
▁heureux	-9.71906
▁indiqué	-9.71917
▁britannique	-9.7194
▁vérifier	-9.71988
▁maladie	-9.72056
▁séance	-9.72091
▁israël	-9.72104
▁espagne	-9.72188
▁meilleures	-9.72251
▁probablement	-9.72259
▁ré	-9.72331
▁premières	-9.72396
▁figure	-9.72414
▁session	-9.72548
▁conséquence	-9.72551
▁garde	-9.72562
▁crée	-9.72593
▁payer	-9.72612
ã	-9.72623
▁contribue	-9.72803
▁soi	-9.72805
▁mérite	-9.72831
▁st	-9.72835
▁coordination	-9.72923
▁américain	-9.72924
▁supérieur	-9.72948
▁influence	-9.7296
▁sais	-9.72981
▁veulent	-9.73028
▁thème	-9.73062
▁and	-9.73149
▁encourager	-9.73359
▁signe	-9.73422
▁sélection	-9.73437
▁concept	-9.7357
▁soumis	-9.73954
▁milliers	-9.73976
▁communes	-9.74042
▁monétaire	-9.74089
30	-9.74258
▁o	-9.74291
▁menu	-9.74313
▁discussions	-9.74362
j	-9.74366
▁certaine	-9.74401
▁modification	-9.74583
▁déterminer	-9.74869
▁quelles	-9.74961
▁remise	-9.74998
▁relation	-9.75019
▁confortable	-9.75046
▁visiter	-9.75181
▁invite	-9.75224
▁surveillance	-9.7533
▁biais	-9.75573
▁chaîne	-9.75607
▁dirigeants	-9.75664
▁appartements	-9.75671
▁côte	-9.75681
▁énorme	-9.75778
▁célèbre	-9.75895
▁film	-9.75909
▁cohésion	-9.75921
▁dynamique	-9.75937
▁comptes	-9.75943
▁radio	-9.75945
▁comprennent	-9.76106
▁commercial	-9.76117
▁révision	-9.76196
▁locales	-9.76223
▁puissance	-9.764
▁station	-9.76412
▁contacter	-9.76449
▁circulation	-9.76472
isme	-9.76482
▁appareil	-9.76497
▁église	-9.76512
▁entend	-9.76596
▁bénéficier	-9.76598
▁automatiquement	-9.76682
▁considéré	-9.76729
an	-9.7682
▁supplémentaire	-9.76855
▁premiers	-9.77018
▁traiter	-9.77211
▁tâche	-9.77261
▁prévention	-9.77266
ées	-9.77304
▁saison	-9.77308
▁précédent	-9.77339
▁choisi	-9.77346
▁debian	-9.77422
▁édition	-9.77422
▁suffisam	-9.77423
▁magnifique	-9.77425
▁2001	-9.77475
▁humaine	-9.77485
▁pré	-9.77489
▁allons	-9.77587
▁ambiance	-9.7763
▁patrimoine	-9.77642
▁modifications	-9.7775
▁étranger	-9.77865
▁200	-9.77875
co	-9.77894
▁annonce	-9.77922
▁communiquer	-9.78009
▁obligations	-9.78047
▁attendre	-9.7821
▁exposition	-9.78214
▁banques	-9.78254
▁moyenne	-9.78271
▁description	-9.78344
que	-9.78363
▁arrêt	-9.78506
▁local	-9.78527
▁fournit	-9.78535
▁nucléaire	-9.78713
▁principales	-9.78716
▁opportunité	-9.7873
▁communautaires	-9.78769
▁veux	-9.78812
▁mobilité	-9.78925
▁500	-9.78938
▁française	-9.78946
▁seconde	-9.78976
▁suffit	-9.79164
▁visiteurs	-9.79183
▁coffre	-9.79192
▁inc	-9.792
▁délai	-9.79388
▁présentation	-9.79421
delà	-9.7949
▁climat	-9.79554
▁préparation	-9.79579
▁liées	-9.79634
▁événement	-9.79812
▁champ	-9.79844
▁favorable	-9.79913
▁blanc	-9.80034
▁rencontre	-9.80052
man	-9.80062
▁commerciales	-9.80064
▁apporte	-9.80105
▁fondation	-9.80312
▁ouvrir	-9.80419
▁utilisée	-9.80479
est	-9.80575
▁totale	-9.80704
▁examiner	-9.8073
▁modernes	-9.80831
▁acheter	-9.80886
▁mener	-9.80972
▁aliments	-9.80994
▁27	-9.81195
▁parle	-9.81342
▁comportement	-9.8138
▁prévu	-9.81425
▁café	-9.81558
▁80	-9.81699
▁populaire	-9.81699
▁gérer	-9.81747
▁moteur	-9.81792
▁avions	-9.81796
▁déclarations	-9.81831
▁représentant	-9.81886
▁économies	-9.81948
▁prévoi	-9.82016
▁auto	-9.82064
▁empêcher	-9.82175
▁annuel	-9.82203
▁surface	-9.82309
▁modèles	-9.82438
▁japon	-9.82526
▁trouvé	-9.82537
▁réel	-9.82557
▁canadien	-9.82621
▁commencé	-9.82712
▁k	-9.82778
▁assure	-9.82784
▁finalement	-9.82841
/24	-9.82866
▁pauvres	-9.82984
▁produire	-9.8299
▁communautés	-9.83021
▁devenu	-9.83027
▁1999	-9.83194
▁recours	-9.8321
▁prêt	-9.83225
▁dé	-9.83338
▁cd	-9.83359
▁chômage	-9.83388
▁informatique	-9.83454
▁soleil	-9.83535
▁violation	-9.83545
▁lieux	-9.83545
▁billet	-9.83726
▁séjourner	-9.83727
▁parents	-9.8374
▁ouest	-9.8374
▁sait	-9.83851
▁asie	-9.83876
▁naturel	-9.83891
▁tirer	-9.83973
▁préalable	-9.84033
▁gros	-9.84053
▁douche	-9.84214
▁largement	-9.84227
▁claire	-9.8426
▁irlande	-9.84292
▁fondée	-9.84293
▁août	-9.84334
▁pleine	-9.8438
▁prêts	-9.84427
▁solide	-9.84429
▁stratégique	-9.84459
▁naturellement	-9.84475
▁bus	-9.84554
▁accepte	-9.84623
to	-9.84702
▁sol	-9.84716
si	-9.84759
▁producteurs	-9.84779
▁bienvenue	-9.84782
▁élaboration	-9.84943
▁danger	-9.84952
ais	-9.85061
▁final	-9.85087
▁attitude	-9.85126
▁impossible	-9.85139
▁jeune	-9.8534
▁atmosphère	-9.85428
▁réduit	-9.85568
▁scientifiques	-9.85573
▁hier	-9.85661
ai	-9.85662
▁indique	-9.85669
▁commerciaux	-9.85716
▁transfert	-9.85723
▁siège	-9.85775
▁médicaments	-9.85792
▁maladies	-9.85851
▁compétitivité	-9.85874
▁savez	-9.85879
▁diversité	-9.85884
▁hôtels	-9.85925
▁maintien	-9.86169
▁poids	-9.86175
▁opposition	-9.86258
▁central	-9.86279
▁professionnel	-9.86317
▁san	-9.86341
▁auquel	-9.86412
▁renforcement	-9.8643
▁applique	-9.86532
▁perspectives	-9.86604
▁architecture	-9.86728
ils	-9.8675
▁actes	-9.86832
▁phase	-9.86888
▁mémoire	-9.86914
▁bruxelles	-9.87041
▁minimum	-9.87108
▁autorisation	-9.87124
▁fabrication	-9.87135
▁montré	-9.8714
▁conclusion	-9.87148
▁américains	-9.8726
▁disponibilité	-9.8731
▁touche	-9.87336
▁visa	-9.87346
▁responsabilités	-9.87559
▁personnelles	-9.87617
€	-9.87668
▁ii	-9.87715
▁quels	-9.87847
▁verre	-9.87857
▁conseils	-9.87937
▁lac	-9.87954
▁institution	-9.88055
▁configuration	-9.88208
ma	-9.88367
▁satellite	-9.88451
▁équipement	-9.88483
▁courant	-9.88502
▁faciliter	-9.88517
▁partager	-9.88524
▁basé	-9.88544
▁reconnaissance	-9.88602
▁bâtiment	-9.88652
▁province	-9.88664
▁centres	-9.88707
▁faite	-9.88712
▁poser	-9.88797
▁dimension	-9.88815
▁représentent	-9.88911
▁espérons	-9.88947
▁déchets	-9.88979
▁identité	-9.89022
▁tient	-9.8904
▁réelle	-9.89154
▁ministres	-9.89193
▁organisé	-9.89251
▁scientifique	-9.89335
▁accueillir	-9.89527
▁é	-9.89551
da	-9.89669
▁pierre	-9.89704
▁étrangères	-9.89776
▁sérieux	-9.89785
▁régulièrement	-9.8979
▁retard	-9.89883
▁entrer	-9.90025
▁traite	-9.90026
un	-9.90028
▁beau	-9.90139
▁cent	-9.90177
▁tv	-9.90185
▁montrer	-9.90402
▁télécharger	-9.90643
▁parlementaire	-9.90797
▁comporte	-9.90821
▁excellente	-9.90831
▁lutter	-9.90869
▁habitants	-9.90871
▁passage	-9.90871
▁vin	-9.91067
▁conscience	-9.91152
▁disposent	-9.91304
▁entendre	-9.91325
▁spa	-9.91349
▁unité	-9.91374
▁distance	-9.91411
▁installer	-9.91414
▁inde	-9.91478
▁judiciaire	-9.91501
▁arriver	-9.9155
▁complètement	-9.91567
▁définir	-9.91581
▁artistes	-9.91599
▁existence	-9.91604
▁sert	-9.91649
▁découvre	-9.91683
▁www	-9.9175
▁organiser	-9.91803
▁tradition	-9.91866
▁test	-9.91873
▁fruits	-9.91901
▁félicite	-9.91926
▁clientèle	-9.92033
▁bouton	-9.92046
▁courriel	-9.92115
▁forum	-9.92152
▁eaux	-9.92171
▁suivante	-9.92197
▁commerciale	-9.92212
▁organisme	-9.9223
▁sept	-9.92315
▁effectivement	-9.92324
▁véhicule	-9.92342
▁apprendre	-9.9241
lons	-9.92456
▁licence	-9.92488
▁compétence	-9.92488
▁ouvre	-9.92502
▁américaine	-9.92541
▁obligation	-9.92589
▁vitesse	-9.92678
▁acteurs	-9.92704
▁portée	-9.92747
▁père	-9.92781
▁31	-9.92798
▁résidence	-9.92966
▁futur	-9.93059
▁sujets	-9.9307
▁différence	-9.93126
▁consultation	-9.93169
▁introduction	-9.93216
▁exige	-9.93237
▁inscription	-9.93249
▁publié	-9.93417
▁plans	-9.93475
▁vice	-9.93556
▁pouvant	-9.93591
▁accorder	-9.93593
▁interne	-9.93595
▁combien	-9.93628
▁alimentation	-9.93676
▁efficaces	-9.93972
▁existant	-9.94036
té	-9.94051
▁vite	-9.94207
▁agriculteurs	-9.94214
▁participe	-9.94225
▁numérique	-9.94236
▁pc	-9.94284
▁étrangère	-9.9431
▁fête	-9.94398
▁es	-9.94401
▁positif	-9.94413
6	-9.9448
at	-9.94483
▁préparer	-9.94487
▁partenaire	-9.94545
▁avance	-9.94573
▁protocole	-9.94701
▁correctement	-9.94813
▁w	-9.94905
▁accessible	-9.94959
▁lettre	-9.94975
▁jean	-9.95028
▁physique	-9.95047
▁utilisées	-9.95058
▁aimerais	-9.95108
▁offrant	-9.95166
▁sauf	-9.95179
▁rouge	-9.952
▁désire	-9.95254
▁dépend	-9.95254
▁évaluer	-9.95272
▁constater	-9.95325
▁détail	-9.95408
▁joueurs	-9.95523
▁graves	-9.95597
▁retrouve	-9.95614
▁demeure	-9.95675
▁perte	-9.95678
▁accroître	-9.95702
▁inclus	-9.95704
▁aurez	-9.95949
▁agricoles	-9.95967
▁28	-9.95988
▁implique	-9.9615
▁précis	-9.96165
▁nécessite	-9.96177
▁discuter	-9.96231
▁concours	-9.96256
▁global	-9.96415
▁compter	-9.96477
fumeurs	-9.965
▁susceptible	-9.9665
▁stade	-9.96822
▁juridiques	-9.96823
▁réduite	-9.96846
ed	-9.96877
▁garder	-9.96908
▁ca	-9.96946
▁hiver	-9.96951
▁espoir	-9.97033
▁annoncé	-9.97048
▁standard	-9.97049
▁lancé	-9.97176
▁tarifs	-9.97182
▁messages	-9.97227
▁publication	-9.97268
▁limites	-9.97297
▁riche	-9.97425
▁moitié	-9.97432
au	-9.97545
▁linux	-9.97609
el	-9.97705
▁tarif	-9.9798
▁golf	-9.98068
▁anciens	-9.9809
▁90	-9.983
▁uvre	-9.98352
▁vert	-9.98354
▁charme	-9.98366
▁discrimination	-9.98458
▁devront	-9.98476
▁perspective	-9.9856
▁buffet	-9.98637
▁affiche	-9.98639
▁cheveux	-9.98803
▁réaction	-9.98877
▁reconnaître	-9.98892
▁conclusions	-9.98926
▁basée	-9.98932
▁extérieure	-9.98985
▁soutenu	-9.99081
▁26	-9.99197
▁préoccupations	-9.99286
▁tenue	-9.99356
▁alimentaires	-9.99401
▁ski	-9.99471
▁copie	-9.99477
▁trafic	-9.99479
▁porter	-9.9953
▁conduite	-9.99565
▁machine	-9.99638
▁aborder	-9.99709
▁relativement	-9.99719
▁facteurs	-9.99735
▁chapitre	-9.99782
▁congrès	-9.99782
▁dis	-9.99861
▁ferme	-9.99894
▁plats	-10.0002
▁gagner	-10.0003
▁procéder	-10.0007
▁travaille	-10.0015
▁impôt	-10.0018
▁conclure	-10.0021
net	-10.0028
▁beauté	-10.0037
▁retraite	-10.0048
▁stricte	-10.0053
▁lancer	-10.0062
▁alliance	-10.0077
▁hausse	-10.0079
▁chauffage	-10.0082
▁château	-10.0091
▁conflits	-10.0092
▁effort	-10.0101
▁armée	-10.0104
▁faisons	-10.0113
▁traités	-10.0116
▁peuples	-10.0118
▁bout	-10.0122
▁établi	-10.0135
▁hébergement	-10.0141
▁engagements	-10.0152
▁exception	-10.0179
▁statistiques	-10.0185
▁envoyé	-10.0189
▁feu	-10.0189
▁cycle	-10.0193
▁portant	-10.0199
▁mi	-10.0201
▁règle	-10.0201
▁300	-10.0222
▁appareils	-10.0223
▁super	-10.0231
▁livraison	-10.0234
▁dehors	-10.0237
ton	-10.0252
▁po	-10.0253
▁voitures	-10.0256
▁tableau	-10.0257
▁70	-10.0265
▁institut	-10.0268
▁faudra	-10.0286
▁marques	-10.0289
▁remplir	-10.0291
ner	-10.0292
▁conforme	-10.0298
▁évident	-10.0308
▁remarque	-10.031
▁souligné	-10.0314
▁régionale	-10.0321
▁no	-10.0323
pprovisionnement	-10.0327
▁festival	-10.0338
▁chiffres	-10.0343
▁clos	-10.0343
▁accent	-10.0344
mail	-10.0356
▁arrière	-10.0356
▁mentionné	-10.036
▁aime	-10.037
▁objets	-10.0383
▁iran	-10.0385
▁oublier	-10.0396
▁charte	-10.0402
▁fortement	-10.0405
▁office	-10.0407
▁papier	-10.0413
▁réussi	-10.0414
▁servi	-10.0421
▁échanges	-10.0424
▁chargé	-10.0424
▁substances	-10.0427
▁écoles	-10.0427
▁discours	-10.0435
▁planification	-10.0439
▁appui	-10.0441
um	-10.0446
▁informer	-10.0448
▁lits	-10.0458
▁entière	-10.0459
▁accueille	-10.0468
▁multi	-10.0484
▁christ	-10.0485
▁explique	-10.0501
▁officiel	-10.051
▁répond	-10.0511
▁irak	-10.052
▁mette	-10.0523
▁équipées	-10.0526
▁penser	-10.0529
▁luxe	-10.0537
▁mm	-10.0542
▁+	-10.0563
▁demand	-10.0564
▁performance	-10.0588
or	-10.0592
▁impose	-10.0596
▁parallèle	-10.0598
▁réussite	-10.0599
▁pl	-10.0604
▁humain	-10.0605
▁voyageurs	-10.0615
▁aides	-10.0621
▁ton	-10.0628
▁intermédiaire	-10.064
ic	-10.0641
▁certes	-10.0644
▁régional	-10.0646
▁suites	-10.0649
?	-10.0661
▁collection	-10.0663
▁te	-10.067
▁capable	-10.0676
▁relatif	-10.0677
▁penson	-10.0688
▁chacune	-10.0703
▁composé	-10.0704
▁to	-10.071
▁baisse	-10.071
là	-10.0716
▁regard	-10.0727
8	-10.0737
▁micro	-10.0739
▁auxquel	-10.0749
▁appelé	-10.075
▁déposé	-10.0758
▁organisée	-10.0768
▁prestations	-10.078
▁vieux	-10.0787
▁culturel	-10.0796
▁vais	-10.08
▁destination	-10.08
▁évidence	-10.08
▁réjouis	-10.0803
▁provenant	-10.0806
▁opération	-10.0806
▁construit	-10.0808
▁avantage	-10.0808
▁structures	-10.0809
▁capacités	-10.0814
▁interdiction	-10.082
▁pièce	-10.082
▁diffusion	-10.0822
▁offres	-10.0825
▁écologique	-10.0825
▁militaires	-10.0827
▁apprentissage	-10.0838
▁culturelle	-10.0842
▁approuvé	-10.0846
▁monnaie	-10.0849
▁augmente	-10.0859
▁viande	-10.086
▁van	-10.0862
▁dvd	-10.0862
▁goût	-10.0868
▁délais	-10.0876
▁privées	-10.0888
7	-10.0891
▁espèces	-10.0896
▁législatif	-10.0899
▁tôt	-10.091
▁indépendance	-10.0914
▁consultez	-10.0917
▁traduction	-10.0919
▁élèves	-10.0932
▁proposons	-10.0932
▁su	-10.0938
▁génération	-10.0945
▁hauteur	-10.0948
▁sortir	-10.0953
▁logique	-10.0961
▁naturelles	-10.0965
▁confronté	-10.0966
▁essayer	-10.0969
verbal	-10.0977
▁second	-10.0986
▁locale	-10.0999
▁crédits	-10.1008
▁engage	-10.1015
▁noter	-10.1016
▁publicité	-10.1019
▁fixé	-10.1025
▁calendrier	-10.1026
▁infrastructure	-10.1037
▁vérité	-10.1042
▁mécanisme	-10.1047
▁circonstances	-10.1047
ter	-10.105
▁attirer	-10.1056
▁exprimé	-10.1086
▁entretien	-10.1087
▁1998	-10.1087
▁cherche	-10.1088
▁tribunal	-10.1089
▁livres	-10.1091
▁stable	-10.1098
▁instant	-10.1102
▁partis	-10.1103
▁infrastructures	-10.1105
▁directe	-10.111
▁course	-10.1112
▁ay	-10.1112
▁réfugiés	-10.1116
▁go	-10.1117
▁limiter	-10.1137
▁fondamentale	-10.1139
▁spécial	-10.114
▁patients	-10.1144
▁rendez	-10.1145
▁contrôler	-10.1155
▁sanctions	-10.1164
▁défendre	-10.1164
▁chefs	-10.1165
▁flux	-10.117
▁directrice	-10.1174
▁souligne	-10.1177
▁réalisée	-10.1178
▁planète	-10.1178
▁mains	-10.1188
▁métro	-10.1195
▁matériaux	-10.1199
▁souhaiterai	-10.1206
▁derrière	-10.1212
▁prenez	-10.1214
▁intégrée	-10.1228
▁décider	-10.1228
▁simples	-10.123
▁supprimer	-10.1231
▁reflète	-10.1232
▁asile	-10.1236
▁rendement	-10.125
▁mauvais	-10.125
▁compagnies	-10.1256
▁passagers	-10.1258
▁villa	-10.1258
▁kilomètres	-10.1265
▁palais	-10.1275
▁mobile	-10.1276
go	-10.1282
q	-10.1286
▁fasse	-10.1288
▁adéquate	-10.129
▁clés	-10.1294
▁rome	-10.1299
▁informé	-10.1301
▁soin	-10.1306
▁chinois	-10.1313
▁conserver	-10.1316
▁efficacement	-10.1322
▁interface	-10.133
▁générales	-10.1332
▁disposer	-10.1334
▁microsoft	-10.1345
▁29	-10.1346
▁normale	-10.1355
▁étrangers	-10.136
▁continu	-10.1367
▁courrier	-10.1385
‘	-10.1398
▁machines	-10.1401
▁assuré	-10.1401
▁grèce	-10.1407
▁marchandises	-10.141
▁imposer	-10.141
▁encontre	-10.1411
▁acte	-10.1412
▁reconnu	-10.1413
▁ascenseur	-10.1414
▁taxe	-10.1416
▁erreurs	-10.1421
▁allemand	-10.1423
▁dette	-10.1447
▁parlé	-10.1453
▁ajoute	-10.1453
▁intégrer	-10.1455
▁fils	-10.1455
▁carrière	-10.1457
▁pourrons	-10.1458
ar	-10.1458
▁actif	-10.1468
▁règlements	-10.1472
▁mère	-10.1478
▁venez	-10.1481
▁vendredi	-10.1485
▁vieille	-10.1488
▁satisfaire	-10.1495
▁échec	-10.1495
▁—	-10.1495
▁tentative	-10.15
▁demi	-10.1505
▁classique	-10.1513
▁géographique	-10.1514
▁favoriser	-10.1515
▁honneur	-10.1516
▁gouvernance	-10.152
▁pouvait	-10.1529
▁signé	-10.1535
▁moindre	-10.1547
▁it	-10.1552
▁sort	-10.1553
▁agents	-10.1564
▁relatifs	-10.1566
▁tâches	-10.1566
▁multiples	-10.157
▁auraient	-10.1575
▁vaut	-10.1586
ine	-10.1586
ard	-10.1589
▁conscient	-10.159
▁prochaines	-10.1597
▁extension	-10.1598
▁phénomène	-10.1603
▁expliquer	-10.1608
▁inclure	-10.161
naux	-10.1614
▁actifs	-10.162
▁revenir	-10.1625
▁york	-10.1625
▁bref	-10.1626
▁humaines	-10.1631
▁fondamental	-10.1631
▁proposés	-10.1634
▁textes	-10.1639
▁amour	-10.1661
▁agences	-10.1665
▁exactement	-10.1666
▁inacceptable	-10.1676
▁lecteur	-10.1679
▁supérieure	-10.1685
▁postes	-10.1712
▁neuf	-10.1717
▁interprétation	-10.1718
▁raisonnable	-10.1719
▁ta	-10.1722
▁développé	-10.1728
▁recherches	-10.1729
▁spécialement	-10.1732
▁traditionnelle	-10.1736
▁apparaît	-10.1743
▁précise	-10.1745
▁huile	-10.1746
▁manifeste	-10.1749
▁montagne	-10.1756
▁post	-10.1757
▁climatisation	-10.1758
▁devait	-10.1758
èrent	-10.1762
▁identifier	-10.1766
▁connue	-10.1771
able	-10.1773
▁désir	-10.1778
▁pouvoirs	-10.1781
▁35	-10.1781
▁décrit	-10.1788
▁élevés	-10.179
▁théâtre	-10.1795
▁restent	-10.1801
▁berlin	-10.1803
▁vingt	-10.1808
▁engager	-10.1819
▁atteinte	-10.1827
▁peau	-10.1828
▁for	-10.1828
▁bientôt	-10.1829
▁travaillent	-10.1829
▁bureaux	-10.1832
▁sérieuse	-10.1834
▁construire	-10.1836
▁rappelle	-10.1837
▁0	-10.1838
▁audio	-10.1843
▁fourni	-10.1845
▁adapter	-10.1848
▁temporaire	-10.1856
▁sentiment	-10.1857
▁http	-10.1861
▁humanitaire	-10.1865
▁ukraine	-10.1865
▁vins	-10.1866
▁commandes	-10.1866
▁onu	-10.187
▁pointe	-10.1871
ad	-10.1877
▁représentation	-10.1887
▁opérateur	-10.1892
▁confortables	-10.1895
▁arts	-10.1895
▁appliquée	-10.1905
▁initiale	-10.1907
▁sèche	-10.1914
▁amsterdam	-10.1916
▁bel	-10.1925
▁continent	-10.1925
▁familiale	-10.1926
▁trait	-10.1928
▁quelqu	-10.1928
▁encourage	-10.1929
▁voire	-10.1933
▁doté	-10.1961
▁salaire	-10.197
▁paramètres	-10.1978
▁équitable	-10.1978
▁respecte	-10.198
▁puisqu	-10.1992
▁expériences	-10.1997
▁q	-10.2003
▁volume	-10.201
▁département	-10.2019
▁effectué	-10.202
▁repose	-10.2022
▁invités	-10.2027
▁fais	-10.2036
▁serez	-10.2036
▁consommateur	-10.2044
▁ajout	-10.2053
▁inscrit	-10.2053
▁automatique	-10.2053
▁acquis	-10.206
▁virus	-10.2072
▁heureuse	-10.2076
▁vidéos	-10.2079
▁travaillé	-10.2082
▁intérieure	-10.2101
▁somme	-10.2108
▁élaborer	-10.2109
▁express	-10.2118
▁exercer	-10.2123
orient	-10.213
▁libéralisation	-10.213
▁mini	-10.213
▁reprises	-10.2131
▁u	-10.2135
▁contenant	-10.2139
▁créée	-10.214
▁1997	-10.2143
▁rejoindre	-10.2151
▁né	-10.2151
▁omc	-10.2152
▁centaines	-10.2155
▁portes	-10.2155
▁champs	-10.2162
▁intéressant	-10.2165
▁mondialisation	-10.2174
▁fraude	-10.2183
▁particuliers	-10.2193
▁automobile	-10.2194
▁huit	-10.2198
▁considérer	-10.2199
cles	-10.2202
▁pont	-10.2213
▁finances	-10.2215
▁parcours	-10.2231
▁maisons	-10.2233
▁cher	-10.2234
▁foi	-10.2235
ir	-10.2237
▁récente	-10.224
▁attentes	-10.2248
▁vallée	-10.2249
▁consensus	-10.2258
▁bibliothèque	-10.2259
▁délégation	-10.2262
▁parfait	-10.2263
▁conclu	-10.2264
▁mécanismes	-10.2271
▁paquets	-10.2288
▁soutiens	-10.2297
▁procédé	-10.2297
▁pme	-10.2302
▁casino	-10.2304
▁forêts	-10.2307
▁bons	-10.2308
▁laisse	-10.2317
▁installé	-10.2319
▁ver	-10.232
▁viennent	-10.2323
ion	-10.2332
▁artistique	-10.2339
▁ventes	-10.2342
▁reprise	-10.2342
▁google	-10.2343
▁faudrait	-10.2348
▁fédéral	-10.2351
▁performances	-10.2355
▁php	-10.237
▁effectuée	-10.2374
▁disposon	-10.2374
▁fiscale	-10.2389
▁occupe	-10.239
▁kosovo	-10.2392
▁négociation	-10.2394
▁os	-10.2395
▁communications	-10.2397
▁obligatoire	-10.2404
▁londres	-10.2406
▁bancaire	-10.2406
▁perdu	-10.241
▁sauna	-10.2413
▁barcelone	-10.2416
▁maritime	-10.2418
▁expertise	-10.242
▁indiquer	-10.2421
▁différences	-10.2428
▁donnée	-10.243
▁z	-10.2432
▁horaires	-10.2444
▁satisfait	-10.2445
▁pacte	-10.2447
▁contrôles	-10.2448
▁flexibilité	-10.2456
▁mauvaise	-10.2467
▁lundi	-10.2476
▁choisissez	-10.2476
▁pétrole	-10.2485
▁instruction	-10.2493
▁structurels	-10.2494
▁voisins	-10.2498
▁be	-10.2505
▁offrons	-10.2531
▁vih	-10.2535
oyez	-10.2536
▁bande	-10.2545
▁mont	-10.2547
▁explication	-10.2554
▁fenêtre	-10.2558
▁finale	-10.2559
▁exceptionnelle	-10.2565
▁plainte	-10.2568
▁tente	-10.2569
▁éventuelle	-10.2578
▁budgétaires	-10.2578
▁transition	-10.2581
▁résolu	-10.2581
▁soutient	-10.2586
org	-10.2591
▁allez	-10.2591
▁participé	-10.2592
▁naturelle	-10.2592
▁réserver	-10.2593
▁agenda	-10.2595
▁rural	-10.2598
ge	-10.26
▁manger	-10.2602
▁avancer	-10.2607
▁dimanche	-10.2607
▁conférences	-10.2608
▁adultes	-10.2613
▁pacifique	-10.2616
▁nettoyage	-10.2625
▁dossiers	-10.2631
▁député	-10.2632
ique	-10.2641
▁possibles	-10.2647
▁approbation	-10.2658
▁hôtes	-10.2675
▁moyennes	-10.2682
▁souhaitent	-10.2684
▁richesse	-10.2702
▁etat	-10.2704
▁préserver	-10.2708
▁mélange	-10.2711
▁variété	-10.2712
▁consacré	-10.2713
▁démocrates	-10.2713
▁entente	-10.2719
▁libertés	-10.2719
▁correspond	-10.272
▁orateur	-10.2731
▁chercher	-10.2732
▁prennent	-10.2733
no	-10.2736
▁dur	-10.2738
▁ajouté	-10.274
▁joué	-10.2749
▁superbe	-10.2749
▁soumise	-10.276
▁films	-10.2763
▁voit	-10.2766
▁navigateur	-10.2767
▁soumettre	-10.2769
▁concernés	-10.2776
▁perdre	-10.278
▁avai	-10.2789
▁noir	-10.2798
▁réflexion	-10.2798
▁dîner	-10.2806
▁manuel	-10.2806
▁recev	-10.281
>	-10.2814
▁logement	-10.2827
▁inscrire	-10.2829
▁wi	-10.2831
▁reçoi	-10.2832
▁légère	-10.2834
▁confidentialité	-10.285
▁vivent	-10.2861
▁ami	-10.2864
▁auberge	-10.2876
▁arrivé	-10.2878
▁red	-10.2886
▁belles	-10.2894
▁conservation	-10.2897
▁album	-10.2897
▁prévue	-10.2898
lo	-10.2903
▁division	-10.291
▁matières	-10.2917
▁couvre	-10.292
▁étage	-10.292
▁marketing	-10.2922
▁dommages	-10.2926
▁vérification	-10.2927
▁précision	-10.2928
▁formule	-10.2934
eur	-10.2935
▁acquisition	-10.2946
▁obstacles	-10.295
▁navigation	-10.2966
▁pologne	-10.2972
▁relever	-10.2975
▁ajoutée	-10.2982
mo	-10.2982
ale	-10.299
@	-10.3008
▁retrouver	-10.301
urs	-10.301
▁plages	-10.3011
▁institutionnel	-10.3011
▁ro	-10.3018
▁coin	-10.3027
▁cap	-10.3029
▁coupe	-10.3032
▁accepté	-10.3035
▁passant	-10.3037
▁paiements	-10.3049
▁accessibles	-10.305
ka	-10.3056
▁exclusivement	-10.3057
▁propriétaire	-10.3063
▁versions	-10.3064
▁satisfaction	-10.3065
▁interdit	-10.3067
▁sciences	-10.3073
▁tests	-10.3077
▁répertoire	-10.3082
▁):	-10.3086
▁prévenir	-10.3087
▁salue	-10.3091
▁contribué	-10.3092
▁connaît	-10.3096
▁future	-10.3098
▁concrète	-10.3099
▁conduit	-10.3103
▁concentrer	-10.3109
▁majeure	-10.3111
▁45	-10.3118
▁auparavant	-10.3124
▁fax	-10.3148
▁roumanie	-10.3151
▁quatrième	-10.3154
▁intervenir	-10.316
▁|	-10.316
▁garanties	-10.3161
▁progressive	-10.3164
▁boutique	-10.3166
▁découverte	-10.318
▁démocratiques	-10.318
▁don	-10.3188
▁harmonisation	-10.3191
▁composition	-10.3199
▁belgique	-10.3199
▁1996	-10.3205
▁end	-10.321
▁cultures	-10.321
ac	-10.3212
▁hall	-10.3225
▁samedi	-10.3231
ement	-10.3236
▁étapes	-10.3236
▁verts	-10.3239
ro	-10.3239
land	-10.3268
▁cesse	-10.3276
▁revient	-10.3279
▁parlementaires	-10.329
▁chiffre	-10.3294
▁actuels	-10.3295
os	-10.3299
▁parvenu	-10.3301
▁espagnol	-10.3308
▁témoin	-10.3315
▁amnesty	-10.3319
▁transmission	-10.3322
▁leader	-10.3323
▁signal	-10.3324
▁électroniques	-10.3327
▁associés	-10.3334
id	-10.3337
▁présents	-10.3339
▁lancement	-10.334
▁boîte	-10.3341
▁jeunesse	-10.3345
▁annuelle	-10.3346
▁privés	-10.3368
▁magasins	-10.3381
▁entraîne	-10.3382
▁industrielle	-10.3389
▁différente	-10.339
▁fixe	-10.3397
▁fondé	-10.3401
▁eur	-10.3403
▁majeur	-10.3403
▁frontière	-10.3407
ko	-10.3418
▁touristiques	-10.3419
▁investir	-10.3429
▁déplacement	-10.3431
isation	-10.3433
▁naissance	-10.3438
▁subventions	-10.3447
▁issue	-10.3449
▁donnant	-10.3449
▁sida	-10.3457
▁régionales	-10.3458
▁écoute	-10.346
▁restrictions	-10.3463
▁riches	-10.3467
▁orientation	-10.3476
be	-10.3483
▁cm	-10.3496
▁essentiels	-10.3498
▁nice	-10.3506
▁exportation	-10.3524
▁câble	-10.3527
▁spéciale	-10.3535
▁étroite	-10.3538
▁difficiles	-10.354
▁démarche	-10.3541
▁approprié	-10.3544
▁mur	-10.3547
▁voulu	-10.3548
▁anniversaire	-10.3548
▁fonctionner	-10.3562
▁vendre	-10.3564
▁envisager	-10.3572
▁facteur	-10.3572
▁température	-10.3592
▁électricité	-10.3594
▁typique	-10.3595
▁présentent	-10.3595
der	-10.3612
▁correspondant	-10.362
▁permanente	-10.3621
▁bâtiments	-10.3625
▁introduire	-10.3629
▁attaque	-10.3629
▁gratuite	-10.3638
▁chercheurs	-10.3639
▁г	-10.3639
▁sinon	-10.3644
▁pib	-10.3649
▁dépôt	-10.3651
▁paysage	-10.3653
ti	-10.3653
▁conçue	-10.3654
▁bruit	-10.3662
▁per	-10.3666
▁combat	-10.3667
▁suivantes	-10.3668
▁enregistré	-10.3672
▁vues	-10.3673
▁technologique	-10.3673
▁présentes	-10.3673
▁régler	-10.3677
▁résistance	-10.3683
▁réserves	-10.3687
`	-10.3701
▁terres	-10.3704
▁tissu	-10.3705
▁taxes	-10.3707
▁ha	-10.371
th	-10.3712
▁jeudi	-10.3713
▁mo	-10.3715
▁clause	-10.3719
mment	-10.3721
▁équipes	-10.3724
▁infraction	-10.3725
▁veille	-10.3726
▁utiles	-10.3726
▁constituer	-10.3727
▁vivant	-10.3735
▁augmenté	-10.3738
▁adresser	-10.3743
▁russe	-10.3743
▁enregistrer	-10.3751
▁apport	-10.3752
▁présentée	-10.3769
▁secrétaire	-10.377
▁wifi	-10.3774
▁exemples	-10.3783
▁calcul	-10.3806
▁noms	-10.3807
▁rencontrer	-10.3813
▁télécommunicati	-10.3823
▁îles	-10.3829
▁symbole	-10.3832
▁commentaire	-10.3833
▁garantit	-10.3836
▁marge	-10.3837
▁excellence	-10.3838
▁convaincu	-10.3838
▁proposée	-10.3841
▁•	-10.385
▁documentation	-10.3858
▁placement	-10.3861
▁effectue	-10.3861
▁systématique	-10.3867
▁officielle	-10.3868
▁fonctionnaire	-10.3869
▁proposées	-10.387
▁détente	-10.387
▁rubrique	-10.3872
▁forêt	-10.3873
▁investisseurs	-10.3879
▁rapides	-10.3879
▁pire	-10.3891
iste	-10.3893
▁effectués	-10.3894
▁fournis	-10.39
▁portugal	-10.3901
▁endroits	-10.391
▁profite	-10.3911
▁interventions	-10.3911
▁refus	-10.3912
▁couverture	-10.3915
#	-10.3921
▁ambition	-10.3921
▁150	-10.3924
▁remarques	-10.393
déjeuner	-10.394
ke	-10.3942
▁pren	-10.3957
°	-10.3965
▁décide	-10.3967
▁thèmes	-10.3969
▁sûre	-10.397
▁remarquable	-10.3974
▁élégant	-10.3976
▁équipé	-10.3978
▁ip	-10.3985
▁différent	-10.399
▁agissant	-10.3991
▁budgets	-10.3993
▁camp	-10.3994
▁laboratoire	-10.3998
▁di	-10.4001
▁trouv	-10.4002
▁bio	-10.4007
▁science	-10.4008
ure	-10.4008
ga	-10.4016
▁capitaux	-10.4018
▁individuelle	-10.4018
▁historiques	-10.4021
▁juge	-10.4022
▁légitime	-10.4023
▁ottawa	-10.4027
▁intégré	-10.4028
▁compréhension	-10.4032
▁appels	-10.4039
▁italien	-10.4039
ante	-10.404
▁décharge	-10.4043
▁afficher	-10.4044
▁financer	-10.4044
▁limitée	-10.4046
▁seigneur	-10.4053
▁établissements	-10.4055
▁lié	-10.4056
▁croire	-10.4069
▁individus	-10.4069
▁beaux	-10.4072
▁laissez	-10.4074
▁mar	-10.4085
▁manifestations	-10.4087
▁frère	-10.4088
▁éthique	-10.4091
do	-10.4096
▁caisse	-10.4105
▁destinées	-10.4105
▁ong	-10.4108
M	-10.4112
▁accompli	-10.4113
▁illégale	-10.4118
▁régionaux	-10.4118
▁indépendant	-10.4121
▁valable	-10.4123
T	-10.4125
▁appuyer	-10.4132
▁auberges	-10.4132
▁décoration	-10.4136
▁développe	-10.4141
▁sang	-10.4141
▁studio	-10.4141
▁pieds	-10.4151
▁profil	-10.4153
▁retirer	-10.4167
▁empêche	-10.4173
▁vouloir	-10.4174
▁module	-10.4174
viennent	-10.4178
▁boutiques	-10.418
▁mac	-10.4193
▁indépendante	-10.4195
▁afghanistan	-10.4201
▁modalités	-10.4202
▁éliminer	-10.4212
▁difficulté	-10.4213
▁graphique	-10.4214
▁espaces	-10.4214
di	-10.4216
▁arrêter	-10.4218
▁appartien	-10.4219
▁combinaison	-10.4222
▁conseiller	-10.4223
▁signature	-10.4237
▁gouvernementale	-10.4238
▁nourriture	-10.4238
▁appropriée	-10.4239
▁400	-10.4243
rons	-10.4244
▁relève	-10.4251
▁concert	-10.4261
▁ocde	-10.4264
▁terminer	-10.4266
▁agisse	-10.428
▁contacts	-10.428
▁propriétaires	-10.4282
▁décor	-10.4283
▁sec	-10.4288
▁extrême	-10.4296
am	-10.43
▁liée	-10.4317
▁corruption	-10.4323
▁compose	-10.4325
▁dangereux	-10.4327
▁auteurs	-10.433
▁plat	-10.4331
▁honorable	-10.4336
▁auxquelles	-10.4337
▁quotidien	-10.4343
▁voyages	-10.4344
▁existent	-10.4348
▁loisirs	-10.4349
▁paroles	-10.435
▁religion	-10.435
▁spécialisée	-10.4351
20	-10.4363
▁allant	-10.4369
▁conduire	-10.4376
▁printemps	-10.4376
ol	-10.438
▁territoires	-10.4381
▁titres	-10.4381
▁immobilier	-10.4393
▁remplacer	-10.4393
▁affirme	-10.4402
▁sexe	-10.4405
▁1995	-10.4407
ly	-10.4408
▁terroristes	-10.4413
▁original	-10.4414
▁rénové	-10.4438
▁étendue	-10.4441
▁constante	-10.4442
▁nucléaires	-10.445
▁crimes	-10.4457
▁ko	-10.4458
▁fondamentales	-10.446
▁masse	-10.4465
▁rythme	-10.4468
▁prête	-10.4469
▁équipée	-10.4472
▁quasi	-10.4473
▁suède	-10.4475
▁800	-10.4476
▁explorer	-10.4477
▁transactions	-10.448
▁mutuelle	-10.4485
▁degré	-10.4493
▁°	-10.4493
▁humanité	-10.4497
pi	-10.45
▁minorités	-10.4512
▁introduit	-10.4512
ient	-10.4513
▁tenter	-10.4515
▁montagnes	-10.4524
▁insister	-10.4529
▁recommandé	-10.4529
▁envisage	-10.4532
▁intellectuelle	-10.4536
▁collecte	-10.4539
▁placé	-10.4539
▁adaptation	-10.4541
▁con	-10.4548
▁bateau	-10.4549
▁avion	-10.455
▁accordée	-10.4556
▁week	-10.4557
▁32	-10.4558
▁vit	-10.4559
▁bases	-10.456
▁fonctionnalités	-10.4561
ba	-10.4561
▁suppression	-10.4568
▁star	-10.457
▁inclut	-10.457
▁plénière	-10.4576
▁can	-10.4576
▁recettes	-10.4577
▁accrue	-10.458
use	-10.4585
▁hésitez	-10.4592
▁aérien	-10.4594
▁passion	-10.46
tte	-10.4601
▁univers	-10.4603
▁pollution	-10.4605
▁filles	-10.4607
rie	-10.461
ry	-10.4611
im	-10.4615
▁téléchargement	-10.4615
▁navires	-10.4633
▁joueur	-10.4634
▁otan	-10.4643
▁destruction	-10.4644
▁courage	-10.4645
nes	-10.4653
▁véritablement	-10.4657
▁religieuse	-10.4658
▁agent	-10.466
▁minute	-10.4661
▁entraîner	-10.4663
▁organes	-10.4663
ré	-10.4664
▁corée	-10.4665
://	-10.467
▁hu	-10.4674
▁attendent	-10.4676
pa	-10.4686
▁touristique	-10.4692
▁caractères	-10.4695
▁transformation	-10.4702
▁progresser	-10.472
▁am	-10.4721
▁sauvegarde	-10.4724
▁indépendants	-10.473
▁recommande	-10.4737
ler	-10.4741
▁baie	-10.4743
▁norme	-10.4747
▁pension	-10.4749
▁concrètes	-10.4751
ément	-10.4756
▁1990	-10.476
ul	-10.4763
eurs	-10.4768
▁expositions	-10.4768
▁implication	-10.4772
▁chaud	-10.4787
▁électrique	-10.479
▁avancées	-10.4792
▁ya	-10.4808
▁suivants	-10.4812
▁similaires	-10.4814
▁blog	-10.4816
ana	-10.4823
▁changé	-10.4828
▁peur	-10.4835
▁alternative	-10.4845
▁chimiques	-10.4847
▁appliquent	-10.4848
▁sincère	-10.485
if	-10.4855
▁linguistique	-10.4855
▁citoyen	-10.4856
▁définie	-10.4863
▁nommé	-10.4864
▁combattre	-10.4866
▁stockage	-10.4871
ier	-10.4872
▁titulaire	-10.4878
▁reconnaît	-10.4887
▁méditerranée	-10.4887
▁balcon	-10.4895
▁concernées	-10.4899
▁restauration	-10.4907
ni	-10.4908
▁intervenant	-10.4918
président	-10.492
▁vols	-10.4926
▁rencontré	-10.4932
▁appeler	-10.4933
▁visites	-10.4935
▁devenue	-10.4936
▁carburant	-10.4937
▁remboursement	-10.4938
▁instance	-10.494
)	-10.4948
▁bénéfices	-10.4949
▁exclusion	-10.4953
▁sports	-10.4954
▁noyau	-10.4958
▁pilote	-10.4964
▁barre	-10.4966
▁spécialistes	-10.4984
▁précédente	-10.4984
▁toronto	-10.4989
▁autoroute	-10.499
▁fournisse	-10.4994
▁ampleur	-10.4998
▁tabac	-10.4998
▁fao	-10.501
▁limité	-10.501
▁écart	-10.5016
▁renouvelables	-10.5017
▁unesco	-10.5026
▁associations	-10.5027
▁tellement	-10.5029
▁souten	-10.503
▁attente	-10.5034
▁élaboré	-10.5035
▁cité	-10.5038
▁envoi	-10.5042
▁attractions	-10.5047
▁suit	-10.5051
▁signaler	-10.5054
▁actualité	-10.5067
▁world	-10.5076
▁étendre	-10.5078
▁réparation	-10.508
▁facture	-10.5082
▁accordé	-10.5089
▁centrales	-10.5097
▁catastrophe	-10.5098
▁trans	-10.5099
▁entité	-10.5103
▁capables	-10.5103
▁élève	-10.511
▁rêve	-10.5113
▁tri	-10.5121
▁acheteur	-10.513
▁appuy	-10.5135
▁référendum	-10.5141
ja	-10.5145
▁sable	-10.515
▁vague	-10.5162
è	-10.517
▁modifiée	-10.5172
▁conformité	-10.518
▁disant	-10.518
▁abus	-10.5186
▁vien	-10.5187
▁min	-10.5187
▁assister	-10.519
▁extraordinaire	-10.5194
▁poisson	-10.5195
▁déficit	-10.5197
▁évoqué	-10.5203
▁explicite	-10.521
▁extérieures	-10.5213
▁excursions	-10.5215
▁pr	-10.5221
▁carbone	-10.5222
▁exceptionnel	-10.5227
▁jésus	-10.523
▁revanche	-10.523
▁journal	-10.5232
▁ample	-10.5233
▁étai	-10.5234
▁remettre	-10.5236
▁orientations	-10.5243
▁optique	-10.5244
▁ar	-10.5244
▁canal	-10.5248
▁spectacle	-10.5257
▁transmettre	-10.526
▁wc	-10.5261
▁communs	-10.5261
▁arc	-10.5263
▁identification	-10.5271
▁justement	-10.5272
▁registre	-10.5273
▁culturelles	-10.5277
▁spéciales	-10.5281
▁productivité	-10.5292
▁accorde	-10.5292
▁dizaine	-10.5297
▁opposé	-10.53
▁révolution	-10.5303
▁acier	-10.5313
▁line	-10.5314
▁brésil	-10.5314
tre	-10.5321
▁best	-10.5322
▁développeur	-10.5324
▁civils	-10.533
▁artiste	-10.5331
▁attaques	-10.5334
▁métier	-10.5338
son	-10.5339
▁volontaire	-10.5339
▁candidat	-10.535
▁spéciaux	-10.5351
▁rivière	-10.5353
▁fédérale	-10.5355
▁hautes	-10.5355
▁pourrions	-10.5364
▁allemande	-10.5364
ou	-10.5384
▁autorisé	-10.5386
▁étudier	-10.5388
▁pertes	-10.5398
▁boissons	-10.5398
▁fixer	-10.5399
▁futures	-10.5402
▁détention	-10.5406
▁faibles	-10.5406
▁cinéma	-10.5421
▁cliquer	-10.5421
▁apporté	-10.5423
▁animation	-10.5424
▁ambitieux	-10.5429
▁immense	-10.5429
▁pêcheur	-10.5434
▁mouvements	-10.5444
▁significative	-10.546
va	-10.5461
▁soirée	-10.5464
▁libres	-10.5466
▁rejet	-10.5469
▁permanent	-10.5469
▁engagée	-10.5483
▁ppe	-10.5483
▁magasin	-10.5486
▁souffre	-10.5486
▁usa	-10.5486
▁courte	-10.5489
▁profondeur	-10.5493
▁vendu	-10.5494
▁permettron	-10.5497
io	-10.5499
▁constam	-10.55
▁avancée	-10.5502
▁étend	-10.5503
▁criminalité	-10.5505
▁paraît	-10.5506
▁repos	-10.5511
▁essais	-10.5516
▁annexe	-10.5519
▁paul	-10.5522
▁récentes	-10.5524
▁éventail	-10.5526
▁annulation	-10.5529
▁normal	-10.5531
▁pdf	-10.5531
▁provenance	-10.5534
▁assumer	-10.5536
▁navette	-10.5539
▁issu	-10.5541
midi	-10.555
▁ad	-10.5561
▁ven	-10.5562
▁déclare	-10.5562
▁sélectionne	-10.5565
▁plantes	-10.5569
▁flotte	-10.5571
▁requis	-10.5572
▁langage	-10.5574
dé	-10.5575
▁constitutionnel	-10.5582
▁programmation	-10.5584
▁traditionnel	-10.5587
ver	-10.5587
▁latine	-10.5588
▁incluant	-10.5591
▁chrétiens	-10.5592
▁exportations	-10.5594
▁bulletin	-10.5606
▁accessoires	-10.5608
▁traitements	-10.561
▁sentir	-10.5615
▁pensez	-10.5618
▁places	-10.562
▁écouter	-10.5625
▁ferroviaire	-10.5628
▁rues	-10.5631
▁lu	-10.5636
▁libération	-10.5643
▁ã	-10.565
▁roi	-10.565
▁chaleur	-10.5661
▁élevée	-10.5661
▁retrait	-10.5667
▁incidence	-10.5667
▁internes	-10.5672
▁chute	-10.5674
▁appelée	-10.5675
▁notion	-10.5679
▁2011	-10.5685
▁saisir	-10.569
▁poursuite	-10.5703
▁cancer	-10.5704
▁détendre	-10.5705
▁longues	-10.5705
ha	-10.5709
▁impliqué	-10.5713
▁victoire	-10.5713
▁spécialités	-10.5715
▁médicale	-10.5716
▁motifs	-10.5718
▁tranquille	-10.5721
▁préciser	-10.5727
▁pi	-10.5728
▁condamné	-10.5729
▁posée	-10.574
▁serons	-10.5742
▁industriels	-10.5744
▁ordinateurs	-10.5749
▁park	-10.575
▁thé	-10.575
▁genève	-10.575
▁inférieur	-10.5752
▁plateforme	-10.5762
▁démontre	-10.5762
▁val	-10.5765
▁essentielles	-10.5771
▁certificat	-10.5776
▁législative	-10.5776
▁email	-10.5777
▁traitée	-10.5785
▁tourner	-10.5796
▁préoccupation	-10.5796
▁positions	-10.5796
ri	-10.5806
▁usine	-10.5811
▁collège	-10.5826
▁doubles	-10.583
▁déroule	-10.5834
▁accompagné	-10.5835
▁maximale	-10.584
▁venu	-10.5851
▁dépasse	-10.5852
▁poissons	-10.5853
▁tchèque	-10.5854
▁destinée	-10.5855
▁serveurs	-10.5859
▁existantes	-10.5863
▁menée	-10.5868
▁appuie	-10.5871
▁considérée	-10.5874
▁fiche	-10.5875
▁concentration	-10.5878
▁médecin	-10.5879
▁quelconque	-10.5882
▁concitoyens	-10.5883
ance	-10.5893
▁irlandais	-10.5895
▁regarder	-10.5895
▁puissions	-10.5897
▁reproduction	-10.5911
▁pac	-10.5921
▁75	-10.5924
per	-10.5929
▁rares	-10.5933
▁auron	-10.5938
▁présentés	-10.5943
▁constate	-10.5943
▁joindre	-10.5944
▁pensée	-10.5948
▁mené	-10.5954
▁certification	-10.5955
▁autorisée	-10.5956
▁2020	-10.596
▁cible	-10.596
ise	-10.596
▁proches	-10.5965
▁décennies	-10.5969
▁répartition	-10.5982
▁jardins	-10.5983
▁positifs	-10.5985
▁adopte	-10.5989
▁pur	-10.599
▁iso	-10.5999
▁requête	-10.6001
▁écrite	-10.6005
▁réfléchir	-10.6009
▁découvert	-10.6009
▁incombe	-10.6014
▁pourcentage	-10.6018
▁madrid	-10.6021
▁fédération	-10.6021
▁oubli	-10.6025
▁médiateur	-10.603
▁vois	-10.604
▁palestiniens	-10.6047
▁furent	-10.6053
▁habituellement	-10.6057
▁affichage	-10.6057
▁porté	-10.6058
▁composants	-10.6059
▁résumé	-10.6059
▁prisonnier	-10.6073
▁chargée	-10.608
▁=	-10.6082
▁prévoir	-10.6082
▁croissante	-10.6083
▁détermination	-10.6085
▁ressort	-10.6091
▁attendons	-10.6094
▁media	-10.6095
▁fermement	-10.6097
▁journalistes	-10.6116
▁culturels	-10.6117
▁stratégiques	-10.6119
▁applicables	-10.6123
▁1994	-10.6127
▁acceptable	-10.6129
▁accident	-10.614
▁front	-10.6141
▁crédibilité	-10.6152
10	-10.6155
▁confirmer	-10.616
▁négative	-10.6163
▁digne	-10.6164
▁handicapées	-10.6166
▁parfaite	-10.617
▁essence	-10.6178
▁éditeur	-10.6178
▁us	-10.618
▁compléter	-10.6182
▁sexuelle	-10.6184
▁atelier	-10.6187
▁million	-10.6189
▁quotas	-10.6192
▁professeur	-10.6195
ina	-10.6206
▁contienne	-10.6207
▁industries	-10.621
ques	-10.6215
▁visage	-10.6226
▁débit	-10.6233
ty	-10.6237
▁appris	-10.6238
vrons	-10.6242
▁olympique	-10.6248
▁diminution	-10.6251
▁musées	-10.6254
▁brevets	-10.6263
▁alcool	-10.6265
▁télé	-10.6267
▁posé	-10.6274
▁flash	-10.6274
▁comparaison	-10.6291
▁tienne	-10.6293
▁annoncer	-10.6296
▁live	-10.6298
▁ouvrage	-10.6303
▁touché	-10.6307
▁autriche	-10.6311
▁net	-10.6313
▁bateaux	-10.6314
▁cabinet	-10.632
▁photographie	-10.6321
▁acp	-10.6324
▁correction	-10.6326
istes	-10.6333
▁voy	-10.6338
▁océan	-10.6338
▁rurales	-10.634
▁balkans	-10.6342
▁lance	-10.6345
▁respecté	-10.6346
▁connaisse	-10.6348
▁britanniques	-10.6355
▁sensible	-10.6358
▁considérables	-10.6362
pe	-10.6368
▁bulgarie	-10.6368
▁réputation	-10.6382
mc	-10.6384
▁desjardins	-10.6385
▁terminé	-10.6392
▁envie	-10.6397
▁sonore	-10.6398
▁chaînes	-10.6399
▁écrire	-10.641
▁dépit	-10.641
▁chaleureux	-10.6414
▁paisible	-10.6423
▁japonais	-10.6427
▁bilan	-10.6432
▁collective	-10.6435
▁avère	-10.6436
▁souci	-10.6438
▁vent	-10.6438
▁inutile	-10.6438
▁jugement	-10.6439
▁lettres	-10.644
▁longueur	-10.6443
une	-10.6444
▁claires	-10.6445
▁royal	-10.6446
▁transformer	-10.645
▁prestation	-10.6456
▁ethnique	-10.646
▁serve	-10.6463
▁routes	-10.6468
▁dignité	-10.6472
▁nation	-10.6473
▁rapporteurs	-10.6475
▁profonde	-10.6478
▁dites	-10.648
▁administratives	-10.6484
ex	-10.6485
▁autochtones	-10.6487
▁ciel	-10.6488
▁opinions	-10.649
▁vélo	-10.6492
▁bataille	-10.6495
▁unanimité	-10.6498
▁prévision	-10.6502
▁midi	-10.6502
▁regrette	-10.6509
mer	-10.651
▁visitez	-10.6515
▁prospérité	-10.6515
▁propriétés	-10.6519
▁pistes	-10.6522
▁touristes	-10.6523
▁mexique	-10.6527
▁compétition	-10.6528
▁maître	-10.6528
▁invit	-10.6529
▁prévues	-10.6532
9	-10.6533
▁sucre	-10.6535
▁48	-10.6541
▁préféré	-10.6545
▁moteurs	-10.6547
ak	-10.6549
▁revue	-10.6558
▁courante	-10.6571
▁mercredi	-10.6574
▁intérieures	-10.6576
▁contributions	-10.6581
▁favorise	-10.6581
▁expansion	-10.6582
▁john	-10.6584
▁orientale	-10.6585
▁exerce	-10.6587
▁catalogue	-10.6588
▁mille	-10.6593
▁mène	-10.6598
▁inflation	-10.6606
▁secret	-10.6615
▁numériques	-10.6619
▁seuil	-10.6622
▁dos	-10.6622
▁blanchisserie	-10.663
▁copenhague	-10.6633
▁approuve	-10.6634
▁témoigne	-10.6638
▁tonnes	-10.6648
▁automne	-10.665
▁observation	-10.6658
▁personnalité	-10.6659
▁traduit	-10.666
▁marie	-10.6664
▁subsidiarité	-10.6668
▁proposent	-10.6669
▁réalise	-10.667
▁tennis	-10.6674
▁arguments	-10.6677
▁mondiaux	-10.6689
▁maîtrise	-10.6696
▁aventure	-10.6698
▁épargne	-10.6701
▁futurs	-10.6704
▁reprendre	-10.6707
▁remarquer	-10.6708
▁attaquer	-10.671
▁originale	-10.6712
▁....	-10.6718
▁dépendance	-10.6722
▁visible	-10.6724
▁publiée	-10.6728
▁luxembourg	-10.6733
chi	-10.6734
▁traditionnels	-10.6734
▁réside	-10.6735
▁occuper	-10.6736
▁savent	-10.6738
▁universités	-10.6743
▁approuver	-10.6751
▁quinze	-10.6751
▁atlantique	-10.6755
▁sainte	-10.6758
▁saine	-10.676
▁crime	-10.6761
▁générations	-10.6769
▁volet	-10.6774
▁colonne	-10.6779
▁observer	-10.6781
▁plate	-10.6785
ley	-10.679
▁revêt	-10.6792
▁exiger	-10.6794
▁fondement	-10.6796
▁vide	-10.6798
dessus	-10.68
▁contactez	-10.68
▁bourse	-10.6801
▁business	-10.6803
▁vraie	-10.6805
▁situés	-10.6805
▁open	-10.6807
▁élu	-10.6809
▁cohérence	-10.6811
▁ac	-10.6815
▁refuser	-10.6818
▁législatives	-10.6824
▁révèle	-10.6826
▁élection	-10.6832
▁dés	-10.6837
▁crucial	-10.6839
bo	-10.6843
▁accélérer	-10.6844
▁essai	-10.6845
▁minimale	-10.6846
▁semblable	-10.6847
▁associé	-10.6848
▁adapté	-10.6848
,00	-10.6849
imons	-10.6853
▁confirmation	-10.6853
em	-10.6856
▁plafond	-10.6859
▁remis	-10.6871
▁profondément	-10.6871
▁strasbourg	-10.6873
▁quitter	-10.6883
▁comprenant	-10.6887
▁achats	-10.6887
mar	-10.689
▁puissant	-10.6894
▁mp	-10.6896
▁cohérente	-10.69
▁noire	-10.6905
▁exprimée	-10.6912
▁privilégié	-10.6916
▁payé	-10.692
▁ben	-10.6923
▁éventuel	-10.6925
▁cache	-10.6927
▁dotées	-10.693
con	-10.6931
▁pakistan	-10.6931
▁supplément	-10.6931
▁cf	-10.6932
▁confirme	-10.6939
▁présentées	-10.6943
▁bi	-10.6947
▁camping	-10.6948
liste	-10.695
▁voies	-10.6951
▁aménagement	-10.6953
▁serre	-10.6954
▁déterminé	-10.6958
▁pourriez	-10.6964
▁causé	-10.6965
▁traditions	-10.6973
▁accomplir	-10.6982
▁participant	-10.6983
▁récent	-10.6985
▁étiquetage	-10.6986
▁défini	-10.6992
▁prison	-10.6993
▁bagagerie	-10.6996
▁déposer	-10.6997
▁valide	-10.6998
▁étiquette	-10.6999
▁potentielle	-10.7003
▁schengen	-10.7008
▁console	-10.701
▁modifié	-10.701
▁décès	-10.7011
▁fermeture	-10.7014
▁approfondie	-10.7015
▁amateurs	-10.7015
▁dure	-10.7016
▁consentement	-10.7023
ini	-10.7024
▁reconstruction	-10.7026
▁impôts	-10.7028
▁voudr	-10.7031
▁western	-10.7039
▁menées	-10.7039
▁attentive	-10.7042
▁proportion	-10.7042
▁exigence	-10.7043
▁étages	-10.7049
▁répercussions	-10.7052
▁quotidienne	-10.7054
ru	-10.7058
▁régulier	-10.7063
▁ports	-10.7066
▁génétique	-10.7069
▁com	-10.707
▁affirmer	-10.7072
▁renforce	-10.7072
▁ead	-10.7074
▁votes	-10.7086
▁250	-10.7088
▁épreuve	-10.7091
▁argument	-10.7092
▁match	-10.7094
▁bras	-10.7095
▁arabe	-10.7096
▁galerie	-10.7103
▁recommand	-10.7108
▁réagir	-10.7118
▁vivement	-10.7121
rai	-10.7122
▁publications	-10.7126
▁martin	-10.7129
lin	-10.7132
▁troupe	-10.7136
▁agissai	-10.7144
▁fero	-10.7145
▁ch	-10.7151
▁gouverneur	-10.7151
▁vêtements	-10.7153
▁unités	-10.7158
▁torture	-10.7159
▁distinction	-10.7171
▁tva	-10.7173
▁rende	-10.7184
▁placer	-10.7186
▁individuels	-10.7189
▁habitude	-10.7205
▁spacieuses	-10.7209
▁missions	-10.7214
▁incroyable	-10.7215
▁qualification	-10.7222
▁prenant	-10.7223
▁confirmé	-10.7223
▁protégée	-10.7223
▁all	-10.7223
▁stocks	-10.7226
▁ga	-10.7233
▁four	-10.7235
▁colombie	-10.7236
▁stations	-10.7237
ino	-10.7238
▁composée	-10.7242
oc	-10.7242
▁fr	-10.7245
▁dimensions	-10.725
▁sélectionner	-10.725
▁mariage	-10.7251
▁socialiste	-10.7255
▁inn	-10.7256
▁industriel	-10.7262
▁fruit	-10.7264
▁favorables	-10.7265
▁italienne	-10.7268
▁by	-10.7268
▁fréquence	-10.7271
res	-10.7273
▁vérifie	-10.7274
▁bleu	-10.728
▁totalité	-10.7283
▁protège	-10.7284
▁exprime	-10.7287
▁joui	-10.729
▁familial	-10.7291
▁rechercher	-10.7292
▁étroitement	-10.7297
▁commis	-10.7302
▁contemporain	-10.7303
▁ultra	-10.7337
▁compatible	-10.7337
▁transporteur	-10.7338
▁mentionner	-10.7341
▁mention	-10.7352
▁affiché	-10.7352
▁insiste	-10.7358
▁apprécier	-10.7363
▁cinquième	-10.7363
▁couvrir	-10.7376
mp	-10.7378
▁pt	-10.7378
▁récents	-10.7379
▁formulée	-10.7379
▁trouvez	-10.7389
▁devrez	-10.7395
▁ratification	-10.7398
▁immédiate	-10.7409
▁rempli	-10.7411
▁fusion	-10.7414
▁visent	-10.7414
▁invité	-10.7417
▁inquiétude	-10.7418
▁mécanique	-10.7421
▁similaire	-10.7438
▁fille	-10.7443
▁tombe	-10.7448
▁baignoire	-10.7449
▁précédemment	-10.7452
▁promenade	-10.7461
▁proposant	-10.7469
▁formuler	-10.7475
▁file	-10.7477
du	-10.7479
▁hyperlien	-10.7481
gouvernementale	-10.7483
▁engagés	-10.7483
▁laissé	-10.7489
▁pilotes	-10.7491
▁pe	-10.7493
▁fmi	-10.7495
▁eglise	-10.7497
▁accidents	-10.7497
▁ti	-10.7509
ables	-10.7513
▁témoignage	-10.7516
▁froid	-10.7524
▁hautement	-10.7525
▁incident	-10.7532
▁bo	-10.7536
sse	-10.7538
▁corriger	-10.7541
▁is	-10.7546
▁imposée	-10.7546
▁observations	-10.7551
▁reçoivent	-10.7552
▁inquiétudes	-10.7553
▁david	-10.7555
▁maroc	-10.7559
▁critère	-10.756
▁importations	-10.7561
▁consacrée	-10.7562
▁constitué	-10.7567
▁faute	-10.7568
▁javascript	-10.7568
▁conserve	-10.7569
▁précieux	-10.7578
▁suffisant	-10.758
▁élimination	-10.7581
▁employeurs	-10.7582
▁tribunaux	-10.7584
▁limitation	-10.7584
▁suggestions	-10.7596
▁externes	-10.7602
ber	-10.7603
▁millénaire	-10.7613
▁climatiques	-10.7616
▁consultations	-10.7617
▁del	-10.7619
&#160	-10.7622
▁modes	-10.7623
▁enquêtes	-10.763
lé	-10.7633
▁représenter	-10.7636
▁leçons	-10.7636
ouest	-10.7636
▁optimale	-10.7641
▁correcte	-10.7645
mettant	-10.7647
▁collectivités	-10.7648
▁voyez	-10.7649
▁complémentaires	-10.7657
▁gi	-10.7664
▁définitive	-10.7667
▁coûte	-10.7669
▁collaborateurs	-10.7674
▁villages	-10.7676
▁intégrité	-10.7679
▁panoramique	-10.7682
▁remplacement	-10.7683
▁catastrophes	-10.7684
▁aperçu	-10.7685
▁démarrage	-10.7688
▁barrière	-10.7689
▁suppose	-10.7696
▁philosophie	-10.7705
▁feuille	-10.7708
▁1992	-10.7715
▁exécuter	-10.7716
▁signalé	-10.7719
▁meubles	-10.772
▁technologiques	-10.772
▁tenant	-10.7721
▁réservé	-10.7727
▁douce	-10.7729
bretagne	-10.773
▁fa	-10.7733
mé	-10.7734
▁bloc	-10.7734
▁football	-10.7734
▁oppose	-10.7737
▁légale	-10.7738
▁légumes	-10.7739
▁démontré	-10.7741
▁coordonnées	-10.7746
ve	-10.7749
vaient	-10.7759
▁charges	-10.776
▁secrétariat	-10.7761
▁déplacer	-10.7761
▁appropriées	-10.7772
▁glace	-10.7774
▁âgées	-10.7775
▁prendra	-10.7779
▁faisait	-10.7779
▁bienvenus	-10.7784
▁communique	-10.7789
▁vienne	-10.7791
▁engagé	-10.7793
▁retourne	-10.7797
▁exploiter	-10.7802
li	-10.7803
▁élevage	-10.7804
qui	-10.781
▁annonces	-10.7812
▁électeurs	-10.7812
▁facturé	-10.7815
▁basse	-10.7816
▁tor	-10.7819
▁développés	-10.7823
▁domicile	-10.7833
▁constaté	-10.7841
▁occasions	-10.7854
mi	-10.7857
▁aimé	-10.7859
▁imposition	-10.786
▁fabricants	-10.7863
▁enseignants	-10.7866
aire	-10.7871
▁arbres	-10.7875
▁chypre	-10.7877
▁tire	-10.7881
▁refuse	-10.7881
▁analyser	-10.7885
▁souffrance	-10.7887
▁serai	-10.7888
▁chocolat	-10.789
▁animal	-10.789
▁tiendra	-10.7896
▁conventions	-10.7897
▁ajustement	-10.79
▁passeport	-10.7908
▁emballage	-10.7911
▁fiscales	-10.7923
▁confortablement	-10.7924
ite	-10.7934
▁soulevé	-10.794
▁ressource	-10.7942
▁standards	-10.7946
▁résulte	-10.7953
▁monte	-10.7955
acquérir	-10.7956
ommercialisation	-10.7957
▁inspection	-10.7958
▁aériennes	-10.7959
▁équivalent	-10.7961
▁metton	-10.7962
▁probable	-10.7962
ut	-10.7964
▁cites	-10.7967
▁obten	-10.7968
▁instaurer	-10.797
▁intéresse	-10.797
▁peinture	-10.7976
▁spécialisés	-10.7979
▁preuves	-10.7988
▁motion	-10.7997
▁á	-10.8001
▁élevées	-10.8005
▁sensibles	-10.8005
▁randonnée	-10.8007
▁plongée	-10.8011
▁prière	-10.8012
né	-10.8015
▁pensent	-10.8021
▁archives	-10.8021
▁louer	-10.8023
▁fini	-10.8027
▁top	-10.803
▁employé	-10.8034
▁représenté	-10.8036
▁affecte	-10.8042
ian	-10.8043
▁diminuer	-10.8043
▁murs	-10.805
▁barroso	-10.8052
▁trace	-10.8054
▁présentant	-10.8055
▁naturels	-10.8057
▁levée	-10.8057
▁rang	-10.8058
▁musicale	-10.806
▁portable	-10.8065
▁fiabilité	-10.8069
▁applicable	-10.807
▁croatie	-10.8072
▁33	-10.8073
▁bénéfice	-10.8073
▁circuit	-10.8075
▁trente	-10.8078
▁régulière	-10.8078
▁autonomie	-10.8079
gi	-10.8081
▁fournie	-10.8087
▁essaye	-10.8087
jeux	-10.8088
oyons	-10.8092
▁fournies	-10.8092
▁so	-10.8093
▁siècles	-10.8101
▁substance	-10.8101
▁moments	-10.8101
▁fiable	-10.8103
▁modules	-10.8104
▁suffisante	-10.8106
▁exécutif	-10.8106
berg	-10.8107
▁exposé	-10.811
▁portefeuille	-10.811
▁bush	-10.8112
▁ateliers	-10.8112
▁opérationnel	-10.8112
▁qualifiée	-10.8115
▁assurez	-10.8119
▁ka	-10.812
jo	-10.8124
▁stimuler	-10.8126
▁universelle	-10.8128
ien	-10.8129
▁aboutir	-10.813
▁médicaux	-10.813
▁collectif	-10.8134
▁détaillée	-10.8135
▁nulle	-10.8138
▁tournoi	-10.8139
▁soutenue	-10.814
▁rock	-10.814
▁voulai	-10.8141
▁expédition	-10.8144
▁city	-10.8148
▁cadeau	-10.8148
▁répondu	-10.8153
▁gentoo	-10.8156
▁équilibré	-10.816
ue	-10.8165
hi	-10.8166
▁continuera	-10.8168
▁américaines	-10.8169
▁mail	-10.817
▁universel	-10.8173
▁piste	-10.8176
▁russes	-10.8182
▁réussir	-10.8182
▁ravi	-10.8192
▁immédiat	-10.8192
▁vi	-10.8193
▁amélioré	-10.8194
▁profond	-10.8199
▁conciliation	-10.8199
▁bce	-10.8205
▁fabriqué	-10.8208
▁secondes	-10.8211
▁minibar	-10.8213
▁autorisés	-10.8216
▁examiné	-10.8217
▁acteur	-10.8218
▁rémunération	-10.8233
▁partition	-10.824
▁externe	-10.8242
▁costa	-10.8246
▁formé	-10.8249
▁sp	-10.825
▁former	-10.8252
▁officiellement	-10.8253
▁géré	-10.8254
▁facilité	-10.8262
▁dispositif	-10.8264
▁dommage	-10.8266
▁banquets	-10.8267
▁chemins	-10.8269
▁silence	-10.8292
▁dollar	-10.8297
▁600	-10.8305
▁déterminée	-10.8309
▁morts	-10.8312
▁photocopies	-10.8319
▁plaît	-10.832
▁entreprendre	-10.8323
abilité	-10.8328
▁bonus	-10.8328
tra	-10.8331
▁rejeté	-10.8333
▁dédié	-10.8336
▁cellules	-10.8339
▁constructive	-10.8341
▁poker	-10.8343
▁provinces	-10.8346
▁familiales	-10.8353
▁citer	-10.8361
▁portail	-10.8363
▁indicateurs	-10.8367
▁affecté	-10.8367
▁facilite	-10.8369
▁dégâts	-10.8373
▁uniforme	-10.8374
▁ba	-10.8378
▁monter	-10.8379
▁hi	-10.8379
▁nomination	-10.8383
▁iii	-10.8385
▁obligé	-10.8386
▁vulnérables	-10.839
▁renforcé	-10.8392
▁bars	-10.8396
▁massif	-10.8402
+	-10.8403
▁cliquant	-10.8411
▁paysages	-10.8414
▁électriques	-10.8425
▁généraux	-10.8426
▁trésor	-10.8429
▁croissant	-10.8429
▁religieux	-10.8433
▁contenue	-10.8438
▁débattre	-10.8441
▁faiblesse	-10.8448
nbsp	-10.8451
▁demandez	-10.8455
▁prépare	-10.8456
▁organise	-10.8461
▁produite	-10.8466
▁nul	-10.8473
▁campagnes	-10.8474
▁publier	-10.8478
▁désigné	-10.8484
▁espagnole	-10.8488
▁immeuble	-10.8498
▁restructuration	-10.8503
▁36	-10.8507
▁absolue	-10.851
▁apparition	-10.851
▁voisinage	-10.8511
▁perd	-10.8521
▁créa	-10.8529
▁soldats	-10.853
▁poursuit	-10.8534
ap	-10.8539
▁syndicat	-10.854
á	-10.8543
▁marqué	-10.855
▁sub	-10.8556
▁organe	-10.8556
▁victime	-10.8556
▁tenus	-10.8559
▁effectif	-10.856
▁sondage	-10.8564
▁sauver	-10.8572
▁bassin	-10.8573
vi	-10.8575
▁souveraineté	-10.8575
▁2013	-10.8583
port	-10.8585
▁construite	-10.8589
▁authentique	-10.8589
▁massage	-10.8589
tes	-10.8592
▁fenêtres	-10.86
▁joie	-10.8608
vriez	-10.8609
ins	-10.861
iser	-10.8612
▁notes	-10.8616
▁finir	-10.8617
▁apparaisse	-10.8625
▁hommage	-10.8628
▁espérer	-10.8629
▁belge	-10.8631
▁roms	-10.8632
▁sûreté	-10.8633
▁expert	-10.8634
▁1993	-10.864
▁aurais	-10.8646
▁disent	-10.8649
▁cathédrale	-10.865
▁personnalisé	-10.865
▁bagages	-10.8662
▁demandent	-10.8666
▁apprécié	-10.867
▁opéra	-10.8672
▁info	-10.8675
▁autorise	-10.8678
▁nettement	-10.8681
▁district	-10.8683
▁faux	-10.8686
▁écriture	-10.869
▁appliqué	-10.869
▁mardi	-10.8692
▁suivie	-10.8697
▁rédigé	-10.8697
▁souris	-10.8701
▁aurion	-10.8705
▁tres	-10.8712
▁octroi	-10.8722
▁librement	-10.8722
▁répondent	-10.8737
▁entouré	-10.8743
▁traditionnelles	-10.8745
▁crises	-10.8755
▁leadership	-10.8755
▁pack	-10.8768
▁drogue	-10.8771
▁pouv	-10.8771
▁robert	-10.8777
▁morale	-10.8784
www	-10.8785
▁privilège	-10.8788
▁environs	-10.879
▁urgent	-10.8793
▁fan	-10.8795
▁retire	-10.8798
▁abonnement	-10.8799
▁opportun	-10.8801
▁plaque	-10.8801
▁hôpital	-10.8806
▁indications	-10.881
rent	-10.8811
▁problématique	-10.8812
▁mobiles	-10.8813
▁ressortissant	-10.8814
▁biologique	-10.8816
ig	-10.8818
▁contraintes	-10.8825
▁secondaire	-10.8832
▁élus	-10.8832
ki	-10.8832
▁obstacle	-10.8835
▁énergétiques	-10.8836
den	-10.8839
▁fréquemment	-10.8839
▁inverse	-10.8842
hotel	-10.885
▁convaincre	-10.8851
▁charmant	-10.8853
▁connus	-10.8858
▁définit	-10.8859
▁ouverts	-10.886
▁massive	-10.8865
▁mari	-10.887
▁adaptée	-10.8871
tor	-10.8871
▁échéant	-10.8872
▁équilibrée	-10.8874
▁permettrai	-10.8875
▁convergence	-10.8876
▁médecins	-10.8878
▁magazine	-10.888
▁extrait	-10.8889
▁logo	-10.889
▁variable	-10.8903
▁préparé	-10.8906
▁renforcée	-10.8924
▁cur	-10.8925
fr	-10.8926
▁accueillant	-10.8927
tel	-10.8937
▁évoquer	-10.8938
▁milliard	-10.8942
▁col	-10.8944
▁rendue	-10.8945
▁rejoint	-10.8954
▁connecter	-10.8955
▁usb	-10.8956
▁man	-10.8958
▁angleterre	-10.8961
▁pan	-10.8962
▁contextuelle	-10.8965
▁produisent	-10.897
sage	-10.8972
▁aidera	-10.8974
ip	-10.8976
▁maintenance	-10.8976
▁défenseur	-10.8979
▁coupable	-10.899
▁adresses	-10.8991
▁caméra	-10.8995
▁soviétique	-10.8999
▁vend	-10.9
▁fromage	-10.9001
▁chaleureuse	-10.9004
▁chèque	-10.9006
▁illustre	-10.9006
▁rappel	-10.9007
▁africains	-10.9008
▁brevet	-10.9009
▁financé	-10.901
▁contribuables	-10.9015
▁scolaire	-10.9018
fi	-10.9023
▁fiscal	-10.9027
▁retourner	-10.9029
▁pure	-10.9035
▁34	-10.9046
▁obama	-10.9047
▁00	-10.9049
▁périodes	-10.9053
▁couverte	-10.9056
▁animé	-10.9063
▁formats	-10.9064
▁cha	-10.9071
▁relance	-10.9074
▁angle	-10.9075
▁établit	-10.9076
▁démarrer	-10.9087
▁urbaine	-10.9095
▁douane	-10.9096
▁manifestation	-10.9106
▁affirmé	-10.9108
▁détaillé	-10.911
▁tenté	-10.9112
▁pilier	-10.9113
▁briève	-10.9115
▁profession	-10.9115
▁faim	-10.9119
▁em	-10.9121
▁classé	-10.9121
▁livré	-10.9126
▁surveiller	-10.9127
▁revoir	-10.9127
▁reconnue	-10.9135
▁établie	-10.9142
▁suggère	-10.9157
▁contenir	-10.9161
▁essayé	-10.9162
▁serbie	-10.9168
▁magnifiques	-10.9176
▁invitation	-10.9181
▁importation	-10.9184
▁gagné	-10.9185
▁donnera	-10.9188
▁examine	-10.9193
40	-10.9195
▁toit	-10.9196
▁tué	-10.9197
▁chantier	-10.92
ang	-10.9203
▁détenus	-10.9206
▁créativité	-10.9206
▁ra	-10.9213
▁répéter	-10.9217
▁surmonter	-10.9218
▁correct	-10.9219
▁permanence	-10.9221
▁denrée	-10.9221
▁rencontres	-10.9222
▁adaptés	-10.9222
▁fortes	-10.9234
▁découle	-10.9236
▁utilisons	-10.9237
▁ho	-10.9238
▁oublie	-10.9239
▁inclusion	-10.9244
▁déclarer	-10.9245
uquel	-10.9252
▁protégés	-10.9256
▁justifier	-10.9257
▁officielles	-10.9259
▁soutienne	-10.926
▁finlande	-10.9264
▁orient	-10.9274
▁administrative	-10.9281
▁envoie	-10.9285
▁discuté	-10.9286
▁gaza	-10.9286
▁management	-10.9286
▁requier	-10.9287
▁pain	-10.9292
▁avocats	-10.9293
▁incertitude	-10.9294
▁méditerranéenne	-10.9294
▁reel	-10.9294
▁sécuritaire	-10.9298
▁souhaité	-10.9301
▁entamer	-10.9304
▁convenu	-10.9309
▁précaution	-10.9313
▁repris	-10.9317
▁diagnostic	-10.9318
cher	-10.932
▁fixée	-10.9325
▁montage	-10.9326
▁fleurs	-10.9329
▁occupation	-10.933
▁enceinte	-10.9332
▁multimédia	-10.9333
▁attire	-10.9334
▁souvenir	-10.9337
▁finance	-10.934
▁classes	-10.9348
▁précédentes	-10.9348
▁durabilité	-10.9349
▁passée	-10.9349
▁voient	-10.935
▁voyager	-10.9352
▁récession	-10.9352
▁rare	-10.9353
▁nouveautés	-10.9357
rotary	-10.9357
ot	-10.9357
▁précises	-10.9359
▁garage	-10.9361
▁populaires	-10.9362
▁label	-10.9363
▁couche	-10.9369
▁house	-10.937
▁script	-10.9373
ales	-10.9375
▁négocier	-10.938
▁léger	-10.9381
ère	-10.9391
ienne	-10.9396
▁travaillant	-10.9401
▁aérienne	-10.941
▁championnat	-10.941
▁âgés	-10.9416
▁ferons	-10.9427
▁enregistrés	-10.9433
▁subi	-10.9433
euse	-10.9437
▁arbitraire	-10.9437
▁spécialisé	-10.9438
▁noël	-10.9449
▁acceptation	-10.9449
art	-10.945
▁bal	-10.9451
▁bouche	-10.9453
▁music	-10.9454
▁récupérer	-10.9454
iques	-10.9456
▁neige	-10.946
▁interprète	-10.9461
▁modernisation	-10.9461
▁cuba	-10.9462
▁suivent	-10.9462
▁apparaitra	-10.9465
▁clubs	-10.9466
▁envergure	-10.9469
▁empire	-10.9469
▁55	-10.9472
▁conjoint	-10.9483
▁civil	-10.9486
▁connaissons	-10.9487
▁froide	-10.9487
▁65	-10.9489
▁médecine	-10.9489
▁pharmaceutique	-10.949
▁iv	-10.9491
▁chat	-10.9493
▁médical	-10.9495
▁verte	-10.9496
▁polonais	-10.9497
▁occidentaux	-10.9497
▁transit	-10.9499
▁excessive	-10.95
▁aéroports	-10.9502
dy	-10.9506
▁étudiant	-10.9507
▁reconnaissant	-10.9509
▁accompagner	-10.9513
▁sac	-10.9515
▁mobilier	-10.9516
▁australie	-10.9521
▁gnu	-10.9521
▁transaction	-10.9523
ho	-10.9524
▁monuments	-10.9525
▁égal	-10.9526
▁voile	-10.9532
▁regrettable	-10.9536
▁drogues	-10.9542
▁prévus	-10.9547
▁identifié	-10.955
▁42	-10.9555
▁fermé	-10.9561
▁distribué	-10.9565
▁individuelles	-10.9567
▁abrite	-10.9571
▁360	-10.9573
▁architecte	-10.9575
▁adaptées	-10.9579
▁compren	-10.9581
▁dirigé	-10.9582
▁échéance	-10.9583
▁étions	-10.9584
▁01	-10.9584
ger	-10.9584
▁séminaires	-10.9589
▁âme	-10.9593
che	-10.9594
▁statistique	-10.9601
▁messagerie	-10.9601
▁déployé	-10.9607
▁entraîné	-10.9608
▁réels	-10.961
vo	-10.9626
▁hard	-10.9626
▁dublin	-10.9626
▁plastique	-10.963
▁free	-10.963
▁dessous	-10.9636
▁cor	-10.9638
▁clavier	-10.9638
▁37	-10.9642
▁répondant	-10.9644
▁vapeur	-10.9646
▁ps	-10.965
▁pa	-10.9661
▁gestionnaire	-10.9669
▁tester	-10.9669
▁fleuve	-10.967
▁élargir	-10.9674
▁ingrédients	-10.968
▁pluie	-10.9683
▁fabricant	-10.9683
▁120	-10.9694
▁espèce	-10.9696
ling	-10.97
▁émis	-10.97
▁tension	-10.9701
▁fermer	-10.9701
▁liee	-10.9704
▁distingue	-10.9704
▁concurrents	-10.9707
▁combler	-10.9712
▁consacrer	-10.9714
▁bouteille	-10.9718
▁1991	-10.9719
pro	-10.9724
▁mett	-10.9726
▁avenue	-10.9726
▁géorgie	-10.9728
▁simplifier	-10.973
▁figurant	-10.973
▁considéron	-10.9739
▁oiseaux	-10.9743
▁incapable	-10.9746
▁sentier	-10.9749
▁chi	-10.9749
▁obtention	-10.9751
▁collaborer	-10.9758
▁qualifiés	-10.9761
▁indiquée	-10.9761
▁complémentaire	-10.9761
▁candidature	-10.9762
▁hongrie	-10.9763
▁douze	-10.9764
ville	-10.9766
▁lancée	-10.9768
▁tours	-10.9775
▁légitimité	-10.9779
▁précieuse	-10.9779
one	-10.9781
▁abordé	-10.9782
▁copieux	-10.9783
▁itinéraire	-10.9787
▁concentre	-10.9787
▁group	-10.9793
▁chasse	-10.9798
0	-10.9803
▁alternatives	-10.9804
▁analyses	-10.9806
▁vignette	-10.9807
▁rédaction	-10.9809
▁définis	-10.9818
▁blanche	-10.9824
▁garantisse	-10.9825
▁terrible	-10.9826
rc	-10.9827
▁incluent	-10.9828
▁répète	-10.9831
▁administrateur	-10.9832
institutionnelle	-10.9836
▁audience	-10.9839
▁citoyenneté	-10.984
▁ère	-10.9841
▁clarté	-10.9844
▁autoriser	-10.9848
▁défend	-10.9849
▁concrets	-10.9849
▁rayon	-10.9855
▁exclusive	-10.9855
transfrontalière	-10.9856
▁apprécie	-10.9856
▁transparent	-10.9861
▁street	-10.9865
▁expliqué	-10.9866
▁guère	-10.9868
▁florence	-10.9872
▁fier	-10.9874
▁échantillon	-10.9876
▁impliquer	-10.9877
▁alerte	-10.988
▁nuits	-10.9885
▁pratiquer	-10.9886
▁inévitable	-10.989
▁provisoire	-10.9892
▁négatif	-10.9894
▁anglaise	-10.9895
50	-10.9901
▁arrêté	-10.9902
▁rose	-10.9908
▁simplification	-10.9909
▁révélé	-10.9909
▁gère	-10.9911
▁déguster	-10.9911
▁employeur	-10.9911
▁conversion	-10.9913
▁entraînement	-10.9913
▁prime	-10.9914
▁venise	-10.9917
▁préférences	-10.9918
▁clairs	-10.9921
▁règne	-10.9923
▁doigt	-10.9925
▁apparaître	-10.9925
▁indiquant	-10.9926
▁réglementaire	-10.9928
▁accomplis	-10.993
▁fiables	-10.9932
▁brut	-10.9938
▁temple	-10.9941
▁codécision	-10.9941
▁offertes	-10.9944
▁relevé	-10.9951
▁réaliste	-10.9958
▁pensions	-10.996
ck	-10.9962
▁échelon	-10.9962
гё	-10.997
▁center	-10.9971
▁video	-10.9971
▁traduire	-10.9974
▁originaire	-10.9974
▁réductions	-10.9975
fa	-10.9978
▁fallait	-10.9979
▁procurer	-10.9982
▁ordonnance	-10.9983
▁caractérise	-10.9983
▁jolie	-10.999
▁personnages	-10.9991
▁supporter	-10.9999
▁équipés	-11.0001
▁inscrits	-11.0002
▁confrontée	-11.0004
▁usager	-11.0007
▁occidentale	-11.0016
out	-11.0019
▁joli	-11.0026
▁périphériques	-11.0028
▁fonctionnalité	-11.003
▁jugé	-11.003
▁accessibilité	-11.0032
▁charles	-11.0036
▁my	-11.0037
up	-11.0039
conque	-11.0042
▁couvert	-11.0046
▁intitulé	-11.0052
▁zéro	-11.0057
▁fans	-11.0059
▁rom	-11.0059
▁individuel	-11.006
▁allait	-11.0063
▁instar	-11.0075
▁michel	-11.0081
▁classement	-11.0083
▁inquiète	-11.0086
▁néerlandais	-11.0092
▁cesser	-11.0097
▁content	-11.0099
▁purement	-11.0099
▁pénale	-11.0104
lu	-11.0111
▁assisté	-11.0117
▁er	-11.0118
▁uniques	-11.0123
▁tableaux	-11.0124
▁établis	-11.0124
▁imaginer	-11.0125
▁générer	-11.0125
sen	-11.0136
▁envoyée	-11.0138
▁alpes	-11.0142
▁héritage	-11.0144
▁complexité	-11.0145
▁regarde	-11.0147
▁réservations	-11.0149
.1	-11.0151
▁personnage	-11.0153
▁index	-11.0154
▁pre	-11.0156
▁radicale	-11.0156
▁graphiques	-11.0156
▁autonome	-11.0157
▁inviter	-11.0158
▁prague	-11.0166
▁bonheur	-11.0166
▁sel	-11.0168
▁préférable	-11.017
▁louis	-11.0171
▁estimé	-11.0174
▁variée	-11.0176
▁gar	-11.0177
▁biodiversité	-11.0178
▁venant	-11.0179
▁reposer	-11.018
▁ri	-11.0185
▁appartenant	-11.0187
▁numéros	-11.0188
▁bébé	-11.0188
▁cadeaux	-11.0194
▁camion	-11.0197
▁indépendam	-11.0199
▁bancaires	-11.0207
▁résolutions	-11.0208
▁envoyez	-11.021
▁enthousiasme	-11.0212
▁consultatif	-11.0216
▁commissaires	-11.0218
▁disparition	-11.0224
▁commander	-11.0225
▁transparente	-11.0227
ok	-11.0227
▁splendide	-11.023
gen	-11.0232
▁gagne	-11.0235
▁paradis	-11.0238
▁intéressante	-11.0245
▁ge	-11.025
▁lucratif	-11.0255
▁semi	-11.0255
15	-11.0257
▁coopérer	-11.026
▁fiscaux	-11.0267
▁xbox	-11.0267
▁pavillon	-11.0271
ng	-11.0271
▁séjours	-11.0275
▁ke	-11.0275
▁mesurer	-11.0275
▁he	-11.0278
▁kyoto	-11.0279
▁délicieux	-11.0284
▁liaison	-11.0291
▁majeurs	-11.0291
▁1989	-11.0292
▁exigent	-11.0295
▁luxueux	-11.0296
▁handicap	-11.03
▁fourniture	-11.0301
▁classiques	-11.0305
{	-11.0305
▁condamnation	-11.0305
bi	-11.031
▁bénéficiaires	-11.0313
▁justifie	-11.0321
▁danemark	-11.0322
▁couple	-11.0322
▁canon	-11.0326
feu	-11.0327
▁toi	-11.0329
▁tes	-11.033
▁contribuera	-11.0332
antes	-11.0333
▁bosnie	-11.0335
▁références	-11.0337
▁tomber	-11.0339
▁recrutement	-11.0341
▁38	-11.0341
▁prodi	-11.035
▁avocat	-11.0351
▁restera	-11.0351
▁émotion	-11.0355
era	-11.0357
▁prouve	-11.0371
tique	-11.0374
▁intéressés	-11.0379
▁interdite	-11.0381
▁accroissement	-11.0384
▁dr	-11.0385
▁bad	-11.0387
▁activer	-11.0391
▁conjointement	-11.0392
▁aviation	-11.0395
}	-11.0399
▁théorie	-11.0401
▁formulation	-11.0401
▁concepts	-11.0403
ek	-11.0403
▁apple	-11.0405
car	-11.0408
▁individu	-11.0421
ten	-11.0423
ano	-11.0432
▁exacte	-11.0435
▁stress	-11.0439
▁discipline	-11.0441
▁évoluer	-11.0444
▁minorité	-11.0445
▁concerts	-11.0448
▁scolaires	-11.0451
▁téléphonique	-11.0454
▁ferai	-11.0458
▁préjudice	-11.0459
▁prie	-11.0461
▁intime	-11.0468
▁enterprise	-11.0468
▁entrepris	-11.0471
▁initial	-11.0475
60	-11.0477
▁bed	-11.0481
▁survie	-11.0484
▁inoubliable	-11.0485
▁tre	-11.0485
▁interdire	-11.0485
▁vital	-11.0488
▁airbus	-11.0495
▁intentions	-11.0495
▁gr	-11.0495
▁démontrer	-11.05
▁talent	-11.0508
▁coalition	-11.0511
▁turc	-11.0515
▁sensibilité	-11.0516
▁santa	-11.0517
▁panneau	-11.0517
▁communiqué	-11.0521
▁op	-11.0523
▁violences	-11.0523
▁variables	-11.0528
▁amener	-11.053
▁superficie	-11.0535
▁échanger	-11.0538
▁listes	-11.054
▁avancé	-11.0542
tic	-11.0544
▁distributeurs	-11.0547
▁intégrale	-11.0548
▁sensibilisation	-11.055
▁physiques	-11.0551
bar	-11.0551
▁discut	-11.0552
▁geste	-11.0556
▁cherchez	-11.0558
ya	-11.0558
▁mines	-11.0559
▁tort	-11.0559
;	-11.0564
▁durables	-11.0566
cha	-11.0567
▁feuilles	-11.0569
ita	-11.0572
▁up	-11.0572
▁95	-11.0576
▁placée	-11.0577
▁élégance	-11.0577
▁qualifié	-11.0577
▁flexible	-11.0579
▁chanson	-11.0579
▁touchée	-11.058
▁syrie	-11.0583
▁musulmans	-11.0583
▁cookies	-11.0587
▁essaie	-11.0588
▁sensation	-11.0588
▁apparence	-11.059
▁spectacles	-11.0591
▁relié	-11.0592
▁rejeter	-11.0594
af	-11.0598
▁saluer	-11.06
▁dangereuses	-11.0603
▁urbain	-11.0604
▁salariés	-11.0605
▁lecteurs	-11.0606
▁viable	-11.0607
▁établies	-11.0608
▁lendemain	-11.0612
▁tables	-11.0619
▁œil	-11.062
▁adéquat	-11.0621
line	-11.0622
▁transmis	-11.0623
▁surprise	-11.0623
▁améliore	-11.0626
▁complément	-11.0629
▁vocation	-11.0629
▁dotée	-11.0633
▁promesses	-11.0634
▁nl	-11.0634
▁pop	-11.0634
▁assurant	-11.0634
▁protégé	-11.0639
▁approuvée	-11.064
▁ag	-11.0646
▁désert	-11.0648
▁transférer	-11.0648
▁utilité	-11.0656
▁enseigne	-11.066
▁évidente	-11.0661
▁jacuzzi	-11.0664
▁fe	-11.0664
▁recevrez	-11.0673
▁modeste	-11.0676
▁troubles	-11.0681
▁incluse	-11.0681
▁adobe	-11.0691
▁arme	-11.0692
▁assume	-11.0694
cc	-11.0697
▁remerciement	-11.0702
▁dépasser	-11.0705
▁race	-11.071
▁particulières	-11.0712
▁exclusif	-11.0714
▁rétablir	-11.0715
▁harmonie	-11.0717
▁br	-11.0719
▁risquent	-11.0719
▁plateau	-11.072
▁rappelé	-11.0721
▁enfance	-11.0722
▁interaction	-11.0723
▁autrefois	-11.0728
▁sorti	-11.0732
▁immigrants	-11.0735
▁foire	-11.0736
▁islam	-11.0736
▁imprimer	-11.0737
▁jazz	-11.0739
▁wa	-11.0742
▁affronter	-11.0743
▁washington	-11.0744
▁soigneusement	-11.0745
▁observateurs	-11.0747
▁attribution	-11.0747
▁associer	-11.0748
▁socialistes	-11.0754
▁amené	-11.0756
▁transfrontalier	-11.0757
▁coucher	-11.076
▁html	-11.0767
▁trimestre	-11.0771
▁palestinien	-11.0772
▁stock	-11.0778
ah	-11.078
▁remporté	-11.0783
▁attentif	-11.0784
▁mentale	-11.0785
▁sportives	-11.0789
▁suédois	-11.0799
▁signer	-11.0801
nd	-11.0803
▁licences	-11.0804
▁souhaitable	-11.0808
▁quête	-11.0812
▁empreinte	-11.0817
.-	-11.0817
▁adhérer	-11.0821
▁imposé	-11.0823
▁effective	-11.0825
▁parfum	-11.0826
▁conviction	-11.0828
▁démonstration	-11.0829
▁accompagne	-11.0832
▁civiles	-11.0833
▁thématique	-11.0833
▁écrites	-11.0834
▁hectares	-11.0835
▁concevoi	-11.0845
▁spectaculaire	-11.0847
▁occident	-11.085
▁pousse	-11.0851
▁concurrentiel	-11.0855
▁ombre	-11.0856
▁inscrite	-11.0856
▁réservée	-11.0857
▁parcs	-11.0857
▁motif	-11.0858
min	-11.0861
▁gras	-11.0863
▁multitude	-11.0865
▁faille	-11.0866
▁optimiser	-11.0867
▁écosse	-11.087
▁répression	-11.0878
▁requises	-11.0879
▁audit	-11.0879
▁provoqué	-11.0884
▁efforce	-11.0886
▁scandale	-11.0891
▁routière	-11.0893
▁collectivité	-11.0893
▁considérant	-11.0899
▁refusé	-11.0903
▁venus	-11.0907
▁retenue	-11.0907
▁spécialiste	-11.0908
▁combustible	-11.091
▁termine	-11.0912
▁grosse	-11.0915
▁foyer	-11.0916
▁métal	-11.0919
▁entré	-11.092
▁admettre	-11.0923
▁suive	-11.0924
▁satisfaisante	-11.0926
▁sv	-11.0928
▁attendu	-11.0929
▁prince	-11.0933
▁logements	-11.0936
▁kong	-11.0936
▁kg	-11.0938
▁accru	-11.0941
▁opposer	-11.0942
vin	-11.0946
▁tranquillité	-11.0946
▁égypte	-11.0946
▁patient	-11.0948
▁sécurisé	-11.0949
eau	-11.095
▁célèbres	-11.0956
▁prononcer	-11.0956
▁africaine	-11.0957
▁west	-11.0958
▁her	-11.0963
▁suprême	-11.0964
▁trajet	-11.0964
▁provoquer	-11.0966
▁amène	-11.0975
▁étendu	-11.0975
▁clinique	-11.0977
▁électorale	-11.0977
▁acide	-11.0978
▁lacunes	-11.0978
▁décrite	-11.0982
▁façade	-11.0982
▁retenu	-11.0983
ies	-11.0987
▁hp	-11.0988
ung	-11.0991
▁aire	-11.0995
▁apparemme	-11.0996
▁autobus	-11.0996
▁promis	-11.0997
▁restant	-11.0999
▁offerte	-11.1
▁2012	-11.101
▁évènements	-11.101
▁kit	-11.101
▁reconnus	-11.1011
▁vécu	-11.1014
▁conseillers	-11.1018
▁habitation	-11.1021
▁étrange	-11.1021
▁pénal	-11.1021
▁extra	-11.1023
▁cru	-11.1024
▁décennie	-11.1028
▁sun	-11.103
▁concerné	-11.1033
▁arabes	-11.1039
▁1000	-11.1043
ag	-11.1046
▁oblige	-11.1046
▁régulation	-11.1048
des	-11.1048
▁id	-11.1049
▁1980	-11.1054
▁indiquent	-11.1058
▁imprimante	-11.1065
▁charbon	-11.1065
▁incapacité	-11.1074
▁résultant	-11.1075
▁médicament	-11.108
▁intéressée	-11.108
▁dirige	-11.1081
▁requise	-11.1082
▁bou	-11.1085
▁détermine	-11.1088
▁corporation	-11.1088
▁crédible	-11.1088
▁primaire	-11.1089
▁couverts	-11.1091
ens	-11.1093
▁éducatif	-11.1097
▁hasard	-11.1102
▁lacs	-11.1105
▁compositeur	-11.1113
▁donn	-11.1114
▁aborde	-11.1116
▁ec	-11.1124
▁innovante	-11.1125
▁admissibles	-11.1125
▁coordonner	-11.1128
▁fonde	-11.1129
mes	-11.1129
▁libéraux	-11.1129
ari	-11.1131
▁prononcé	-11.1136
▁compact	-11.1137
▁dramatique	-11.1139
▁signification	-11.1139
▁ignorer	-11.1145
▁imp	-11.1146
▁hong	-11.1146
▁exemption	-11.1151
▁montée	-11.1153
▁fiscalité	-11.1153
▁routier	-11.1155
▁hôte	-11.1159
▁producteur	-11.116
▁simultanément	-11.116
▁irlandaise	-11.1161
▁rénovation	-11.1162
▁recouri	-11.1165
▁garantissa	-11.1166
▁formelle	-11.1168
▁substantielle	-11.117
ster	-11.1171
▁intégrante	-11.1171
par	-11.1177
â	-11.1181
▁da	-11.119
ide	-11.1222
▁servant	-11.1222
eux	-11.1223
▁leaders	-11.1226
▁marine	-11.123
▁légal	-11.1233
za	-11.1238
▁provoque	-11.1239
▁indication	-11.1242
▁garanti	-11.1243
▁forts	-11.1244
▁migration	-11.1246
▁tim	-11.1247
▁confère	-11.1249
▁apportées	-11.1251
▁cérémonie	-11.1255
▁réfrigérateur	-11.126
▁pencher	-11.1269
▁appoint	-11.1274
▁inspiration	-11.1278
▁attache	-11.1279
▁rejette	-11.128
▁pierres	-11.128
▁respectée	-11.1281
▁visé	-11.1283
▁acquise	-11.1284
▁assurances	-11.1285
▁remédier	-11.1285
▁dates	-11.129
▁universitaire	-11.129
▁impératif	-11.1292
▁intègre	-11.1294
ica	-11.1295
▁orange	-11.1296
▁fraîche	-11.1296
▁milan	-11.1296
▁souvenirs	-11.1297
▁possession	-11.1297
▁subir	-11.1297
▁transferts	-11.1301
▁altitude	-11.1302
▁toucher	-11.1307
▁2.0	-11.1308
▁enveloppe	-11.1308
▁miroir	-11.1311
▁abandonner	-11.1312
ep	-11.1314
▁consacre	-11.1315
▁ordinaire	-11.1318
▁née	-11.1326
▁attribué	-11.1327
▁compensation	-11.1328
▁connaissez	-11.133
▁na	-11.1335
▁ok	-11.1336
▁édifice	-11.1337
▁évite	-11.1341
▁dispositifs	-11.1345
op	-11.1347
val	-11.1347
▁agréables	-11.1352
▁décorées	-11.1358
▁préférence	-11.1362
▁détriment	-11.1368
▁02	-11.1369
▁structurelles	-11.1369
▁partiellement	-11.1369
▁conformer	-11.1374
▁secondaires	-11.1374
▁dérogation	-11.1377
▁appropriés	-11.1378
▁installée	-11.1382
ron	-11.1382
▁résidents	-11.1383
▁sal	-11.1384
▁im	-11.1385
▁détaillées	-11.1386
ov	-11.1388
▁arrestation	-11.1391
▁camps	-11.1395
ateur	-11.1397
▁annuler	-11.1406
▁accusation	-11.1406
▁gel	-11.1416
90	-11.1421
▁tragédie	-11.1425
ik	-11.1426
▁chaude	-11.1426
▁demandeurs	-11.1426
▁suscite	-11.1427
▁inspiré	-11.1427
▁sportifs	-11.143
ani	-11.143
▁progression	-11.143
gue	-11.1433
▁posséd	-11.1436
.000	-11.1436
▁accompagnée	-11.1437
▁logistique	-11.1439
▁java	-11.144
▁collections	-11.1441
▁remonte	-11.1448
▁contraint	-11.1449
▁terrains	-11.1453
▁multinationale	-11.1455
▁gains	-11.1458
▁obtenue	-11.146
▁réchauffement	-11.1465
▁power	-11.1466
▁at	-11.1466
▁life	-11.1469
md	-11.147
ori	-11.1472
▁cal	-11.1474
▁sony	-11.1475
▁bureaucratie	-11.1477
burg	-11.1482
▁saisie	-11.1483
▁tensions	-11.149
▁dessin	-11.1495
ette	-11.1498
▁suspension	-11.1498
▁doux	-11.1499
▁allemands	-11.1502
tal	-11.1505
iens	-11.1511
▁sols	-11.1514
let	-11.1517
▁tend	-11.152
▁préoccupe	-11.1522
▁monopole	-11.1525
▁hauts	-11.1527
▁acheté	-11.1528
▁lait	-11.1532
▁paramètre	-11.1533
▁eh	-11.1533
▁teneur	-11.1536
▁créés	-11.154
▁michael	-11.1544
▁croix	-11.1547
▁énormé	-11.1549
▁félicitations	-11.1559
▁criminels	-11.1559
▁mineurs	-11.156
▁divertissement	-11.1562
▁hd	-11.1564
▁imagine	-11.1567
tion	-11.1568
▁éclairage	-11.1569
▁transatlantique	-11.1573
ive	-11.1575
▁sièges	-11.1577
ob	-11.1585
▁impliquée	-11.1585
▁cheval	-11.1587
venir	-11.1588
▁devise	-11.1594
▁entrepreneurs	-11.1599
▁insonorisées	-11.1608
▁tragique	-11.1612
▁abri	-11.1613
▁royale	-11.1616
gu	-11.1617
▁joint	-11.1619
ification	-11.162
▁frappe	-11.1621
▁resort	-11.1622
▁pensé	-11.1623
▁mysql	-11.1625
▁marquée	-11.1626
▁configurer	-11.163
▁soulevée	-11.1631
▁skype	-11.1631
▁mc	-11.1632
▁faillite	-11.1637
▁tapis	-11.1644
▁phare	-11.1645
ence	-11.1647
▁industrielles	-11.1648
▁fameu	-11.1654
▁chaleureusement	-11.1655
▁intéressantes	-11.1659
▁livrer	-11.1659
▁intégrés	-11.166
▁oeuvres	-11.1661
▁identique	-11.1662
▁jus	-11.1662
▁intense	-11.1669
▁deviendra	-11.167
▁peter	-11.1672
▁contraignant	-11.1672
▁forment	-11.1672
▁prouver	-11.1673
▁cruciale	-11.1675
▁administrateurs	-11.168
ran	-11.1681
▁diplôme	-11.1682
▁communiste	-11.1686
▁sympathique	-11.169
▁lever	-11.1693
▁publiés	-11.1694
▁jacques	-11.1698
▁capture	-11.1699
▁fidèle	-11.1702
▁attendant	-11.1704
▁supporte	-11.1705
▁reconnaisse	-11.1706
▁automobiles	-11.1708
▁réunir	-11.171
temps	-11.1716
▁ru	-11.1719
▁aluminium	-11.1719
▁améliorée	-11.1721
▁transforme	-11.1722
▁orchestre	-11.1724
▁affichée	-11.1726
▁vélos	-11.1729
▁intéressants	-11.1729
▁informe	-11.1737
▁débatt	-11.1741
▁fine	-11.1743
▁demeurent	-11.1745
▁procure	-11.1746
▁home	-11.1746
▁breakfast	-11.1754
▁green	-11.1757
▁panneaux	-11.1758
▁grec	-11.1765
▁axée	-11.1769
▁foule	-11.1771
▁libéral	-11.1771
▁george	-11.1771
▁aidé	-11.1772
.2	-11.1773
▁prenne	-11.1775
▁regroupe	-11.1776
valoir	-11.1778
▁bu	-11.1779
▁estimations	-11.1781
▁fit	-11.1787
▁partant	-11.1787
▁team	-11.1788
▁promesse	-11.1793
▁croyons	-11.1793
▁baltique	-11.1793
▁associée	-11.1796
▁admirer	-11.1798
▁raisonnables	-11.1798
▁64	-11.1799
▁soulève	-11.1801
▁maritimes	-11.1802
▁confusion	-11.1803
▁observe	-11.1804
▁déclin	-11.1805
▁consolidation	-11.1813
▁fonctionnel	-11.1818
▁obligatoires	-11.1823
▁périphérique	-11.1823
▁bibliothèques	-11.1827
▁recyclage	-11.1828
▁devienne	-11.1828
▁exposés	-11.1829
▁clarifier	-11.1832
▁maria	-11.1832
▁fantastique	-11.1833
▁correspondance	-11.1833
▁record	-11.1833
▁cr	-11.1834
▁sélectionné	-11.1837
▁sch	-11.184
▁renommée	-11.184
▁tom	-11.1842
▁grippe	-11.1843
▁rapprocher	-11.1845
▁litige	-11.1848
▁salons	-11.1848
▁élargie	-11.1849
▁char	-11.185
▁comités	-11.1852
▁crain	-11.1856
▁sache	-11.1857
▁mercure	-11.1858
▁rentable	-11.1859
▁menus	-11.1861
▁solarium	-11.1862
▁racisme	-11.1863
▁liban	-11.1864
▁icône	-11.1864
▁contrôlé	-11.1868
▁nationalité	-11.1869
▁rarement	-11.187
▁allé	-11.1871
▁partisans	-11.1873
▁44	-11.1874
▁conjointe	-11.1877
▁hostelsclub	-11.1877
ab	-11.1878
▁suédoise	-11.188
▁fur	-11.1882
▁real	-11.1884
▁tunisie	-11.1884
▁audition	-11.1885
wa	-11.1886
isant	-11.1887
▁coté	-11.1893
▁juger	-11.19
▁tra	-11.1905
▁virtuelle	-11.1913
ny	-11.1913
▁exécuté	-11.1915
▁souffle	-11.1917
▁pesticide	-11.1917
▁pertinentes	-11.1919
▁remplace	-11.1919
▁secours	-11.1927
▁superbes	-11.1929
▁frappé	-11.193
▁gays	-11.193
▁arbre	-11.1931
▁planche	-11.1933
▁filtre	-11.1933
▁ap	-11.1939
han	-11.1941
▁tournée	-11.1942
▁actionnaires	-11.1943
ó	-11.1947
▁belarus	-11.1952
▁liquide	-11.1958
▁localisation	-11.1959
▁solaire	-11.1962
▁ingénieurs	-11.1966
▁riz	-11.1966
▁souplesse	-11.1968
▁bandes	-11.1972
▁prochainement	-11.1975
▁excellents	-11.1975
▁permett	-11.1976
▁socio	-11.1984
▁avérer	-11.1986
▁présidentielle	-11.1991
▁ibm	-11.1994
mon	-11.1998
▁exploitant	-11.2001
he	-11.2001
▁islamique	-11.2003
▁récolte	-11.2004
▁report	-11.2005
▁resté	-11.2005
▁cherch	-11.2006
isé	-11.2014
ï	-11.2019
ón	-11.2021
▁prétexte	-11.2023
▁700	-11.2024
po	-11.2027
▁panorama	-11.2028
▁admis	-11.2029
▁leçon	-11.2037
▁fiers	-11.2037
▁examin	-11.2039
▁tir	-11.204
▁lisez	-11.2041
▁bénéficia	-11.2041
▁vendeur	-11.2045
▁symptômes	-11.2048
▁connecté	-11.2057
ille	-11.2059
▁varie	-11.2066
▁chinoise	-11.2072
▁concession	-11.2073
▁inférieure	-11.2076
nne	-11.2076
▁canaux	-11.2077
▁ciblée	-11.2084
▁migrants	-11.2085
▁avertissement	-11.2088
ssent	-11.2089
▁déséquilibre	-11.2094
▁militant	-11.2095
▁lourde	-11.2095
▁directs	-11.2096
▁aménagées	-11.2099
▁forestière	-11.2099
▁versé	-11.2101
▁développée	-11.2103
▁drapeau	-11.2105
▁bénévoles	-11.211
▁coups	-11.2111
▁biologiques	-11.2116
▁virtuel	-11.2119
▁ale	-11.2129
gé	-11.2131
▁url	-11.2131
|	-11.2133
▁occupé	-11.2134
▁tourne	-11.2138
▁renouvellement	-11.214
▁équipage	-11.214
▁proviennent	-11.2141
▁combiné	-11.2149
▁portrait	-11.215
▁chargement	-11.2151
▁recherchez	-11.2159
ney	-11.2159
▁encourageant	-11.2161
▁booking	-11.2162
▁supprimé	-11.2168
▁hui	-11.2169
▁brève	-11.217
▁correspondent	-11.2171
▁imprimé	-11.2173
▁insta	-11.2174
▁génère	-11.2175
▁plaza	-11.2175
▁wii	-11.2182
▁notez	-11.2185
▁sanitaires	-11.2188
▁moscou	-11.2191
▁subvention	-11.2195
▁civilisation	-11.2196
▁demandant	-11.22
▁spécification	-11.2201
▁évoque	-11.2209
▁ki	-11.221
▁scénario	-11.2211
▁entrez	-11.2214
▁taxi	-11.222
▁différend	-11.2222
▁forums	-11.2227
▁tr	-11.2231
▁tolérance	-11.2232
ada	-11.2234
▁consulté	-11.2239
qu	-11.224
▁allocation	-11.2242
▁prioritaire	-11.2243
▁av	-11.2248
▁dia	-11.2251
í	-11.2257
▁consolider	-11.2265
▁visité	-11.2266
▁arrête	-11.2266
ade	-11.2268
▁avancés	-11.2272
▁emploie	-11.2274
▁renseignement	-11.2275
▁énoncé	-11.2279
▁exemplaire	-11.228
ène	-11.2283
▁écus	-11.2283
▁zimbabwe	-11.2284
▁gratuits	-11.2291
▁hypothèse	-11.2294
▁cirque	-11.2294
▁formations	-11.23
▁distorsion	-11.2304
▁préservation	-11.2305
▁visiteur	-11.2308
▁animale	-11.2309
▁achète	-11.231
▁prestigieux	-11.231
▁ultérieure	-11.231
▁volontiers	-11.232
▁cuir	-11.2324
▁blessé	-11.2324
▁obtien	-11.2326
nant	-11.2326
▁tenon	-11.2327
▁mondiales	-11.2327
▁golfe	-11.233
▁romantique	-11.2333
ec	-11.2334
ieux	-11.2336
▁fallu	-11.2338
▁entrées	-11.234
▁palace	-11.2341
▁touchant	-11.2342
tin	-11.2344
▁pie	-11.2345
ola	-11.2346
▁respectivement	-11.2349
▁beach	-11.2352
▁porno	-11.2354
▁couper	-11.2368
▁codes	-11.2368
▁bat	-11.2369
▁ingénierie	-11.2372
▁balance	-11.2373
▁volontaires	-11.2375
▁transformé	-11.2375
▁nôtre	-11.2378
▁recueillir	-11.2379
▁visibilité	-11.2386
▁ignore	-11.2386
▁supervision	-11.2393
▁constituée	-11.2394
▁légales	-11.2395
▁détruire	-11.2398
ata	-11.2399
▁provinciale	-11.2401
▁terminal	-11.2402
▁corrigé	-11.2404
▁réservés	-11.2405
▁congé	-11.2407
▁constructif	-11.2414
▁black	-11.2414
▁commerçant	-11.2418
▁craintes	-11.2418
▁significatif	-11.2419
▁aident	-11.242
▁fondateur	-11.2427
ud	-11.2429
▁intensité	-11.243
▁adulte	-11.243
égaux	-11.2435
▁manipulation	-11.2435
▁jeter	-11.2439
lan	-11.2443
▁églises	-11.2445
▁online	-11.2446
▁diriger	-11.2451
‐	-11.2451
▁serbe	-11.2451
▁réclame	-11.2453
▁remplisse	-11.2453
▁modifiés	-11.2455
▁parcourir	-11.2457
▁laissant	-11.2458
▁agencée	-11.2458
▁juridiction	-11.2462
▁visée	-11.2462
▁max	-11.2463
▁encouragé	-11.2467
▁cri	-11.2472
▁orale	-11.2473
▁libérer	-11.2474
▁modifie	-11.2474
▁textile	-11.2479
▁pixel	-11.2479
▁cercle	-11.248
▁hospitalité	-11.2483
bel	-11.2486
▁compatibles	-11.2489
▁éco	-11.2498
▁alentours	-11.2502
▁rigueur	-11.2504
▁stationnement	-11.2504
▁média	-11.2505
▁téléchargez	-11.2507
▁négatifs	-11.2507
▁honnête	-11.2508
▁datant	-11.2509
▁renoncer	-11.2515
▁we	-11.252
▁primes	-11.2522
▁trouvée	-11.2527
▁perception	-11.253
can	-11.2531
▁ju	-11.2533
▁batterie	-11.2539
▁milieux	-11.2543
▁israélienne	-11.2546
▁diffuser	-11.2549
▁oublié	-11.2552
▁sauvegarder	-11.2552
▁ve	-11.2553
▁piano	-11.2558
iers	-11.2559
▁amende	-11.256
▁amateur	-11.2561
11	-11.2565
▁abouti	-11.2566
▁crème	-11.2569
▁permission	-11.2571
▁voisin	-11.2572
▁gré	-11.2576
nage	-11.2581
▁impliquant	-11.2584
▁relais	-11.26
▁donateurs	-11.26
▁innovations	-11.2608
mann	-11.2612
ane	-11.2614
▁commandement	-11.2615
80	-11.2619
▁inégalités	-11.262
▁réalisations	-11.262
▁projection	-11.2621
▁iphone	-11.2622
▁moto	-11.2622
ria	-11.2623
▁mainte	-11.2625
vé	-11.2626
▁̈	-11.2627
▁céréales	-11.2627
▁contrôleur	-11.2627
by	-11.2629
▁passionné	-11.2632
▁quart	-11.2633
▁croit	-11.2639
▁bière	-11.2639
▁43	-11.264
▁consistant	-11.2643
▁infection	-11.2643
▁notification	-11.2643
▁guides	-11.2645
▁fixation	-11.2649
ième	-11.2649
▁72	-11.265
▁disparu	-11.2654
▁élan	-11.2657
▁aspiration	-11.2664
▁hamas	-11.2665
▁sauvage	-11.2665
▁navire	-11.2665
▁achet	-11.2665
and	-11.2666
▁paie	-11.2669
▁rendant	-11.2671
uses	-11.2672
▁armées	-11.2673
▁séparation	-11.2675
▁nu	-11.2677
log	-11.2678
tenir	-11.2681
tu	-11.2685
▁séances	-11.2687
▁rss	-11.2688
▁opérationnelle	-11.269
▁découla	-11.2691
70	-11.2693
▁morceaux	-11.2693
▁stabilisation	-11.2697
▁system	-11.2697
▁climatisées	-11.2697
▁divergence	-11.2702
▁musiciens	-11.2704
▁lyon	-11.2705
▁dessins	-11.2706
▁cheminée	-11.2707
▁péril	-11.2709
▁europol	-11.2711
ju	-11.2711
▁déposées	-11.2712
▁solde	-11.2715
▁pétitions	-11.2718
fe	-11.2723
▁chien	-11.2726
aires	-11.2726
▁détenteur	-11.2728
▁absolu	-11.2729
▁décideur	-11.2729
▁inciter	-11.2735
▁dose	-11.2739
▁clic	-11.2741
▁disposant	-11.2742
▁marin	-11.2742
▁traverse	-11.2744
▁décisif	-11.2745
▁aptitude	-11.2745
▁argentine	-11.2747
▁voulait	-11.2747
▁spacieux	-11.2751
▁tar	-11.2754
▁brochure	-11.2756
▁soulever	-11.2757
▁manquer	-11.2759
▁alloué	-11.276
▁affirmation	-11.2762
venons	-11.2765
▁rive	-11.2768
▁satisfaisant	-11.277
▁associe	-11.277
▁primordial	-11.2771
▁ber	-11.2771
▁segment	-11.2772
▁restaurer	-11.2776
▁gravité	-11.2779
▁reporter	-11.278
▁dirais	-11.2784
▁ogm	-11.2785
▁comparer	-11.2785
▁choisie	-11.2785
▁za	-11.2791
▁entoure	-11.2793
▁policiers	-11.2793
▁surpris	-11.2793
▁prudence	-11.2794
▁installés	-11.2795
▁poche	-11.2803
▁occupent	-11.2806
▁détection	-11.2807
▁che	-11.2807
▁apparu	-11.2814
▁oral	-11.2815
▁disons	-11.2821
▁symbolique	-11.2822
▁hélas	-11.2822
▁forcé	-11.2824
▁venue	-11.283
▁territoriale	-11.2837
▁do	-11.2842
▁ob	-11.2845
▁mobilisation	-11.2849
▁vista	-11.2852
▁vaccin	-11.2853
▁destinations	-11.2856
▁professeurs	-11.2858
▁pal	-11.286
▁commise	-11.2862
▁dépende	-11.2862
▁bourses	-11.2863
▁faculté	-11.2866
▁merveilleux	-11.2866
▁officier	-11.2867
▁horizon	-11.2867
▁prioritaires	-11.2876
▁immigré	-11.2877
▁prouvé	-11.2879
▁portugais	-11.2879
▁gouvernementaux	-11.2881
▁talents	-11.2882
▁prestige	-11.2888
▁chaussures	-11.2889
▁poly	-11.2895
25	-11.2898
▁lot	-11.2904
▁sensiblement	-11.2907
▁définitivement	-11.2907
▁convaincue	-11.291
▁catholique	-11.2911
▁allah	-11.2917
▁vastes	-11.292
▁désaccord	-11.2921
▁usines	-11.2921
▁manager	-11.2923
▁objective	-11.2924
▁supérieures	-11.2925
gne	-11.2926
vions	-11.2928
ong	-11.2929
ef	-11.2929
▁prévoy	-11.2929
▁alliés	-11.293
▁incontournable	-11.2932
.3	-11.2932
▁séminaire	-11.2934
▁iranien	-11.2934
▁diminue	-11.2938
▁parlent	-11.2941
▁cul	-11.2941
▁ligue	-11.2944
▁devises	-11.2947
▁cliniques	-11.295
▁slovaquie	-11.2954
▁fabrique	-11.2955
▁considérées	-11.2958
▁démo	-11.2959
▁ressemble	-11.2961
▁cote	-11.2962
▁composant	-11.2968
▁travaill	-11.2969
▁instauratio	-11.2972
▁ordinaires	-11.2973
▁présentera	-11.2973
▁occurrence	-11.2976
▁fournissant	-11.2976
▁humanitaires	-11.2977
▁terminée	-11.2978
▁85	-11.2978
▁diplômé	-11.2979
▁courants	-11.298
▁conversation	-11.2982
▁déploiement	-11.2986
end	-11.2989
ff	-11.299
▁tiré	-11.2992
▁salut	-11.2992
▁immunité	-11.2993
▁décrire	-11.2993
12	-11.2994
▁james	-11.2995
▁rigoureuse	-11.3002
▁interruption	-11.3004
▁intéressé	-11.3004
ea	-11.3005
ey	-11.3006
▁formidable	-11.3009
▁triste	-11.3011
▁concret	-11.3013
▁har	-11.3014
▁39	-11.3016
▁ministères	-11.3017
▁jaune	-11.3019
ér	-11.302
▁rapidité	-11.3026
▁contraste	-11.3027
▁bay	-11.3039
▁unis	-11.3043
▁ja	-11.3048
▁hémicycle	-11.3049
tage	-11.3054
▁phrase	-11.3059
▁certitude	-11.306
▁simplicité	-11.306
▁pèse	-11.306
▁toile	-11.3062
▁respectifs	-11.3064
▁prétend	-11.3065
▁contemporaine	-11.3067
▁cat	-11.3068
▁rez	-11.3069
▁journaliste	-11.3071
▁limitées	-11.3072
▁passez	-11.308
▁maastricht	-11.3082
▁équité	-11.3082
▁performant	-11.3083
▁placés	-11.3084
▁égale	-11.3084
▁désastre	-11.3085
rd	-11.3087
▁diminué	-11.3088
▁fréquente	-11.3092
ège	-11.3094
gc	-11.3095
▁souhaiter	-11.3096
▁douceur	-11.3096
▁dirigée	-11.3097
▁publie	-11.3098
▁esb	-11.31
fo	-11.3101
▁universitaires	-11.3103
▁démarches	-11.3106
▁cabine	-11.3109
▁réunit	-11.3115
▁intégralité	-11.3116
▁indemnité	-11.3122
▁03	-11.3131
▁préparés	-11.3132
▁examinée	-11.3132
▁master	-11.3133
▁player	-11.3133
▁azur	-11.3137
▁forfait	-11.3138
▁exploration	-11.3139
cité	-11.314
ll	-11.3142
▁ambitieuse	-11.3144
▁méditerranéen	-11.3148
▁unanime	-11.315
▁rapporteure	-11.3151
▁innovant	-11.3152
▁causer	-11.3157
▁grossesse	-11.3157
▁élargi	-11.316
▁ab	-11.3161
▁ores	-11.3164
▁gestionnaires	-11.3166
▁oriental	-11.3179
▁avancement	-11.3184
▁sixième	-11.319
▁impulsion	-11.3195
▁séquence	-11.3195
▁aisément	-11.3202
▁requêtes	-11.3203
▁sanitaire	-11.3204
▁génie	-11.3206
▁inventaire	-11.3207
▁horaire	-11.321
▁restriction	-11.3216
▁onglet	-11.3216
▁blue	-11.3219
▁existante	-11.322
▁fermée	-11.3221
▁courses	-11.3222
▁appelés	-11.3225
▁pair	-11.3226
▁poursuivi	-11.3227
▁convertir	-11.323
▁réglementaires	-11.3231
ole	-11.3233
ting	-11.3237
▁provence	-11.3238
▁illustration	-11.3241
▁administratif	-11.3256
▁éventuelles	-11.3258
▁exemplaires	-11.3262
▁vérifié	-11.3262
▁filet	-11.3262
▁genres	-11.3262
▁mauvaises	-11.3262
▁vulnérabilité	-11.3264
▁préavis	-11.3264
▁archive	-11.3264
▁pourrai	-11.3265
▁crainte	-11.327
▁52	-11.3272
▁studios	-11.3273
▁congo	-11.3275
▁franchise	-11.3277
▁41	-11.3284
▁libéré	-11.3284
▁propreté	-11.3285
▁trés	-11.3292
▁privilégiée	-11.3295
▁écouté	-11.3295
erie	-11.3295
▁stand	-11.3295
▁urgente	-11.3295
bre	-11.3297
▁passées	-11.3297
plan	-11.3298
▁synthèse	-11.3299
▁accueilli	-11.3299
ifi	-11.3302
▁recueilli	-11.3303
▁esthétique	-11.3303
ub	-11.3307
▁appartienne	-11.3313
▁cou	-11.3317
▁déposée	-11.3317
▁pensai	-11.3317
▁pertinents	-11.3318
▁réjouiss	-11.3326
▁agression	-11.3327
exactitude	-11.3329
▁case	-11.333
▁pause	-11.3335
▁daniel	-11.3336
▁ménages	-11.3337
▁bell	-11.3345
▁ambassade	-11.3345
▁sympa	-11.3353
▁répartie	-11.3353
▁étudié	-11.3357
▁révéler	-11.3359
▁los	-11.3359
▁associées	-11.3362
▁appréciation	-11.3362
cl	-11.3373
▁mentionne	-11.3374
▁préparée	-11.3376
▁masque	-11.3381
▁marc	-11.3385
▁merveilleuse	-11.3385
▁kirk	-11.3387
▁installe	-11.3387
▁séparément	-11.339
▁sélectionnés	-11.3396
▁largeur	-11.3399
▁reprend	-11.34
▁habitat	-11.3406
▁stage	-11.3406
▁injuste	-11.3408
▁excellentes	-11.3414
▁moral	-11.3417
▁opposant	-11.3423
▁élaborée	-11.3423
▁échapper	-11.3424
▁mark	-11.3424
▁unilatérale	-11.3425
▁dédiée	-11.3427
▁colline	-11.3428
▁évalué	-11.3429
▁constant	-11.3436
▁atteigne	-11.3437
van	-11.3438
▁jouir	-11.3439
▁bol	-11.3441
▁hygiène	-11.3442
▁assurée	-11.3443
▁cohérent	-11.3445
▁estiment	-11.3449
▁décisive	-11.3454
▁blessures	-11.3456
▁justifiée	-11.3458
▁chrétienne	-11.3458
▁compétente	-11.3462
▁mé	-11.3463
▁approfondi	-11.3464
▁maternelle	-11.3466
▁relèvent	-11.3467
▁voudrions	-11.3468
▁chimique	-11.347
▁convaincus	-11.3471
▁acceptés	-11.3473
pass	-11.3477
▁vierge	-11.3477
▁détaillant	-11.3478
▁administratifs	-11.3479
▁circonscription	-11.3483
▁classification	-11.3483
▁toilettes	-11.3486
▁déficits	-11.3488
▁1970	-11.349
lever	-11.3497
▁soudan	-11.3497
▁souple	-11.3499
▁transitoire	-11.3501
,3	-11.3505
▁observé	-11.3507
▁ultime	-11.3507
ix	-11.3509
▁impressionnante	-11.3509
ven	-11.3509
▁intelligente	-11.3511
▁tirée	-11.3513
ira	-11.3515
▁provient	-11.3517
▁gris	-11.3518
▁majeures	-11.3519
▁bureaucratique	-11.3524
▁sportif	-11.3525
▁bénéficié	-11.3525
▁dentaire	-11.3535
▁refuge	-11.3536
▁comp	-11.3539
ologie	-11.354
uns	-11.3541
oli	-11.3542
ist	-11.3542
▁identifiant	-11.3543
▁king	-11.3543
▁ennemi	-11.3548
▁distincte	-11.3548
▁émise	-11.355
▁hydro	-11.3557
▁réunis	-11.3565
▁visualiser	-11.3566
▁délicat	-11.3568
▁fidèles	-11.3569
▁accompagnement	-11.357
▁isolé	-11.3575
▁server	-11.3575
▁composantes	-11.3576
▁sain	-11.3576
▁profondes	-11.3577
▁fitness	-11.3577
▁optimisation	-11.3577
iv	-11.3578
▁xp	-11.3581
▁ger	-11.3584
▁palestinienne	-11.3585
▁excédent	-11.3587
▁fibres	-11.3588
▁sûrs	-11.3589
▁exclure	-11.359
▁émettre	-11.359
▁gen	-11.3591
▁jouets	-11.3591
▁mystère	-11.3595
▁douanière	-11.3601
▁ban	-11.3605
▁douleur	-11.3608
▁99	-11.361
▁inondations	-11.3616
▁doter	-11.3616
▁chic	-11.3617
▁schéma	-11.3619
ile	-11.3619
▁cafés	-11.3623
▁vitale	-11.3625
▁économiser	-11.3627
▁israéliens	-11.3628
▁charger	-11.3629
ach	-11.363
mont	-11.3637
▁signaux	-11.3637
▁nette	-11.3641
nu	-11.3641
▁distinct	-11.3641
my	-11.3643
▁mu	-11.3643
▁axé	-11.3645
▁comprise	-11.3647
▁sphère	-11.3651
▁réduisa	-11.3651
▁vancouver	-11.3654
▁hôpitaux	-11.366
aï	-11.3661
▁46	-11.3664
▁sessions	-11.3664
étient	-11.3668
▁lituanie	-11.3669
▁copier	-11.367
▁propice	-11.3672
▁faune	-11.3673
▁dirigeant	-11.3676
▁côtes	-11.3676
▁saveurs	-11.3677
\	-11.368
▁cite	-11.3684
▁capitaine	-11.3684
cé	-11.3684
▁variés	-11.3685
▁célébrer	-11.3689
▁res	-11.3698
▁collabore	-11.3698
▁occidental	-11.3699
▁partiel	-11.3705
▁viol	-11.3705
institutionnel	-11.3707
▁démographique	-11.3712
▁aires	-11.3713
▁fou	-11.3716
▁juifs	-11.3716
▁men	-11.3716
▁typiques	-11.3718
lia	-11.372
▁harmoniser	-11.3723
▁news	-11.3723
▁cinquante	-11.3726
we	-11.3726
▁contradiction	-11.373
▁spacieuse	-11.373
▁objection	-11.3735
▁finition	-11.3735
ière	-11.3737
64	-11.3739
▁rio	-11.374
▁poursuites	-11.3743
▁affectée	-11.3744
ttes	-11.3746
▁verser	-11.3746
▁roman	-11.3748
euses	-11.375
▁indice	-11.3751
▁conseillé	-11.3752
▁relevant	-11.3752
▁apprécierez	-11.3756
▁politicien	-11.3762
▁allie	-11.3765
▁algérie	-11.3765
▁généré	-11.3774
▁filiale	-11.3774
▁xml	-11.3778
▁exister	-11.3781
▁pse	-11.3786
ara	-11.3788
▁compétentes	-11.3788
hu	-11.3792
▁sévère	-11.3792
▁queue	-11.3801
ick	-11.3801
▁juges	-11.3803
▁rentabilité	-11.3804
▁lourds	-11.3806
uk	-11.3807
ama	-11.381
▁interactive	-11.381
▁renvoy	-11.3811
▁fauteuil	-11.3812
tant	-11.3814
▁dépassé	-11.3816
▁apache	-11.3816
▁exposer	-11.3817
▁exceptions	-11.3822
sol	-11.3825
▁semestre	-11.3828
▁espérance	-11.3828
▁résident	-11.3832
▁ambassadeur	-11.3833
▁connexions	-11.3837
▁collines	-11.3837
▁révolutionnaire	-11.3841
▁pittoresque	-11.3842
▁transféré	-11.3842
▁utilis	-11.3847
▁distribuer	-11.3849
▁tunnel	-11.3853
▁enjeu	-11.3854
▁vive	-11.3854
▁réconciliation	-11.3859
▁décisionnel	-11.3864
▁bogues	-11.3864
▁habitudes	-11.3866
▁sé	-11.387
▁fictif	-11.3871
▁interview	-11.3873
ate	-11.3876
▁validité	-11.3877
▁renvoi	-11.3877
▁indonésie	-11.388
▁intelligence	-11.3883
,5	-11.3884
▁agi	-11.3884
▁acc	-11.3887
bot	-11.3891
▁mettra	-11.39
▁dépensé	-11.39
▁oeil	-11.3906
▁franchement	-11.3911
▁dell	-11.3912
▁macro	-11.3912
▁cave	-11.3914
▁emprisonnement	-11.3916
▁ronde	-11.3917
▁fréquent	-11.3919
▁correspondante	-11.3921
▁françois	-11.3923
▁ram	-11.3923
▁vip	-11.393
▁subsiste	-11.3931
▁portugaise	-11.3934
▁fontaine	-11.3935
▁rest	-11.3938
▁désigne	-11.3939
▁dominante	-11.3942
▁1,5	-11.3951
▁recommander	-11.3952
▁american	-11.3954
▁inspire	-11.3955
▁concessionnaire	-11.3956
▁dégager	-11.3958
▁coins	-11.3963
hôtel	-11.3967
▁débuté	-11.3967
▁élégante	-11.397
▁déco	-11.3972
cho	-11.3972
mb	-11.3974
▁disait	-11.3975
▁danois	-11.3978
▁chant	-11.3979
▁souhaits	-11.3981
▁secrets	-11.3981
▁théorique	-11.3987
▁vieillissement	-11.3987
▁péché	-11.3987
▁birmanie	-11.3987
▁admissible	-11.3992
▁guider	-11.3993
▁réagi	-11.3999
atrice	-11.4
▁inscrivez	-11.4005
▁entremise	-11.4007
▁semblai	-11.4009
▁macédoine	-11.4011
▁armés	-11.4014
▁remarqué	-11.4015
▁marina	-11.4019
▁maintenu	-11.402
▁façons	-11.402
▁élémentaire	-11.4021
▁pen	-11.4026
▁allégation	-11.403
▁gold	-11.4031
▁contenter	-11.4033
▁gu	-11.4034
▁usd	-11.4037
▁varient	-11.4038
▁étonnant	-11.404
▁thermique	-11.4042
▁capteur	-11.4042
▁définitif	-11.4049
▁touchent	-11.405
ule	-11.4055
▁diplomatique	-11.4061
▁exact	-11.4063
▁débattu	-11.4064
ado	-11.4066
▁gue	-11.4066
▁prestataires	-11.4066
▁thérapeutique	-11.4067
▁promotions	-11.4068
▁grecque	-11.4068
▁japonaise	-11.4073
▁répartis	-11.4073
og	-11.4073
▁pousser	-11.4077
▁gagnant	-11.4079
▁incontestable	-11.4079
▁récupération	-11.408
▁spatiale	-11.4082
ight	-11.4083
▁attiré	-11.4083
▁sculpture	-11.4086
▁opère	-11.4088
▁dépense	-11.409
▁reine	-11.4091
▁conducteur	-11.4093
the	-11.4094
▁compatibilité	-11.4098
▁directeurs	-11.4105
fer	-11.4106
▁fermes	-11.4113
▁composante	-11.4119
▁négocié	-11.4119
▁malades	-11.4121
▁07	-11.4121
▁adressé	-11.4122
▁absurde	-11.4123
▁rouges	-11.4128
▁quotidiennement	-11.4136
▁xixe	-11.4142
▁fausse	-11.4148
▁parlant	-11.4153
▁consenti	-11.4156
▁acceptée	-11.4159
▁rassembler	-11.4162
▁ku	-11.4162
▁marins	-11.4165
▁expose	-11.4165
▁mensuel	-11.4166
▁apportée	-11.4169
45	-11.4169
nal	-11.4172
▁rat	-11.4175
▁combine	-11.4175
▁géant	-11.4178
▁attentats	-11.4187
▁hyper	-11.4187
▁chansons	-11.4189
▁exploité	-11.4189
kin	-11.4191
▁04	-11.4191
▁opt	-11.4197
▁palestine	-11.4198
▁marchand	-11.4201
▁fonctionnelle	-11.4203
▁compréhensible	-11.4204
▁tranche	-11.4205
▁vivons	-11.4209
ral	-11.4212
▁restreint	-11.4212
▁connexes	-11.4215
▁sha	-11.4215
▁immobilière	-11.4215
▁épouse	-11.4217
▁journées	-11.422
▁communiqués	-11.4222
▁ratifié	-11.4222
▁éprouve	-11.4237
▁délicate	-11.4237
ries	-11.4238
▁grille	-11.4241
▁renault	-11.4242
ker	-11.4243
▁mobiliser	-11.4245
▁lobby	-11.4246
▁stockholm	-11.4248
,1	-11.4252
▁cannes	-11.4253
▁poutine	-11.4255
▁edition	-11.4259
▁musical	-11.4261
▁potable	-11.4262
▁effondrement	-11.4264
▁digital	-11.4274
▁amoureux	-11.4274
ium	-11.428
▁ren	-11.4281
onne	-11.4281
▁rurale	-11.4283
▁dangereuse	-11.4284
▁avantageux	-11.4286
▁pédagogique	-11.4286
▁interactif	-11.4287
▁bre	-11.4289
▁sachant	-11.4291
▁sagesse	-11.4293
▁notation	-11.4294
▁avortement	-11.4299
▁réglé	-11.4299
▁compétent	-11.4302
cu	-11.4303
▁cellulaire	-11.4307
▁conducteurs	-11.431
▁etre	-11.4311
nique	-11.4311
▁fo	-11.4312
▁déroulement	-11.4318
▁localité	-11.4321
▁luxueuse	-11.4324
▁work	-11.4326
▁sk	-11.4332
▁françaises	-11.4333
▁judicieu	-11.4334
▁envisagée	-11.4339
86	-11.4339
▁serv	-11.4342
▁49	-11.4347
▁reconnaiss	-11.4347
▁data	-11.4348
▁conservateurs	-11.435
▁couronne	-11.4352
▁puissants	-11.4355
don	-11.4357
▁guichet	-11.4363
▁cessé	-11.4364
▁habitant	-11.4364
▁anonyme	-11.4366
née	-11.4368
▁sauvages	-11.4368
▁pic	-11.438
,2	-11.438
▁show	-11.4381
▁surprenant	-11.4382
19	-11.4382
▁exécute	-11.4384
▁déplace	-11.4385
▁concrétiser	-11.4385
▁échoué	-11.4385
ay	-11.4388
▁raffinée	-11.4389
▁intervalle	-11.4395
ateurs	-11.4397
▁conditionné	-11.4398
▁discrétion	-11.4401
av	-11.4407
▁intitulée	-11.4408
▁enregistrées	-11.4412
16	-11.4418
▁visuelle	-11.4418
▁modem	-11.4419
▁décret	-11.442
▁constat	-11.4423
▁influencer	-11.4426
▁écho	-11.4426
ö	-11.443
▁degrés	-11.443
▁septième	-11.4435
▁chiens	-11.4438
.0	-11.444
▁wikitravel	-11.4446
▁téléchargé	-11.4447
▁ste	-11.4448
▁continuité	-11.4448
▁attribuer	-11.4449
▁laissent	-11.4449
▁quitte	-11.4453
▁square	-11.4456
hr	-11.4458
▁assistant	-11.4458
▁partielle	-11.446
▁cup	-11.446
▁découvertes	-11.4463
teurs	-11.4465
▁reposant	-11.4466
▁47	-11.4466
▁chevaux	-11.4472
▁sent	-11.4473
dr	-11.4475
▁choisis	-11.4476
▁expo	-11.4477
▁sévères	-11.4478
▁permette	-11.4485
▁th	-11.4485
▁lourd	-11.4485
▁bâtir	-11.449
▁attribut	-11.4491
▁branche	-11.45
▁observatoire	-11.4504
▁financée	-11.4505
▁structurelle	-11.4506
▁sélectionnée	-11.451
▁jamendo	-11.4511
▁instable	-11.4511
courir	-11.4511
14	-11.4511
,4	-11.4513
▁ph	-11.4516
▁prolonger	-11.4517
▁rassemble	-11.4521
▁varié	-11.4521
▁win	-11.4522
▁brasserie	-11.4524
▁disparaître	-11.4524
▁06	-11.4524
▁aériens	-11.4529
▁forcément	-11.4543
▁évènement	-11.4543
▁docteur	-11.4543
eg	-11.4547
▁trous	-11.4547
▁pin	-11.4547
▁développées	-11.455
▁planifier	-11.4556
mm	-11.4559
▁identiques	-11.4561
▁monétaires	-11.4562
·	-11.4563
▁reproduire	-11.4563
▁instabilité	-11.4569
▁shopping	-11.4569
▁divisé	-11.457
▁roues	-11.457
▁solo	-11.4572
▁innombrable	-11.4576
▁stipule	-11.4576
▁posséder	-11.4579
▁montra	-11.4581
▁courts	-11.4582
tag	-11.4585
▁tierce	-11.4589
▁fût	-11.4589
▁marbre	-11.4589
▁gain	-11.4589
illon	-11.4593
▁soixante	-11.4598
▁puissi	-11.46
▁ten	-11.4602
▁swiss	-11.4602
▁octroy	-11.4604
▁eut	-11.4604
▁junior	-11.4608
▁visibles	-11.4609
▁indien	-11.4612
▁surf	-11.4613
▁guidée	-11.4615
▁puissances	-11.4616
▁racines	-11.4617
▁généreuse	-11.4622
▁implantation	-11.4622
▁approfondir	-11.4622
▁trailer	-11.4629
▁investi	-11.4632
▁puissante	-11.4634
lement	-11.4635
▁enregistre	-11.4647
▁rond	-11.465
▁bloquer	-11.465
▁transmises	-11.4651
▁far	-11.4652
▁marchandise	-11.4652
▁int	-11.4652
▁randonnées	-11.4655
▁remplacé	-11.4663
▁ep	-11.4664
▁extérieurs	-11.4665
ow	-11.4667
▁nautique	-11.4668
▁aideront	-11.467
▁motivation	-11.467
tri	-11.4671
▁détruit	-11.4677
▁condamner	-11.4679
mat	-11.4679
18	-11.4679
▁munich	-11.4679
ris	-11.4681
▁pape	-11.4686
▁affecter	-11.4687
▁hélicoptère	-11.4687
▁canapé	-11.4687
▁symantec	-11.4688
▁avéré	-11.4688
▁compétitive	-11.469
▁plaine	-11.4694
▁procède	-11.47
▁monument	-11.4704
▁résolue	-11.4706
tro	-11.4707
:00	-11.4707
▁suffisantes	-11.4709
▁ralentissement	-11.4709
▁allusion	-11.4714
▁clef	-11.4715
▁survenu	-11.4716
▁gastronomie	-11.472
-1	-11.4724
▁copyright	-11.4727
▁exhaustive	-11.4727
▁dépôts	-11.4727
▁battre	-11.473
▁synonyme	-11.4733
▁pôle	-11.4734
▁piliers	-11.4736
▁marcher	-11.4736
▁saura	-11.474
▁suscité	-11.4742
▁blocage	-11.4743
▁abordée	-11.4747
24	-11.4752
cy	-11.4757
▁entamé	-11.4758
▁favoris	-11.4767
▁jérusalem	-11.4767
▁charmante	-11.4769
▁68	-11.4769
▁italiens	-11.4772
gre	-11.4772
▁basque	-11.4773
▁fossé	-11.4773
▁rabais	-11.4774
▁rail	-11.4774
▁exercée	-11.4777
▁comptabilité	-11.478
▁hongrois	-11.478
▁dérivés	-11.4781
▁inutiles	-11.4783
▁software	-11.4788
▁franc	-11.4789
▁préfère	-11.4789
▁épisode	-11.4792
.4	-11.4796
▁jusque	-11.4797
▁prospère	-11.48
▁standing	-11.4801
▁comparative	-11.4807
▁impasse	-11.4807
▁180	-11.4807
amp	-11.4808
▁culte	-11.4808
ché	-11.481
▁complété	-11.4811
▁courtier	-11.4813
▁marquer	-11.4813
▁magique	-11.4814
▁entrant	-11.4817
eu	-11.4817
▁tournant	-11.4819
▁sam	-11.4826
▁concentré	-11.4828
▁comporta	-11.4828
▁savourer	-11.483
ph	-11.4834
▁réjouir	-11.4835
▁coordonnée	-11.4838
ures	-11.4838
▁pénurie	-11.484
▁spécificité	-11.484
▁bilatéraux	-11.484
ial	-11.484
▁couvrant	-11.4841
▁personnalisée	-11.4843
▁game	-11.4844
▁quitté	-11.4844
gon	-11.4847
▁ménage	-11.4849
▁croisière	-11.4851
▁08	-11.4852
▁décoré	-11.4856
▁démocratisation	-11.486
▁publicitaires	-11.4861
▁incendies	-11.4867
▁pouvai	-11.4873
▁médaille	-11.4873
▁spectre	-11.4874
▁350	-11.4874
▁mange	-11.4876
▁vache	-11.4879
▁handicapés	-11.4883
▁feux	-11.4883
qué	-11.4884
▁suggéré	-11.4887
▁voyageur	-11.4891
▁boisson	-11.4891
▁réformer	-11.4893
▁160	-11.4896
▁abandon	-11.4896
▁sensibiliser	-11.4898
▁comptant	-11.4901
▁intensifier	-11.4901
▁oms	-11.4906
▁recherché	-11.4906
▁antivirus	-11.4908
▁présentations	-11.4908
▁employée	-11.4912
17	-11.4914
tech	-11.4916
▁varier	-11.4916
▁opérer	-11.4916
▁libye	-11.4918
ella	-11.4926
▁insisté	-11.4928
▁assiste	-11.493
▁provincial	-11.4932
▁flore	-11.4935
▁indépendantes	-11.4939
▁représentée	-11.4941
▁impressionnant	-11.4942
▁filtres	-11.4944
▁renferme	-11.4944
▁nikon	-11.4944
▁revêtement	-11.4945
▁domestiques	-11.495
▁land	-11.4951
▁blancs	-11.4953
▁versée	-11.4953
▁intéresser	-11.4954
▁carrés	-11.4955
plus	-11.4956
way	-11.4958
nie	-11.4959
▁ed	-11.4961
▁néfaste	-11.4961
▁viabilité	-11.4962
▁1988	-11.4962
▁pauvre	-11.4964
▁london	-11.4965
▁dépenser	-11.4966
soft	-11.4971
▁onde	-11.4971
▁cre	-11.4973
▁coton	-11.4973
▁clôture	-11.4974
▁pertinent	-11.4974
men	-11.4978
▁orientée	-11.4981
▁massacre	-11.4982
▁traverser	-11.4983
▁lcd	-11.4984
▁rédiger	-11.4987
▁brunswick	-11.4987
▁exceptionnelles	-11.499
▁mets	-11.4992
▁circuits	-11.4993
▁régissant	-11.4995
lam	-11.5
lle	-11.5001
▁hongroise	-11.5002
ill	-11.5002
rin	-11.5006
▁distributeur	-11.5007
▁mor	-11.5007
▁laterooms	-11.5009
▁consciente	-11.502
▁galeries	-11.5023
ala	-11.5025
▁constitu	-11.5026
▁boulevard	-11.5029
▁abolition	-11.5029
▁guinée	-11.5029
▁dynamisme	-11.5029
▁températures	-11.5034
▁lumineux	-11.5036
▁supports	-11.504
▁attaché	-11.5041
▁rapprochement	-11.5043
▁relancer	-11.5043
har	-11.5044
▁déterminant	-11.5046
▁forcée	-11.5048
▁explosion	-11.505
▁reçues	-11.5052
tif	-11.5054
nc	-11.5055
▁dictature	-11.5055
▁palette	-11.5056
▁sacré	-11.5057
▁frein	-11.5058
teur	-11.5058
▁mn	-11.5059
▁asiatiques	-11.5062
"	-11.5062
▁malte	-11.5063
▁réservoir	-11.5063
▁network	-11.5065
95	-11.5069
▁alberta	-11.5072
▁prononcée	-11.5075
▁habituel	-11.5075
▁intéressent	-11.5078
▁ali	-11.5079
▁précoce	-11.5084
▁sc	-11.5085
▁encouragement	-11.5089
▁législations	-11.5092
▁prenante	-11.5094
▁englobe	-11.5094
▁rendra	-11.5094
▁bleue	-11.5096
▁colis	-11.5104
▁abandonné	-11.5105
▁protéines	-11.5105
▁bei	-11.5113
▁orienter	-11.5115
▁dirai	-11.5115
▁récompense	-11.5116
▁axe	-11.512
▁exploite	-11.5125
view	-11.5133
all	-11.5134
▁menant	-11.5135
onstitutionnelle	-11.5136
▁diffusé	-11.5137
▁séparés	-11.5137
▁choc	-11.5137
▁illicite	-11.5139
▁admission	-11.5139
▁matérielle	-11.5143
▁atténuer	-11.5152
▁linge	-11.5152
▁kenya	-11.5155
▁remerci	-11.5157
olo	-11.5158
▁emprunt	-11.516
▁aile	-11.5161
▁gastronomique	-11.5161
▁créateur	-11.5162
▁maîtres	-11.5164
▁engendre	-11.5164
▁rupture	-11.5167
isée	-11.5167
▁odeur	-11.5171
▁mus	-11.5171
ena	-11.5172
▁souche	-11.5172
pp	-11.5173
▁dûment	-11.5174
13	-11.5176
▁résidentiel	-11.518
od	-11.5181
▁bits	-11.5185
▁pétrolier	-11.5187
▁certificats	-11.519
▁payant	-11.5192
▁mit	-11.5194
▁émergence	-11.5194
▁blocs	-11.5195
▁prêter	-11.5196
ote	-11.5196
▁procureur	-11.5196
▁importé	-11.5197
▁zoom	-11.5199
▁guerres	-11.5199
uc	-11.5202
nelle	-11.5204
▁cig	-11.521
▁signée	-11.521
hl	-11.5212
▁continuellement	-11.5213
▁israélien	-11.5213
▁policière	-11.5215
nn	-11.5216
▁mono	-11.5217
▁inf	-11.522
▁infections	-11.5222
▁conviviale	-11.5223
ü	-11.5224
▁spam	-11.5228
▁particule	-11.523
▁provincia	-11.5235
▁pot	-11.5237
▁constructeurs	-11.5244
▁sw	-11.5247
▁pertinente	-11.525
▁neutre	-11.525
▁aimable	-11.525
▁autrichienne	-11.5251
▁entrave	-11.5255
▁destin	-11.5256
▁laser	-11.5257
▁particularité	-11.5257
▁turque	-11.5261
▁héro	-11.5261
▁implicite	-11.5264
▁techniciens	-11.5266
▁coûteux	-11.5269
▁sombre	-11.527
▁albanie	-11.5271
▁chaises	-11.5272
▁plancher	-11.5278
issent	-11.5282
▁dégradation	-11.5285
▁activé	-11.5288
▁panier	-11.5291
▁conclus	-11.5292
▁indemnisation	-11.5292
▁cam	-11.5299
▁croyance	-11.5299
▁lib	-11.53
▁arctique	-11.53
▁connais	-11.5302
▁reçus	-11.5304
ren	-11.5305
▁délicieuse	-11.5306
▁pompe	-11.5309
▁haïti	-11.5309
▁filiales	-11.5313
▁tactique	-11.5314
▁concernée	-11.5317
▁tardive	-11.5317
▁bénéfique	-11.5319
▁synergie	-11.532
wi	-11.5329
om	-11.533
▁phases	-11.5331
▁rêves	-11.5333
oo	-11.5333
▁vaccination	-11.5336
▁ol	-11.5336
▁renseigner	-11.5338
ham	-11.534
▁fièvre	-11.5341
▁viv	-11.5341
ès	-11.5343
ct	-11.5343
▁jo	-11.5345
br	-11.5345
▁élégantes	-11.5348
▁fardeau	-11.5355
▁actives	-11.5358
▁extrêmes	-11.5362
▁expiration	-11.5362
▁établissant	-11.5364
▁illégal	-11.5365
.5	-11.5365
.00	-11.5367
▁rejetée	-11.5369
▁guise	-11.537
bit	-11.537
▁shi	-11.5371
▁transporter	-11.5372
▁gran	-11.5372
ami	-11.5373
fil	-11.5375
▁excès	-11.5376
▁compétitifs	-11.5377
nelles	-11.5379
▁académie	-11.5383
▁accusé	-11.5386
▁strict	-11.539
▁complets	-11.5393
▁boîtes	-11.5394
▁censé	-11.5395
▁diffusée	-11.5397
▁annulé	-11.5398
lis	-11.54
gar	-11.5407
▁ir	-11.5409
▁tent	-11.541
▁portables	-11.5411
▁recul	-11.5411
▁expulsion	-11.5412
▁thomas	-11.5413
▁évoquée	-11.5413
▁emprunter	-11.5414
▁130	-11.5417
nement	-11.542
▁paire	-11.5421
▁escalade	-11.5422
▁56	-11.5423
▁littérature	-11.5426
▁51	-11.5427
▁prophète	-11.5433
ras	-11.5436
▁dettes	-11.544
▁partagé	-11.5441
▁épidémie	-11.5442
▁carton	-11.5446
▁bâle	-11.5447
▁ups	-11.5453
▁goûter	-11.5454
▁législature	-11.5454
▁néo	-11.5456
▁disposés	-11.5459
▁boire	-11.5463
▁perçu	-11.5466
are	-11.5468
▁acceptons	-11.5468
▁professions	-11.5479
▁créez	-11.5482
▁truc	-11.5483
ign	-11.5486
▁profits	-11.5489
ois	-11.5489
▁appellation	-11.5491
▁chaudes	-11.5493
▁occupant	-11.5496
ble	-11.5499
▁signale	-11.5504
▁détecter	-11.5508
▁mathématique	-11.5511
▁méthodologie	-11.5511
▁trouvera	-11.5519
▁concertation	-11.5522
▁vif	-11.5529
▁ltd	-11.553
▁apprend	-11.5531
▁assassinat	-11.5532
▁possédant	-11.5537
▁densité	-11.554
▁imagination	-11.5541
▁slovénie	-11.5547
▁biotechnologie	-11.5547
▁poulet	-11.5552
▁embargo	-11.5555
▁quarante	-11.5555
▁aveugle	-11.5555
▁continental	-11.5558
▁trains	-11.5561
▁chypriote	-11.5562
▁croient	-11.5562
éri	-11.5564
▁domestique	-11.5567
▁compliqué	-11.5575
▁jouisse	-11.5577
▁aval	-11.5577
tur	-11.5578
▁manœuvre	-11.5581
▁intel	-11.5581
ros	-11.5582
zo	-11.5583
▁ennemis	-11.5583
▁consultant	-11.5594
▁indésirable	-11.5605
▁norv	-11.5608
▁mou	-11.5609
▁servira	-11.5611
▁insérer	-11.5616
▁infini	-11.5616
▁lampe	-11.5618
▁soirées	-11.5618
▁renaissance	-11.5619
▁félicit	-11.562
▁fri	-11.562
▁haine	-11.5623
▁artificielle	-11.5624
▁victoria	-11.5626
garde	-11.5626
eo	-11.5628
▁chili	-11.5631
naire	-11.5634
▁validation	-11.5634
▁féminine	-11.5635
▁53	-11.5638
▁donnez	-11.5639
▁recommandée	-11.5639
▁constatons	-11.5641
▁préparatoire	-11.5641
▁poussé	-11.5642
▁portage	-11.5643
squels	-11.5644
▁act	-11.5645
▁fc	-11.5646
▁ipod	-11.5649
▁exp	-11.5649
▁verra	-11.5651
▁jou	-11.5651
▁sépare	-11.5651
▁comptables	-11.5655
▁chalet	-11.5656
▁municipale	-11.5656
▁tic	-11.5656
▁divulgation	-11.5656
sch	-11.5658
▁verron	-11.566
▁violente	-11.567
▁cibles	-11.567
▁conservé	-11.5674
ator	-11.5675
bu	-11.5677
▁municipalité	-11.5678
▁partagée	-11.5681
▁tuer	-11.5684
▁villas	-11.5684
▁ultérieurement	-11.5686
▁existait	-11.5687
▁exigeant	-11.5687
entement	-11.5689
▁évolué	-11.569
alité	-11.569
▁rec	-11.5691
▁perfectionne	-11.5693
▁saurai	-11.5694
▁personnalisés	-11.5696
▁employer	-11.5702
▁recherch	-11.5703
▁dépens	-11.5703
▁vivante	-11.5704
▁extraction	-11.5707
▁meme	-11.5708
▁justifié	-11.5711
lie	-11.5712
▁enregistrée	-11.5713
▁miles	-11.5714
▁couches	-11.572
▁envisagé	-11.572
▁sacs	-11.5721
32	-11.5728
▁chinoises	-11.573
▁peintures	-11.5731
▁caraïbes	-11.5733
▁recueillie	-11.5733
▁apportera	-11.5734
▁fédéraux	-11.5736
aine	-11.5737
▁susciter	-11.5738
ona	-11.5739
yr	-11.5739
▁asiatique	-11.5739
nés	-11.5741
▁mépris	-11.5742
▁lune	-11.5743
▁compétents	-11.5743
▁aise	-11.5744
▁aimer	-11.575
▁off	-11.5751
▁séparé	-11.5752
▁averti	-11.5755
▁emp	-11.5756
▁olaf	-11.5758
▁végétale	-11.576
▁appelez	-11.5762
▁lourdes	-11.5762
▁dégage	-11.5771
bert	-11.5772
▁idéologie	-11.5773
▁sentiments	-11.5775
▁formulé	-11.5778
▁cl	-11.5779
▁98	-11.5779
▁1985	-11.5781
issons	-11.5783
▁compenser	-11.5784
dra	-11.5786
▁proprement	-11.5789
▁abordable	-11.579
▁réglage	-11.5791
▁commerces	-11.5791
▁opposée	-11.5793
▁sms	-11.5793
▁sauvetage	-11.5795
▁richard	-11.5795
illa	-11.5796
▁africain	-11.5796
▁comparé	-11.5797
▁var	-11.58
▁adolescents	-11.58
▁immobiliers	-11.5802
pé	-11.5803
▁reconnues	-11.5808
▁maximal	-11.5809
▁impatience	-11.5809
▁justification	-11.5809
▁1987	-11.581
35	-11.5819
▁mentionnées	-11.5819
▁plante	-11.5829
▁conviennent	-11.5836
▁modifiées	-11.584
ze	-11.584
▁spirituelle	-11.5841
▁vendue	-11.5842
▁amitié	-11.5846
▁160;	-11.5847
▁noté	-11.5855
▁intérimaire	-11.5861
▁one	-11.5862
▁réflexions	-11.5862
nel	-11.5862
▁ic	-11.5864
▁intensive	-11.5869
▁assist	-11.5872
▁mine	-11.5874
▁rentrer	-11.5877
▁09	-11.5878
▁boutons	-11.5879
▁time	-11.588
.6	-11.588
▁terrestre	-11.5882
▁doha	-11.5885
pin	-11.5888
▁maintenue	-11.5889
ford	-11.589
xi	-11.5891
▁transposition	-11.5891
▁jury	-11.5891
▁documentaire	-11.5892
▁fed	-11.5892
▁débute	-11.5894
ä	-11.5895
▁immeubles	-11.5895
▁législateur	-11.5899
▁optimal	-11.5899
▁tirage	-11.5901
ld	-11.5902
▁couples	-11.5903
▁exposées	-11.5906
▁rétablissement	-11.5906
▁alarme	-11.5906
▁originaux	-11.5913
cia	-11.5916
▁sorties	-11.5917
▁ét	-11.5923
▁nourrir	-11.5924
dou	-11.5925
ell	-11.5925
▁retenir	-11.593
▁émergents	-11.5932
▁automatiques	-11.5933
▁renouvelable	-11.5935
▁doctrine	-11.5936
▁passés	-11.5938
▁unie	-11.5943
▁refléter	-11.5943
▁épaisseur	-11.5951
▁résister	-11.5953
▁discriminations	-11.5953
aurait	-11.5954
▁pat	-11.5955
▁génocide	-11.5958
▁textiles	-11.5964
▁insertion	-11.5966
dc	-11.5966
pc	-11.5971
▁sage	-11.5973
ima	-11.5975
▁tchétchénie	-11.5981
▁meurtre	-11.5981
air	-11.5982
rions	-11.5988
▁causée	-11.5988
▁1986	-11.5989
▁appliqués	-11.599
ô	-11.599
▁stars	-11.5992
gal	-11.5992
▁matériau	-11.5993
▁porto	-11.5996
▁poli	-11.6002
▁nocturne	-11.6004
▁terroriste	-11.6005
▁enseignant	-11.6006
▁réuni	-11.601
▁entourée	-11.6013
ans	-11.6013
gra	-11.6015
▁légers	-11.6016
▁grandeur	-11.6018
▁suggestion	-11.602
▁touches	-11.6021
ity	-11.6021
sion	-11.6022
pr	-11.6024
▁retourné	-11.6025
▁firefox	-11.6026
▁pertinence	-11.6026
▁hol	-11.6026
▁magie	-11.6026
met	-11.6026
▁exclus	-11.6026
▁régie	-11.6027
▁eco	-11.6028
yer	-11.6033
▁farine	-11.6036
gr	-11.6036
▁oit	-11.6036
▁plug	-11.604
▁bank	-11.6041
▁arrêtée	-11.6041
▁manifestant	-11.6043
▁conseillons	-11.6045
▁déplore	-11.6046
gel	-11.6046
▁cuisson	-11.6049
▁honda	-11.6049
▁enlèvement	-11.605
▁sentent	-11.6052
▁play	-11.6055
▁naviguer	-11.6063
▁nero	-11.6063
▁gal	-11.6063
tar	-11.6067
▁dj	-11.6067
▁annuaire	-11.6071
▁diabète	-11.6071
▁irrégularité	-11.6071
▁fixes	-11.6074
oir	-11.6074
▁bac	-11.6075
▁disposé	-11.6077
▁colère	-11.6079
▁adoptant	-11.6084
▁municipalités	-11.6086
▁taxation	-11.6087
▁annoncée	-11.6088
▁alpha	-11.6088
▁sélectionn	-11.609
▁budapest	-11.6094
\'	-11.6099
for	-11.61
▁rembourser	-11.6101
kh	-11.6101
▁patron	-11.6101
▁vivants	-11.6102
tis	-11.6107
▁han	-11.6111
▁oc	-11.6111
▁minimal	-11.6115
▁von	-11.612
▁onze	-11.6123
▁atout	-11.6124
lon	-11.6126
▁efforcer	-11.6129
▁sérieuses	-11.613
ula	-11.6132
▁censure	-11.6132
▁mènent	-11.6135
▁pri	-11.6136
▁140	-11.6139
▁fl	-11.6139
▁arrondissement	-11.6139
▁thaïlande	-11.6139
▁tendre	-11.614
tec	-11.6144
▁toilette	-11.6146
▁piège	-11.6147
▁incite	-11.615
▁arrêtés	-11.6155
isent	-11.6155
▁casa	-11.6156
▁accueillante	-11.6157
▁recueille	-11.6158
▁divisions	-11.616
▁emporter	-11.6161
▁néerlandaise	-11.6166
▁insuffisante	-11.6168
▁gala	-11.6168
▁sl	-11.6169
▁2015	-11.6171
▁fabriquer	-11.6171
▁ing	-11.6172
▁mat	-11.6177
▁émanant	-11.6178
▁alt	-11.6179
▁2,5	-11.6179
▁coûteuse	-11.618
ifié	-11.6182
▁animée	-11.6187
▁traductions	-11.6189
▁demeurer	-11.6191
▁sri	-11.6194
▁figurer	-11.6199
her	-11.6202
▁directes	-11.6207
▁parviennent	-11.6207
▁rep	-11.6208
▁chanteur	-11.6209
▁fuite	-11.6209
▁continué	-11.6209
▁900	-11.621
▁sécurisée	-11.621
cal	-11.6211
▁luc	-11.6216
ê	-11.6218
▁sortant	-11.6218
▁uem	-11.6219
▁raid	-11.622
▁suspendue	-11.6222
▁rencontrent	-11.6222
▁form	-11.6224
▁périodique	-11.6225
▁54	-11.6226
ose	-11.623
▁convivial	-11.6232
▁nuire	-11.6232
oy	-11.6233
▁dite	-11.6234
▁api	-11.6235
▁instantané	-11.6235
▁délinquants	-11.624
▁baisser	-11.6242
▁écrans	-11.6242
▁intervient	-11.6244
▁exigé	-11.6247
▁maîtriser	-11.6247
▁pommes	-11.6248
▁athlètes	-11.6249
tron	-11.6252
▁délégations	-11.6253
iller	-11.6255
▁poudre	-11.6255
ji	-11.6255
▁grotte	-11.6257
icaux	-11.6257
▁judicieuse	-11.6258
▁fournira	-11.6262
▁combiner	-11.6262
▁illégaux	-11.6262
▁écosystèmes	-11.6265
▁énergique	-11.627
lée	-11.627
▁volant	-11.6276
▁110	-11.6277
rou	-11.628
▁haye	-11.628
▁sexes	-11.6281
▁profitent	-11.6281
▁fumeurs	-11.6282
▁considér	-11.6285
▁bogue	-11.6286
▁affilié	-11.629
▁tokyo	-11.6293
▁cyber	-11.6294
▁délégués	-11.6298
▁scripts	-11.6299
▁grève	-11.6301
▁biocarburants	-11.6301
▁tourné	-11.6306
▁compilation	-11.6309
▁retiré	-11.6309
▁gorge	-11.6318
▁meublée	-11.6318
▁calculé	-11.632
▁aidant	-11.6321
économique	-11.6324
▁descendre	-11.6325
▁climatisé	-11.6329
oise	-11.6329
▁adore	-11.6331
tour	-11.6336
▁créateurs	-11.6338
▁récit	-11.6338
▁essayon	-11.6339
▁vainqueur	-11.634
▁festivals	-11.634
▁métaux	-11.634
▁citoyenne	-11.6345
▁capitalisme	-11.6352
,9	-11.6352
▁composer	-11.6353
▁relie	-11.6354
bl	-11.6354
▁médiatique	-11.6357
▁goûts	-11.6357
ire	-11.6363
▁lente	-11.6363
issant	-11.6364
▁jan	-11.6368
▁espagnols	-11.637
▁terroir	-11.6371
▁tampon	-11.6371
▁war	-11.6373
iel	-11.6374
▁raconte	-11.6376
▁réglementer	-11.6378
▁axes	-11.6379
▁opera	-11.6381
▁démarre	-11.6381
▁intervenu	-11.6382
▁empêché	-11.6387
▁vo	-11.639
▁accéd	-11.6391
▁évalue	-11.6393
▁réacteur	-11.6394
▁trou	-11.6396
▁isolement	-11.6398
▁ball	-11.6399
▁mastercard	-11.6402
▁exercé	-11.6405
▁issues	-11.6407
▁âgé	-11.6414
▁saisi	-11.6416
ain	-11.6417
▁essor	-11.6418
▁entrevue	-11.642
▁identifie	-11.6423
▁aéronautique	-11.6426
▁téléviseur	-11.6426
▁désignation	-11.6426
▁disposée	-11.6427
▁serviette	-11.6427
▁tan	-11.6427
▁cu	-11.6427
▁champion	-11.6428
▁raffiné	-11.6429
▁estimation	-11.6431
▁kde	-11.6432
▁exporter	-11.6437
▁high	-11.6441
▁contrôlée	-11.6441
disciplinaire	-11.6441
▁rotation	-11.6442
cr	-11.6453
▁card	-11.6454
ei	-11.6454
▁fière	-11.6457
our	-11.6457
▁cocktails	-11.6458
▁neuve	-11.6461
▁boucle	-11.6462
▁équitables	-11.6462
▁consécutive	-11.6465
▁aquaculture	-11.6465
▁bébés	-11.6471
▁processeur	-11.6471
▁privatisation	-11.6473
nce	-11.6473
▁béton	-11.6473
▁apparente	-11.6473
▁roche	-11.648
gie	-11.6482
▁propagation	-11.6489
▁beurre	-11.6489
▁globe	-11.6492
▁sh	-11.6494
▁monté	-11.6494
▁grosses	-11.6494
▁racine	-11.6495
▁boîtier	-11.6496
▁absent	-11.65
▁marco	-11.65
▁mousse	-11.6502
chaussée	-11.6503
▁appartenance	-11.6504
box	-11.6505
▁thon	-11.6507
▁spirituel	-11.651
▁pay	-11.6511
tta	-11.6511
▁isolation	-11.6512
▁tibet	-11.6513
▁gagnants	-11.652
▁évolue	-11.652
22	-11.6521
▁jet	-11.6522
▁consommer	-11.6524
▁hypothécaire	-11.6528
▁encre	-11.6529
▁réglages	-11.6533
▁demanderai	-11.6534
▁saddam	-11.6536
▁exportateur	-11.6539
▁parviendron	-11.6539
▁morceau	-11.6541
▁compétitif	-11.6543
▁rigoureux	-11.6544
▁progressé	-11.6545
▁manifester	-11.6546
▁garantis	-11.6546
▁styles	-11.6547
▁distinguer	-11.6549
▁manquent	-11.6555
▁clandestine	-11.6556
▁plomb	-11.6558
▁hammam	-11.656
▁north	-11.656
▁not	-11.6562
▁moldavie	-11.6568
▁simulation	-11.6568
▁insécurité	-11.6568
▁revendeur	-11.6569
rum	-11.6572
▁airport	-11.6572
▁conservée	-11.6572
vint	-11.6575
▁littoral	-11.6589
▁réduise	-11.6592
▁profils	-11.6595
▁communiquée	-11.6597
▁différemment	-11.66
▁sauce	-11.66
▁formés	-11.6603
▁additionnelle	-11.6603
▁importer	-11.6604
▁caractérisé	-11.661
▁personnaliser	-11.6612
▁contrainte	-11.6613
▁comparable	-11.6617
▁occup	-11.6624
▁facturation	-11.6624
▁pékin	-11.6624
lait	-11.6625
oni	-11.6626
▁@	-11.6626
▁rappelons	-11.6626
row	-11.6628
▁mutuel	-11.663
▁archéologique	-11.6632
▁chrétien	-11.6633
▁confié	-11.6633
▁variations	-11.6635
▁rideau	-11.664
¿	-11.664
▁arabie	-11.664
▁fondateurs	-11.6641
▁olive	-11.6641
ouille	-11.6642
▁sexuels	-11.6642
▁exceptionnels	-11.6644
ast	-11.6648
▁vraisemblable	-11.6648
▁piazza	-11.6648
▁orienté	-11.6648
▁ford	-11.665
▁dresse	-11.6653
▁intensif	-11.6657
▁pluriannuel	-11.6658
▁larges	-11.666
75	-11.666
▁insuffisance	-11.6664
▁garda	-11.6665
▁tech	-11.6665
sson	-11.6666
▁gratuites	-11.6666
▁élite	-11.6668
▁piles	-11.6675
▁intellectuel	-11.6676
▁guitare	-11.6677
▁cerveau	-11.6677
▁indirectement	-11.6681
ida	-11.6681
▁virement	-11.6683
▁renvoie	-11.6687
▁monastère	-11.6688
▁oasis	-11.6688
▁parisien	-11.669
▁perçue	-11.6691
▁souffrir	-11.6693
▁médiévale	-11.6693
rov	-11.6695
▁normalisation	-11.6697
▁célébration	-11.6699
▁ouvertement	-11.67
▁confirmée	-11.6703
ban	-11.6704
▁approximative	-11.6704
▁fléau	-11.6704
▁diversification	-11.6705
▁éleveur	-11.6708
▁human	-11.6712
▁nommée	-11.6715
▁ciblé	-11.6719
▁brun	-11.672
▁pourparler	-11.672
▁péninsule	-11.672
▁survivre	-11.672
▁tangible	-11.672
▁mortalité	-11.6721
▁franco	-11.6722
▁dom	-11.6722
part	-11.6727
ʼ	-11.6728
▁discriminatoire	-11.6729
▁volumes	-11.673
▁fondations	-11.673
▁05	-11.6731
▁ras	-11.6733
▁recevra	-11.6734
▁offrira	-11.6735
▁dame	-11.6741
ave	-11.6742
▁modéré	-11.6743
▁maire	-11.6744
▁honte	-11.675
▁expérimentés	-11.6751
bro	-11.6752
▁appliqua	-11.6762
▁informel	-11.6763
▁suspect	-11.6765
bin	-11.6767
▁redevance	-11.6769
▁persuadé	-11.6775
▁absteni	-11.6777
▁toulouse	-11.6777
▁rechange	-11.6777
▁filière	-11.6778
▁canton	-11.6779
▁émetteur	-11.6783
▁contrefaçon	-11.6786
▁fonder	-11.6788
▁intra	-11.679
▁borne	-11.6792
ste	-11.6794
▁sommeil	-11.6794
asse	-11.68
▁tuberculose	-11.6801
▁cv	-11.6804
tv	-11.6806
ft	-11.6806
▁xxie	-11.6808
▁inefficace	-11.681
▁bordeaux	-11.681
▁brutale	-11.6811
▁sexuel	-11.6814
▁préconise	-11.6814
▁if	-11.6814
▁room	-11.6817
▁romain	-11.6821
▁souffrant	-11.6821
▁privative	-11.6826
▁puit	-11.683
▁app	-11.6832
▁atouts	-11.6838
bus	-11.6839
▁tombé	-11.6839
▁bis	-11.6839
▁sexuelles	-11.6841
▁incitation	-11.6841
▁desservi	-11.6842
▁alinéa	-11.6842
zi	-11.6847
aissent	-11.6848
▁check	-11.685
▁gameplay	-11.685
▁promenades	-11.6852
▁anne	-11.6855
▁centaine	-11.6858
▁fructueuse	-11.6859
▁gps	-11.686
▁big	-11.686
▁acceptées	-11.6863
▁découvr	-11.6863
▁favorisa	-11.6865
▁contamination	-11.6867
▁poignée	-11.6867
▁vouli	-11.6867
▁achevé	-11.6868
▁prolongée	-11.6869
tôt	-11.6871
point	-11.6872
▁bug	-11.6874
rer	-11.6875
▁hotels	-11.6878
▁tremblement	-11.6879
▁géo	-11.6882
ines	-11.6883
▁hydraulique	-11.6883
rap	-11.6887
▁statue	-11.6898
ib	-11.6899
▁peines	-11.69
▁rayonnement	-11.6902
▁étroit	-11.6905
▁colle	-11.6907
66	-11.6909
▁incendie	-11.6909
▁rap	-11.6909
ski	-11.691
▁défendu	-11.691
▁kan	-11.691
▁bur	-11.6912
▁rempliss	-11.6913
▁formée	-11.6914
▁représent	-11.6915
▁caractérisée	-11.6916
▁réputé	-11.692
▁newsletter	-11.6924
▁détérioration	-11.6924
▁adhère	-11.6924
▁commençant	-11.6927
▁élever	-11.6927
▁panne	-11.6933
▁régulateur	-11.6933
▁pourvu	-11.6933
▁mod	-11.6934
▁brok	-11.6938
▁communion	-11.6945
▁connaiss	-11.6948
01	-11.6949
▁conservés	-11.6949
▁châteaux	-11.6949
▁injection	-11.6949
▁pâte	-11.695
▁joseph	-11.6952
dis	-11.6952
▁dorénav	-11.6957
▁actrice	-11.6958
▁telus	-11.6958
▁réussie	-11.6958
ice	-11.696
▁turcs	-11.6965
▁nintendo	-11.6966
▁insuffisant	-11.6968
ary	-11.6973
▁radiodiffusion	-11.6974
▁forteresse	-11.6974
dia	-11.6974
▁fret	-11.6975
▁school	-11.6975
uff	-11.6977
▁économiquement	-11.6979
▁sécheresse	-11.6982
▁soumission	-11.6984
▁courbe	-11.6986
▁séparée	-11.6987
▁abstenu	-11.6989
▁intérieurs	-11.699
éré	-11.699
gna	-11.6991
▁saveur	-11.6993
▁déclarée	-11.6996
▁stocker	-11.6996
▁indienne	-11.6998
▁massages	-11.6999
ath	-11.7
▁cro	-11.7002
of	-11.7003
aw	-11.7004
▁misère	-11.7007
▁rigide	-11.7008
67	-11.7008
▁confier	-11.7009
▁motivé	-11.7012
▁moyenna	-11.7014
▁constituera	-11.7016
▁déplacé	-11.7017
68	-11.702
65	-11.7023
▁adressée	-11.7024
lant	-11.7026
star	-11.7027
▁comparables	-11.7031
▁calculer	-11.7032
▁diplomatie	-11.7032
▁ferroviaires	-11.7038
▁visuel	-11.7041
▁déployer	-11.7041
▁consultants	-11.7042
▁pres	-11.7046
▁entraînera	-11.7048
▁vaccins	-11.7049
ié	-11.7055
terre	-11.7056
▁enceintes	-11.7057
▁sourire	-11.7057
▁réparer	-11.7063
▁intimité	-11.7065
▁cotisations	-11.7068
▁triple	-11.7069
ello	-11.7069
▁cherché	-11.7072
▁patio	-11.7073
ides	-11.7074
▁imprenable	-11.7074
▁blair	-11.7075
▁bulgare	-11.7082
▁warcraft	-11.7082
▁minuit	-11.7083
tier	-11.7085
▁out	-11.7086
bb	-11.7087
▁roth	-11.7089
▁exotique	-11.7091
▁helsinki	-11.7091
▁assemblage	-11.7091
ao	-11.7093
▁limités	-11.7096
▁spéculation	-11.7099
ages	-11.7101
▁toxiques	-11.7102
▁ssl	-11.7107
▁pouces	-11.7107
▁terrasses	-11.7108
aki	-11.7109
▁réfère	-11.711
▁user	-11.7111
▁californie	-11.7112
▁accomplissement	-11.7114
▁saluons	-11.7116
▁sierra	-11.7116
▁rives	-11.712
▁comporter	-11.7121
▁tuyau	-11.7121
▁originales	-11.7123
▁mentionnée	-11.7123
▁sarkozy	-11.7124
▁garden	-11.7127
▁romaine	-11.7129
▁productions	-11.713
▁66	-11.7132
▁viendra	-11.7133
▁délivré	-11.7138
▁glisser	-11.7138
▁alde	-11.7139
▁trousse	-11.7143
▁fé	-11.7147
▁résistant	-11.715
▁ponts	-11.715
ture	-11.715
▁conseille	-11.7152
▁rénovées	-11.7153
▁restée	-11.7154
▁indicateur	-11.7155
▁serion	-11.7158
él	-11.716
▁séries	-11.716
▁routiers	-11.7161
▁résidu	-11.7163
vent	-11.7165
▁moulin	-11.7165
▁subisse	-11.7167
lles	-11.7169
▁bri	-11.7169
▁andré	-11.7171
uri	-11.7171
▁control	-11.7172
▁ratifier	-11.7177
▁conditionnelle	-11.7177
▁descente	-11.7183
▁fameuse	-11.7191
nçons	-11.7192
▁injustice	-11.7192
▁antenne	-11.7192
▁bordure	-11.7192
▁dépendant	-11.7196
▁cool	-11.7197
▁450	-11.7198
▁désigner	-11.7199
▁galileo	-11.72
▁téléphonie	-11.72
▁cn	-11.7201
▁ur	-11.7201
▁suspendre	-11.7201
▁approuv	-11.7203
▁ann	-11.7206
qua	-11.7208
▁dépistage	-11.7209
▁dérive	-11.721
▁palma	-11.7211
▁mix	-11.7212
▁ze	-11.7214
▁imposant	-11.7217
▁céramique	-11.7217
▁opérationnelles	-11.7217
▁laurent	-11.7219
rofessionnalisme	-11.7221
▁arrangements	-11.7223
▁cocktail	-11.7225
▁supprime	-11.7227
lla	-11.7231
▁62	-11.7236
▁stimulant	-11.7243
▁ei	-11.7243
▁assureur	-11.7245
▁drame	-11.7253
▁éloigné	-11.7254
▁chômeurs	-11.7254
▁supporté	-11.7255
omo	-11.7258
cker	-11.7259
▁accélération	-11.726
▁cités	-11.7267
▁planétaire	-11.7268
▁lieutenant	-11.7268
▁1978	-11.7269
pri	-11.7271
▁regroupement	-11.7272
▁passerelle	-11.7273
▁versement	-11.7276
▁saoudite	-11.7277
▁histoires	-11.7277
▁utilitaire	-11.7277
▁comptable	-11.7278
▁ray	-11.7282
▁graine	-11.7284
▁sanctuaire	-11.7285
▁cube	-11.7286
▁96	-11.7287
▁58	-11.7288
▁suiv	-11.7289
▁paraître	-11.7292
▁exclu	-11.7294
▁university	-11.7295
▁variétés	-11.7295
clés	-11.7296
▁lave	-11.7297
aud	-11.73
▁déplacées	-11.7302
▁pragmatique	-11.7302
▁étoile	-11.7304
▁emballages	-11.731
▁graphisme	-11.7311
▁municipal	-11.7311
▁fibre	-11.7314
▁bill	-11.7314
▁nigeria	-11.7315
▁bl	-11.7325
trait	-11.7326
▁harmonieuse	-11.733
▁trouva	-11.7331
▁nutrition	-11.7333
▁bra	-11.7338
▁xxe	-11.7338
▁white	-11.7339
▁diplomatiques	-11.7345
▁assis	-11.7345
▁restreindr	-11.7345
▁fierté	-11.7347
▁charité	-11.7347
tiques	-11.7348
gg	-11.7349
▁humidité	-11.7354
▁literie	-11.7355
▁ouvrant	-11.7357
▁définisse	-11.7358
▁fausses	-11.7359
▁sim	-11.7361
▁permanents	-11.7364
▁ingénieur	-11.7365
ult	-11.7367
▁enrichir	-11.7367
▁suspens	-11.7367
▁diamètre	-11.7371
▁delta	-11.7372
▁relaxation	-11.7372
▁foyers	-11.7377
▁close	-11.7378
▁arm	-11.7381
▁descend	-11.7385
▁pénales	-11.7385
▁obliger	-11.7386
05	-11.7387
▁lauréat	-11.7387
▁barbecue	-11.7389
tive	-11.7391
▁liquides	-11.7392
▁atr	-11.7392
▁mixte	-11.7393
lc	-11.7393
▁innovateur	-11.7398
▁sid	-11.7399
▁compromettr	-11.74
len	-11.7401
én	-11.7402
▁78	-11.7403
▁consomme	-11.7405
▁sommets	-11.741
▁bretagne	-11.7416
▁tribune	-11.7426
▁vaisseau	-11.7429
,	-11.7429
mark	-11.743
▁scrutin	-11.7432
▁réclamer	-11.7432
▁préparatif	-11.7432
▁monaco	-11.7434
71	-11.7438
rm	-11.744
▁pandémie	-11.744
▁signataire	-11.744
▁singapour	-11.744
▁formules	-11.7445
▁réputée	-11.7445
▁polluant	-11.7446
▁impliquent	-11.7449
▁chauffée	-11.7452
21	-11.7452
▁moule	-11.7455
▁ea	-11.7455
▁indiens	-11.7456
▁59	-11.7457
▁prélèvement	-11.746
ifier	-11.7464
▁dragon	-11.7468
▁statu	-11.747
▁solidaire	-11.7472
▁manitoba	-11.7475
▁dor	-11.7476
▁indigènes	-11.7477
▁cacher	-11.7479
▁fortune	-11.748
▁verticale	-11.7482
▁mutation	-11.7485
▁postal	-11.7485
▁sexy	-11.7485
ore	-11.7489
cat	-11.7491
▁déc	-11.7491
▁obtienne	-11.7492
▁63	-11.7502
▁informelle	-11.7505
▁révisée	-11.7506
rat	-11.7507
55	-11.7509
▁cartouche	-11.751
nent	-11.751
▁réjoui	-11.7511
▁chère	-11.7517
▁inquiet	-11.7519
▁sommaire	-11.7519
▁internautes	-11.7521
▁préférez	-11.7522
▁éternelle	-11.7524
▁saisons	-11.7524
▁francfort	-11.7528
▁kar	-11.7532
▁préfèrent	-11.7533
▁fragile	-11.7535
▁chronique	-11.7539
▁renouveler	-11.7546
▁réalistes	-11.7547
▁ia	-11.7547
▁imparti	-11.7548
▁hebdomadaire	-11.7553
▁prestigieuse	-11.7554
▁rationnelle	-11.7558
▁suspendu	-11.7559
squelles	-11.756
▁entrent	-11.7561
▁gardé	-11.7561
▁protocoles	-11.7562
sis	-11.7562
▁timor	-11.7563
din	-11.7567
▁quotidiennes	-11.7568
mu	-11.7571
▁efforç	-11.7572
▁bétail	-11.7573
▁bit	-11.758
▁photographe	-11.758
▁antérieure	-11.7581
bat	-11.7581
▁remarquables	-11.7584
▁flexibles	-11.7585
▁condamnée	-11.7586
présidente	-11.7588
▁attribuée	-11.7589
▁abordés	-11.7589
▁comptoir	-11.7589
▁poussière	-11.7589
▁réviser	-11.7591
▁céder	-11.7592
▁sportive	-11.7599
▁interpréter	-11.7603
app	-11.7605
▁succession	-11.7607
▁airlines	-11.7607
▁vieilles	-11.7607
▁security	-11.7609
▁québécois	-11.7609
▁pesc	-11.7609
▁dénoncer	-11.7611
cra	-11.7613
▁prévisible	-11.7616
yn	-11.7616
▁référer	-11.7617
▁remet	-11.7617
▁traitant	-11.7618
▁commenter	-11.7621
▁satisfaite	-11.7621
sky	-11.7622
▁ose	-11.7622
▁organis	-11.7623
top	-11.7624
▁astuce	-11.7625
▁manifesté	-11.7628
ato	-11.7629
lio	-11.7631
▁périphérie	-11.7633
▁affection	-11.7636
▁branches	-11.7636
▁appellent	-11.7638
▁appuyé	-11.7641
▁affectation	-11.7642
▁miel	-11.7644
▁concepteur	-11.7648
▁rc	-11.765
▁divisée	-11.765
▁traçabilité	-11.7651
▁chair	-11.7654
tz	-11.7655
26	-11.7658
▁cuivre	-11.766
▁patience	-11.766
▁supprimée	-11.7661
rement	-11.7663
▁manche	-11.7664
▁ecole	-11.7664
▁sql	-11.7665
▁installez	-11.7669
▁ruines	-11.7672
▁coque	-11.7677
▁dents	-11.7678
▁déficience	-11.7678
nia	-11.768
▁probabilité	-11.7687
▁améliorant	-11.7688
▁robuste	-11.7688
▁substantiel	-11.7689
▁continents	-11.7689
tter	-11.769
▁salope	-11.7696
▁passera	-11.7696
und	-11.7696
ali	-11.7697
▁étudie	-11.7697
ku	-11.7704
▁diesel	-11.7705
▁dégustation	-11.7705
▁facette	-11.7707
▁utilisable	-11.771
ika	-11.7711
▁magnétique	-11.7713
▁prévoie	-11.7715
▁salade	-11.7717
▁brillant	-11.7717
▁servis	-11.7719
▁retraités	-11.772
mas	-11.7722
▁supermarché	-11.7722
▁adhérent	-11.7723
voir	-11.7724
▁inquiétant	-11.7725
aître	-11.7727
▁conteneur	-11.7731
▁requière	-11.7731
▁dépression	-11.7731
▁modernité	-11.7732
▁recette	-11.7735
▁stages	-11.7739
▁restitution	-11.774
▁triomphe	-11.7749
▁darfour	-11.7749
▁attrait	-11.775
▁nicolas	-11.7754
▁gigantesque	-11.7758
▁1960	-11.776
▁résume	-11.7762
▁prévoyant	-11.7763
▁malade	-11.7764
▁perde	-11.7767
▁prétendr	-11.7767
del	-11.7767
▁origines	-11.7769
▁paniers	-11.777
▁arriva	-11.7771
aq	-11.7773
▁aliment	-11.7774
▁économistes	-11.7775
▁effacer	-11.7775
▁faq	-11.7775
▁confrontation	-11.7776
▁baroque	-11.7776
▁maïs	-11.7777
▁déroulée	-11.7779
▁cellule	-11.7781
▁age	-11.7785
▁christian	-11.7785
▁dormir	-11.7786
▁reflet	-11.7787
▁disparités	-11.7788
isés	-11.7791
▁circule	-11.7791
▁adam	-11.7793
▁caution	-11.7794
▁librairie	-11.7794
▁vtt	-11.7795
▁questionnaire	-11.7796
▁respectueu	-11.7796
omb	-11.7797
▁désolé	-11.7798
▁balle	-11.7801
▁carrefour	-11.7803
▁successeur	-11.7803
▁egypte	-11.7804
▁wall	-11.7809
▁voul	-11.7812
▁immo	-11.7814
▁trompeuse	-11.7815
▁brosse	-11.7823
▁estonie	-11.7823
▁nationaliste	-11.7827
▁additif	-11.783
▁marseille	-11.783
▁bannière	-11.7831
▁bor	-11.7831
▁fumée	-11.7835
▁josé	-11.7835
▁procéd	-11.7837
▁déloyale	-11.7839
▁éventualité	-11.7839
▁1984	-11.784
▁nettoyer	-11.784
▁ukrainien	-11.7844
▁latin	-11.7847
▁intelligent	-11.7848
lib	-11.7848
▁dumping	-11.7853
▁ambiguïté	-11.7857
▁ridicule	-11.7857
▁craindre	-11.7857
▁demandée	-11.7857
▁adressées	-11.7864
▁mt	-11.7864
▁enrichi	-11.7865
▁migratoire	-11.7866
▁aviez	-11.7868
▁osce	-11.7871
▁circuler	-11.7872
▁tube	-11.7874
▁équivoque	-11.7875
▁qualifier	-11.7876
▁pérou	-11.7876
▁négligeable	-11.7877
▁philippe	-11.7877
▁détenue	-11.7878
ero	-11.788
ible	-11.7884
▁inspirée	-11.7884
▁laitiers	-11.7886
▁ivoire	-11.7886
▁combats	-11.7887
▁illimité	-11.7887
▁publicitaire	-11.7892
▁contour	-11.7893
▁danube	-11.7893
▁généralisée	-11.7899
uvre	-11.7899
▁appelant	-11.79
▁invasion	-11.7903
36	-11.7906
▁regret	-11.7907
▁ul	-11.791
▁condamne	-11.791
▁représentante	-11.7911
▁grecs	-11.7914
▁bactéries	-11.7915
č	-11.7916
▁problématiques	-11.7916
▁minimiser	-11.7919
▁get	-11.7919
▁slovaque	-11.7921
▁ultrapériphéri	-11.7921
elli	-11.7921
▁saut	-11.7921
▁macroéconomique	-11.7923
▁électoral	-11.7926
▁expérimentation	-11.793
▁word	-11.7932
▁oreille	-11.7934
▁aggraver	-11.7934
▁grc	-11.7935
▁juan	-11.7936
▁ravie	-11.7936
▁vitesses	-11.7941
▁miracle	-11.7942
▁scan	-11.7945
▁reviendrai	-11.7945
▁sale	-11.7947
▁fournisson	-11.7947
▁vôtre	-11.7948
ical	-11.7948
ú	-11.795
▁chapelle	-11.7952
tan	-11.7953
▁vot	-11.7955
▁monti	-11.7956
pot	-11.7957
▁log	-11.7963
▁alpin	-11.7965
▁invisible	-11.7966
▁gloire	-11.7967
▁smart	-11.7969
▁excel	-11.7971
▁fu	-11.7975
▁réhabilitation	-11.7976
▁végétation	-11.7976
lette	-11.7983
▁agro	-11.7983
gh	-11.7985
▁back	-11.7991
▁parlez	-11.7992
▁innovatrice	-11.7994
▁multilingue	-11.7994
▁domination	-11.7994
▁croître	-11.7994
▁1979	-11.7995
▁médiation	-11.7995
ug	-11.8003
heim	-11.8006
▁certifié	-11.8008
▁suggérer	-11.8011
haus	-11.8011
▁francisco	-11.8013
▁importateur	-11.8014
▁réalisateur	-11.8014
▁adjoint	-11.8016
▁paysan	-11.802
▁configuré	-11.8022
▁augmentant	-11.8024
lot	-11.8026
▁organisateurs	-11.803
▁indéniable	-11.8031
▁concilier	-11.8033
▁franchir	-11.8033
▁protectionnisme	-11.8033
▁quotidiens	-11.8035
▁li	-11.8037
▁interroger	-11.8037
▁trouvait	-11.8038
▁pédestre	-11.804
▁disciplines	-11.8043
▁impunit	-11.8045
▁rivières	-11.8045
▁dépendra	-11.8054
▁connecteur	-11.8055
▁logos	-11.8057
▁souffert	-11.8058
▁progressif	-11.8059
▁reflex	-11.8059
▁abordables	-11.806
▁passif	-11.8061
▁water	-11.8066
▁locataire	-11.8068
▁verdure	-11.8068
▁thèse	-11.8068
▁tasse	-11.8072
▁rapporte	-11.8074
▁longs	-11.8075
▁austérité	-11.8075
▁blanchiment	-11.8075
▁spécifié	-11.8076
▁plantation	-11.8077
▁vœu	-11.8077
vel	-11.8077
▁innocent	-11.8078
▁unitaire	-11.8079
pu	-11.8085
▁soutenant	-11.8086
▁slideshow	-11.8095
▁bé	-11.8096
▁ramener	-11.8097
▁animales	-11.8099
▁57	-11.8103
▁moratoire	-11.8105
ther	-11.8107
▁promet	-11.8111
▁loisir	-11.8112
▁rh	-11.8113
▁balnéaire	-11.8114
▁renommé	-11.8118
▁souscrire	-11.8119
lit	-11.812
▁spécifier	-11.8123
▁vaisselle	-11.8123
▁echo	-11.8124
ative	-11.8124
rier	-11.8124
▁sembler	-11.8124
▁papiers	-11.8125
ram	-11.8125
▁remplie	-11.8128
▁revendications	-11.813
▁harcèlement	-11.8133
▁croyez	-11.8133
▁agira	-11.8136
bé	-11.8143
▁chaos	-11.8143
▁viser	-11.8146
▁cessez	-11.8147
▁amusant	-11.8147
▁125	-11.8149
án	-11.8151
▁hat	-11.8152
▁look	-11.8152
▁sea	-11.8153
▁coopérative	-11.8156
▁relaxer	-11.8156
▁inconvénients	-11.816
▁naples	-11.8161
▁cireur	-11.8161
▁téléphoniques	-11.8163
▁rou	-11.8166
osa	-11.8167
▁popularité	-11.817
dd	-11.8175
▁fidélité	-11.8179
▁smith	-11.8182
▁recouvrement	-11.8183
▁têtes	-11.8188
▁paypal	-11.8189
▁élimine	-11.819
▁buts	-11.8198
▁82	-11.8199
lay	-11.82
▁toscane	-11.8202
▁excursion	-11.8204
pol	-11.8204
▁controverse	-11.8207
ât	-11.821
▁reader	-11.821
▁niché	-11.8215
▁demandeur	-11.8221
▁promo	-11.8222
ault	-11.8223
▁plaide	-11.8223
▁systems	-11.8225
▁garçons	-11.8228
▁casse	-11.823
sel	-11.823
▁éternel	-11.8231
▁campanile	-11.8235
mod	-11.8237
dos	-11.8238
▁vir	-11.8239
▁william	-11.8245
▁ref	-11.8247
▁acceptables	-11.8247
▁thi	-11.8247
▁perfection	-11.825
▁attendue	-11.825
▁observée	-11.8253
▁désarmement	-11.8254
▁artisans	-11.8255
▁south	-11.8256
ert	-11.8257
▁77	-11.8259
venez	-11.826
▁pneus	-11.8263
▁compression	-11.8264
▁fossiles	-11.8266
▁pomme	-11.8267
▁primordiale	-11.8268
atoire	-11.8268
ora	-11.8271
34	-11.8272
▁interrompue	-11.8272
▁décidée	-11.8274
▁désignée	-11.8277
▁décline	-11.8281
uf	-11.8281
▁constructeur	-11.8281
▁general	-11.8283
▁craign	-11.8284
▁meure	-11.8285
ich	-11.8285
▁bible	-11.8286
▁débouché	-11.8292
▁gmbh	-11.8292
▁semence	-11.8292
▁activation	-11.8292
▁pénalité	-11.8293
▁nouveauté	-11.8294
▁dominant	-11.8297
▁acquitter	-11.8299
tt	-11.83
▁décerné	-11.83
▁coordinateur	-11.8302
▁relief	-11.8304
▁francophones	-11.8307
rais	-11.8307
▁bronze	-11.8307
▁assiette	-11.8311
▁sympathie	-11.8311
thé	-11.8312
▁major	-11.8313
88	-11.8313
isées	-11.8318
▁manuellement	-11.832
▁compare	-11.832
▁hypothèque	-11.832
▁curieux	-11.8321
▁résidant	-11.8323
▁déni	-11.8324
▁obtiendr	-11.8328
▁holiday	-11.833
▁tru	-11.8337
▁homologue	-11.834
rice	-11.834
▁plugin	-11.834
▁réalis	-11.8342
▁consultée	-11.8342
dorf	-11.8344
▁interprété	-11.8345
▁risqu	-11.8348
▁revues	-11.8348
▁sd	-11.8348
▁mourir	-11.8349
parole	-11.8351
▁marqués	-11.8351
▁ken	-11.8354
▁situ	-11.8357
▁chf	-11.8357
▁répétition	-11.8359
▁exclusivité	-11.8359
▁levier	-11.8359
▁théâtres	-11.8359
▁pra	-11.836
▁urbains	-11.8362
99	-11.8363
▁nam	-11.8364
▁aqua	-11.8367
▁unix	-11.8368
▁applaudissement	-11.8368
▁incomparable	-11.8368
▁schulz	-11.8368
▁remplacée	-11.837
▁east	-11.8371
▁rejoigne	-11.8371
▁oh	-11.8372
▁renvoyé	-11.8373
▁touch	-11.8374
▁hôtelier	-11.8378
▁parvenue	-11.8378
▁démantèlement	-11.8379
▁lin	-11.8382
▁carnet	-11.8385
▁gl	-11.8392
▁education	-11.8397
iva	-11.8398
▁bijoux	-11.8398
ôt	-11.8399
▁côtières	-11.8401
▁sénat	-11.8404
▁fun	-11.8407
=	-11.8407
rée	-11.8408
▁hill	-11.8408
▁postaux	-11.8412
▁forfaits	-11.8414
▁champagne	-11.8416
▁intégrant	-11.8417
–	-11.8418
-2	-11.8419
▁europa	-11.8421
▁metal	-11.8422
▁hussein	-11.8425
▁mobilières	-11.8425
▁réciproque	-11.8428
▁inspirer	-11.8428
▁ins	-11.8432
▁ter	-11.8433
▁continueron	-11.8434
▁vedette	-11.8435
▁contrepartie	-11.8435
ction	-11.8436
▁psychologique	-11.8437
vers	-11.8442
ous	-11.8442
info	-11.8453
▁box	-11.8454
▁nobel	-11.8455
▁achèvement	-11.8455
rès	-11.8456
▁88	-11.8457
ish	-11.8463
▁moderniser	-11.8464
▁score	-11.8466
▁fraîcheur	-11.8466
▁inégalité	-11.8467
▁distant	-11.8469
96	-11.847
▁aléatoire	-11.8473
▁révélation	-11.8474
▁patten	-11.8476
▁antique	-11.8477
▁répété	-11.848
▁vives	-11.8481
▁éradication	-11.8483
▁chirurgie	-11.8488
▁mani	-11.849
▁personnalisées	-11.8491
▁cambodge	-11.8493
▁zurich	-11.8493
▁havre	-11.8493
cevoir	-11.8493
lli	-11.8494
▁soupe	-11.8498
pl	-11.8502
irent	-11.8502
▁octroyé	-11.8503
▁bananes	-11.8505
▁minéra	-11.8507
▁dam	-11.851
▁biélorussie	-11.8512
▁améliorent	-11.8512
▁cré	-11.8515
▁terrestres	-11.8515
▁excessif	-11.8516
▁travailleur	-11.8516
▁réglée	-11.8518
▁liquidités	-11.8518
oma	-11.852
▁déception	-11.8522
▁succursale	-11.8522
/2009	-11.8522
tendent	-11.8527
▁nommer	-11.853
▁affaiblir	-11.8531
mel	-11.8534
▁accroît	-11.8534
ues	-11.8537
▁fumer	-11.8546
bc	-11.8547
▁bombe	-11.855
▁académique	-11.8551
▁liaisons	-11.8553
▁lettonie	-11.8554
▁surcroît	-11.856
▁renforçant	-11.8561
▁contribuant	-11.8562
▁79	-11.8563
▁rotarien	-11.8564
▁payée	-11.8568
▁techno	-11.8569
▁authenticité	-11.857
▁entrepôt	-11.857
200	-11.8571
▁export	-11.8572
▁indi	-11.8576
graph	-11.8576
▁sanction	-11.8576
▁réclamation	-11.8576
▁boite	-11.8577
bourg	-11.8577
▁propagande	-11.858
▁spectaculaires	-11.858
▁adapte	-11.8582
▁adéquats	-11.8582
pos	-11.8583
▁occupés	-11.8584
▁rassemblé	-11.8586
▁you	-11.8586
▁bro	-11.8586
▁67	-11.8589
▁continuez	-11.859
▁collation	-11.859
27	-11.8596
▁postale	-11.8597
nier	-11.8597
▁taiwan	-11.8599
▁marquage	-11.86
▁balise	-11.86
▁opter	-11.8601
▁enchères	-11.8604
▁transeuropéens	-11.8605
▁sky	-11.8607
▁adopt	-11.8607
▁hot	-11.8608
▁dioxyde	-11.8619
▁ajuster	-11.8624
77	-11.8625
▁nordique	-11.8625
▁gothique	-11.8629
▁piétonne	-11.8629
85	-11.863
▁suffisants	-11.8632
fort	-11.8633
non	-11.8634
▁nor	-11.8634
▁suisses	-11.8635
▁71	-11.8637
▁inadmissible	-11.8638
▁restrictive	-11.8638
▁apprenez	-11.865
▁times	-11.8651
lat	-11.8651
▁débarrasser	-11.8652
▁xi	-11.8654
▁ceinture	-11.8658
▁bienfaits	-11.8658
▁amont	-11.8661
▁bénévole	-11.8666
▁introduite	-11.8666
▁choice	-11.8668
▁artisanat	-11.8668
▁séjourne	-11.8669
▁gre	-11.8669
sie	-11.8673
▁révisé	-11.8673
▁ira	-11.8673
▁jack	-11.8674
cour	-11.8676
▁eiffel	-11.8678
▁généreux	-11.8678
▁désactiver	-11.8678
▁poussée	-11.8679
paul	-11.8681
▁régi	-11.8683
31	-11.8685
yl	-11.8685
▁réexamen	-11.8687
▁significatifs	-11.8688
▁easy	-11.8688
▁conven	-11.869
▁surveille	-11.869
pre	-11.8693
▁icônes	-11.8695
▁92	-11.8695
▁impérative	-11.8697
▁emplacements	-11.8697
▁manqué	-11.8699
▁constituant	-11.87
▁affaibli	-11.8706
▁transmise	-11.8706
▁délinquant	-11.8706
▁incompatible	-11.8707
▁yukon	-11.8707
▁exposant	-11.8708
▁analyste	-11.871
▁cascade	-11.8711
▁sus	-11.8711
▁criminel	-11.8714
▁bienfaisance	-11.8717
▁spock	-11.8717
▁contractuelle	-11.8719
▁mad	-11.872
▁envoy	-11.872
▁dépose	-11.872
▁laver	-11.8721
▁imprimée	-11.8727
▁barrage	-11.8729
▁concurrentielle	-11.8732
▁conteste	-11.8733
▁bénéficiaire	-11.8737
▁donneur	-11.8739
▁aisé	-11.8739
die	-11.8742
▁échappe	-11.8743
44	-11.8744
.8	-11.8748
ères	-11.8754
▁cris	-11.8756
▁mg	-11.876
▁93	-11.876
▁disproportionné	-11.8761
▁gro	-11.8762
▁scanner	-11.8762
▁mince	-11.8765
▁wordpress	-11.8767
28	-11.8767
▁engendrer	-11.8767
▁geo	-11.8768
▁installateur	-11.8777
▁pub	-11.8777
▁navigateurs	-11.8781
▁portion	-11.8782
▁repère	-11.8782
▁ignoré	-11.8782
▁spectateurs	-11.8785
▁slogan	-11.8786
table	-11.8787
lar	-11.8788
▁bernard	-11.879
▁exécutions	-11.8791
▁aménagé	-11.8794
▁autoroutes	-11.8795
▁assainissement	-11.8796
▁rã	-11.8799
▁additionnels	-11.88
33	-11.8803
▁respectives	-11.8807
▁détenu	-11.8808
▁coloré	-11.8809
▁97	-11.8812
▁irresponsable	-11.8816
▁transformée	-11.8818
▁senti	-11.882
04	-11.8822
▁cross	-11.8822
▁simplifiée	-11.8829
▁cologne	-11.8836
▁falaise	-11.8836
▁tribu	-11.8838
▁forestier	-11.8839
▁précédé	-11.8841
cor	-11.8844
▁passager	-11.8844
▁préservé	-11.8844
card	-11.8845
▁soutiendra	-11.8846
▁durer	-11.8846
▁armement	-11.8847
▁facebook	-11.8848
▁road	-11.8849
▁peser	-11.885
▁exclusifs	-11.8854
▁1982	-11.8857
.7	-11.8857
▁dotation	-11.8857
▁rumeur	-11.8859
▁porc	-11.8862
▁relax	-11.8863
▁revienne	-11.8864
▁stocké	-11.8866
0.000	-11.8878
▁livrée	-11.8892
▁plates	-11.8894
▁iranienne	-11.8895
▁créations	-11.8898
▁enseigner	-11.8898
▁éclairé	-11.8899
▁ratio	-11.8902
▁blé	-11.8903
▁quoiqu	-11.8904
▁pique	-11.8904
▁éradiquer	-11.8906
▁mec	-11.8908
▁criminelles	-11.8912
▁excuse	-11.8914
▁balade	-11.8915
▁énoncée	-11.8916
▁météo	-11.8916
ète	-11.8917
▁éolienne	-11.8918
▁comté	-11.8918
▁solana	-11.8919
▁déçu	-11.8919
▁hybride	-11.8919
▁proportionnelle	-11.8926
▁vestige	-11.8926
ning	-11.893
▁francophone	-11.8931
▁déménagement	-11.8934
▁aigu	-11.8935
▁légendaire	-11.8937
▁chêne	-11.8937
,50	-11.8939
▁éclat	-11.8941
▁structuré	-11.8941
▁zu	-11.8943
▁flamme	-11.8943
▁cala	-11.8944
▁désireux	-11.8949
▁campus	-11.8951
▁traducteurs	-11.8952
▁productive	-11.8953
▁peint	-11.8955
▁pratiqué	-11.8958
▁roue	-11.896
▁commandant	-11.8962
▁bilatérales	-11.8971
▁navale	-11.8974
▁efficience	-11.8977
▁maternité	-11.8977
▁cigarettes	-11.8978
▁extrémistes	-11.8978
:3	-11.8981
37	-11.8983
▁alimenter	-11.8984
▁violent	-11.8985
(1	-11.8985
▁clarification	-11.8987
▁scénarios	-11.8987
▁bâti	-11.8988
▁otage	-11.899
emblée	-11.899
▁conventionnelle	-11.899
ttent	-11.8992
▁flèche	-11.8993
▁créative	-11.8994
▁appréci	-11.8994
kk	-11.8996
▁caucase	-11.8997
pt	-11.8998
▁déroulé	-11.9
▁interroge	-11.9
▁divulguer	-11.9005
▁conditionnement	-11.9006
▁sénégal	-11.9008
▁engendré	-11.9011
▁élabore	-11.9011
ky	-11.9012
▁somalie	-11.9015
lor	-11.9016
▁ashto	-11.9017
▁antérieur	-11.9021
▁sains	-11.9021
▁reportez	-11.9027
▁bla	-11.9028
▁prototype	-11.9028
▁arène	-11.9028
▁tolérer	-11.9029
▁thérapie	-11.9029
▁distances	-11.9032
▁moindres	-11.9033
▁mr	-11.9035
▁entendent	-11.9036
aga	-11.9037
▁convenable	-11.9039
▁dégagé	-11.904
▁louable	-11.904
▁retarder	-11.9041
▁suffisent	-11.9041
46	-11.9046
▁discute	-11.9046
mit	-11.9047
▁accusés	-11.9048
▁météorologique	-11.9048
▁pari	-11.9048
▁branché	-11.9052
▁algorithme	-11.9055
▁préventive	-11.9056
49	-11.9058
▁antibiotique	-11.9058
▁domine	-11.9061
sur	-11.9061
▁résumer	-11.9065
▁vigoureuse	-11.9069
duc	-11.9077
▁critiqué	-11.9078
▁horizontale	-11.9078
▁postsecondaire	-11.9079
▁indirecte	-11.908
▁immobilières	-11.9082
▁dégust	-11.9082
▁évaluée	-11.9082
▁bovine	-11.9083
▁souterraine	-11.9084
ura	-11.9084
▁commodités	-11.9085
ken	-11.9087
▁féminin	-11.9087
▁comitologie	-11.9089
▁obsolète	-11.9089
▁fleur	-11.9094
▁littérale	-11.9094
▁introduites	-11.9097
▁mauritanie	-11.9099
▁emporte	-11.9101
▁robe	-11.9102
▁lier	-11.9103
59	-11.9103
▁light	-11.9107
▁call	-11.9107
▁sta	-11.9108
▁délocalisation	-11.9109
▁légiférer	-11.911
▁vocale	-11.911
ase	-11.9111
▁pareil	-11.9113
▁ventilateur	-11.912
▁accède	-11.912
▁formalité	-11.912
▁édifices	-11.9124
▁châss	-11.9125
▁étudiante	-11.9127
▁occupée	-11.9127
▁bloque	-11.9128
▁sienne	-11.9128
▁finlandaise	-11.9129
▁générique	-11.913
▁défaite	-11.9137
▁méditerranéens	-11.9138
▁sinistre	-11.914
▁sou	-11.9141
▁69	-11.9141
▁kra	-11.9141
▁bob	-11.9144
dre	-11.9144
▁gérant	-11.9145
▁dessert	-11.9149
▁réglementée	-11.9153
▁vigne	-11.9153
▁dan	-11.9154
▁péri	-11.9155
▁horloge	-11.9158
▁vulnérable	-11.9161
▁key	-11.9163
ves	-11.9166
▁souverain	-11.9169
▁enthousiaste	-11.9171
▁esclave	-11.9171
▁tas	-11.9176
▁74	-11.9177
▁établisse	-11.9179
▁pharmacie	-11.918
▁ana	-11.9184
▁menés	-11.9187
▁collectives	-11.9187
▁belges	-11.9189
▁perturbation	-11.9192
▁guy	-11.9193
▁laval	-11.9197
▁achetés	-11.9197
via	-11.9197
▁expresse	-11.9206
▁ensoleillée	-11.9208
▁oreilles	-11.9212
▁affrontement	-11.9213
oul	-11.9214
▁réserv	-11.9218
▁reconnais	-11.9219
▁kim	-11.9223
38	-11.9225
▁based	-11.9229
avi	-11.9232
▁doive	-11.9234
nom	-11.9235
▁panel	-11.9235
▁souven	-11.9235
▁extrémité	-11.9235
▁fermeté	-11.9237
ova	-11.9238
▁bin	-11.9239
▁statique	-11.9239
▁financements	-11.9243
▁défaillance	-11.9244
▁ml	-11.9245
▁compton	-11.9246
▁cad	-11.9246
▁rénovée	-11.9247
š	-11.9248
▁verheugen	-11.9254
▁négligence	-11.9254
▁dép	-11.9256
quer	-11.9259
▁simon	-11.9261
▁ours	-11.9264
▁dictionnaire	-11.9265
▁billard	-11.9266
▁escale	-11.9266
▁dresser	-11.9267
▁distribuée	-11.9267
▁originalité	-11.9267
▁antérieures	-11.9272
▁pile	-11.9273
▁menacés	-11.9274
▁maturité	-11.9275
▁lumineuses	-11.9275
▁substitution	-11.9277
▁bonjour	-11.9277
▁carré	-11.9278
02	-11.9278
▁tailles	-11.9279
▁souterrain	-11.928
ome	-11.928
▁conduise	-11.9281
▁finit	-11.9282
▁tournez	-11.9284
▁nécessitant	-11.9287
▁af	-11.9287
▁audiovisuel	-11.9289
▁ftp	-11.929
▁colonies	-11.929
48	-11.9291
▁administré	-11.9296
▁discret	-11.9296
▁testé	-11.9297
▁calque	-11.9299
bra	-11.9299
▁apte	-11.93
▁folle	-11.9302
lage	-11.9305
▁sar	-11.9306
47	-11.9308
▁ind	-11.9308
▁arrangement	-11.9308
▁engageons	-11.9311
▁électro	-11.9311
▁mel	-11.9312
▁gardez	-11.9313
▁rapporté	-11.9316
ondes	-11.9317
▁apportés	-11.9317
▁inoubliables	-11.9318
reg	-11.9327
ound	-11.9328
▁prolifération	-11.933
▁pairs	-11.9331
▁encadrement	-11.9332
▁remporte	-11.9332
▁coopératives	-11.9333
▁logicielle	-11.9333
▁réveil	-11.9333
▁séparer	-11.9337
▁athènes	-11.9338
▁enlevé	-11.9339
▁industrialisés	-11.934
08	-11.9341
▁blu	-11.9341
▁violents	-11.9342
gy	-11.9346
▁impossibilité	-11.9348
▁firme	-11.9353
▁travailliste	-11.9354
▁ballon	-11.9354
▁european	-11.9355
eme	-11.9358
▁poursuiv	-11.9359
▁coupé	-11.936
▁attaquant	-11.9361
esse	-11.9361
▁band	-11.9364
isse	-11.9366
▁présumé	-11.9366
▁préoccupés	-11.9367
▁provoquée	-11.9369
▁angulaire	-11.9369
▁modifiant	-11.9371
▁ngl	-11.9373
fc	-11.9376
61	-11.9376
▁franchi	-11.9378
▁apr	-11.9382
ologique	-11.9384
▁apparue	-11.9386
▁intimidation	-11.939
vais	-11.9391
▁coordonné	-11.9391
▁stabiliser	-11.9391
▁remboursé	-11.9393
▁identifiée	-11.9399
▁dépassement	-11.94
▁prolongation	-11.9401
▁homogène	-11.9401
▁curseur	-11.9401
▁poète	-11.9401
▁ama	-11.9402
▁classés	-11.9406
▁prés	-11.9406
▁ministérielle	-11.9407
ati	-11.9409
▁sand	-11.941
▁pyrénées	-11.9412
▁slovène	-11.9412
iana	-11.9414
▁emb	-11.9415
lation	-11.9416
▁déten	-11.9417
▁forestiers	-11.942
▁renseigne	-11.942
▁ravis	-11.9421
▁agrément	-11.9422
authentification	-11.9422
▁revers	-11.9425
▁engin	-11.943
▁sir	-11.9431
ska	-11.9432
▁gentillesse	-11.9433
▁ruban	-11.9434
▁éti	-11.9435
▁cuire	-11.9436
▁malaisie	-11.9437
▁palm	-11.9437
▁prudent	-11.9439
gl	-11.944
▁vrais	-11.944
▁avérée	-11.9442
▁autonomes	-11.9443
▁paludisme	-11.9443
lière	-11.9444
tend	-11.9446
▁amp	-11.9447
▁peintre	-11.9447
nées	-11.9447
[	-11.9448
▁masculin	-11.945
▁ouvrables	-11.9451
▁hy	-11.9451
▁149	-11.9454
100	-11.9456
▁tarder	-11.9458
▁islande	-11.9459
▁légende	-11.9462
▁débuts	-11.9463
▁arbitrage	-11.9465
▁caoutchouc	-11.9465
▁pénétrer	-11.9466
▁parquet	-11.9468
▁project	-11.9469
▁perpétré	-11.9469
▁ext	-11.947
▁réglementé	-11.9471
▁impeccable	-11.9475
▁défavorisées	-11.9476
▁révélée	-11.9478
▁herbes	-11.9481
▁formel	-11.9485
▁retombée	-11.9486
canada	-11.9491
▁rapproche	-11.9494
▁reçue	-11.9494
▁souviens	-11.9494
▁maximiser	-11.9496
▁délivrance	-11.9497
ão	-11.9497
▁raisin	-11.9499
▁infos	-11.9502
▁vain	-11.9504
▁défavorable	-11.9507
▁précaire	-11.9507
▁stockée	-11.9508
▁acrobat	-11.951
▁tit	-11.9511
tée	-11.9515
▁photographique	-11.9518
▁humeur	-11.9519
/2000	-11.952
▁répandu	-11.9522
].	-11.9522
respect	-11.9523
tc	-11.9523
ev	-11.9524
▁institute	-11.9526
mir	-11.9526
▁notable	-11.9528
▁fluctuation	-11.9529
▁jeté	-11.9531
ches	-11.9536
▁classic	-11.9537
▁philippines	-11.9541
▁danoise	-11.9544
marin	-11.9546
bor	-11.9551
adi	-11.9552
▁bot	-11.9552
76	-11.9556
'"	-11.9558
▁vatican	-11.9561
▁minutieuse	-11.9561
▁positionnement	-11.9563
▁neufs	-11.9563
▁prêtres	-11.9564
▁mb	-11.9565
gui	-11.9566
▁terreur	-11.9567
lic	-11.9568
▁extraordinaires	-11.957
▁cristal	-11.9576
▁gagnez	-11.9576
▁grains	-11.9577
▁irakien	-11.9578
▁nar	-11.9582
▁lounge	-11.9582
▁autrui	-11.9582
▁1981	-11.9583
▁frontaliers	-11.9584
▁allure	-11.9586
bri	-11.9587
▁créature	-11.9594
▁penche	-11.9596
fin	-11.9598
tain	-11.96
▁annexes	-11.9601
▁fabriquée	-11.9601
▁carence	-11.9602
suivent	-11.9603
▁menacé	-11.9603
▁arrivant	-11.9604
ted	-11.9607
rage	-11.9611
▁3.0	-11.9611
▁gnome	-11.9615
▁louvre	-11.9615
▁exigeants	-11.9615
▁récompenses	-11.9615
▁pétition	-11.9616
ord	-11.9617
▁profité	-11.9618
▁transporté	-11.9619
exe	-11.9622
▁digitale	-11.9626
▁finlandais	-11.9626
▁trouble	-11.9628
▁écrivain	-11.9629
▁intégral	-11.9631
élé	-11.9638
tl	-11.964
41	-11.9641
▁délits	-11.9642
▁initié	-11.9644
▁samsung	-11.9647
▁absorption	-11.9647
▁volaille	-11.9648
▁lanka	-11.9648
/2001	-11.9651
▁admet	-11.9656
feld	-11.9659
ergue	-11.9659
▁combattants	-11.966
wood	-11.966
dor	-11.9662
▁graduelle	-11.9662
▁allée	-11.9663
▁rod	-11.9665
▁contraignante	-11.9665
▁nbsp	-11.9667
▁prescrit	-11.9667
▁bizarre	-11.9669
▁endettement	-11.967
▁évita	-11.9671
▁députée	-11.9671
▁signatures	-11.9675
▁honorer	-11.9675
▁craigne	-11.9678
dir	-11.9682
▁robots	-11.9682
/2008	-11.9682
▁soutiendron	-11.9688
▁restauré	-11.9688
var	-11.9689
▁démographiques	-11.9694
illé	-11.9695
▁pel	-11.9695
▁wo	-11.9697
▁rôles	-11.9697
▁gh	-11.9699
sseoir	-11.9702
èle	-11.9708
▁témoigner	-11.9709
ox	-11.9709
▁venezuela	-11.9712
▁pol	-11.9713
▁transparentes	-11.9713
▁générée	-11.9718
▁retrouvé	-11.9718
▁morte	-11.972
économiques	-11.9721
▁catholiques	-11.9721
▁démission	-11.9723
▁magazines	-11.9723
▁étroites	-11.9723
dl	-11.9724
▁famine	-11.9724
▁nationalisme	-11.9725
▁entraînant	-11.9727
▁méga	-11.9728
▁prolongé	-11.9731
▁savour	-11.9731
tine	-11.9732
▁horreur	-11.9734
▁jurisprudence	-11.9734
▁tiendron	-11.9734
▁hâte	-11.9734
▁souscrit	-11.9735
aka	-11.9735
tres	-11.9736
▁roulant	-11.9736
63	-11.9736
▁yougoslavie	-11.9737
▁désiré	-11.9738
▁harmonisée	-11.9742
▁uv	-11.9743
▁roy	-11.9744
▁accompagnent	-11.9744
interopérabilité	-11.9745
▁cardiaque	-11.9745
▁gay	-11.9747
▁contente	-11.9748
▁demandera	-11.9748
▁frank	-11.975
▁baccalauréat	-11.9756
▁manhattan	-11.9756
▁patrick	-11.9756
éro	-11.9757
▁radical	-11.9758
94	-11.9759
issement	-11.976
▁préliminaire	-11.976
▁territoriales	-11.9761
▁musulman	-11.9762
iro	-11.9763
iz	-11.9763
▁cuit	-11.9767
▁61	-11.9769
▁trompe	-11.9776
▁fonte	-11.9776
▁utilitaires	-11.9777
▁colloque	-11.9778
▁créancier	-11.9778
kan	-11.9778
▁vietnam	-11.9785
▁critiquer	-11.9785
▁aiguille	-11.9788
▁od	-11.9788
▁expriment	-11.9788
▁cofinancement	-11.9789
▁détruite	-11.9789
▁jambes	-11.9796
▁contraception	-11.98
▁entourant	-11.98
▁papa	-11.9807
▁poster	-11.9808
file	-11.981
▁foundation	-11.9811
page	-11.9811
inger	-11.9812
▁brand	-11.9812
oire	-11.982
▁poursuivra	-11.9821
▁rangs	-11.9821
▁entrepreneur	-11.9821
▁accumulation	-11.9822
▁fischler	-11.9822
chemin	-11.9823
▁fassi	-11.9825
trans	-11.9828
▁att	-11.9828
field	-11.9829
▁structurel	-11.983
▁rhin	-11.9831
▁indicatif	-11.9833
iné	-11.9836
▁conduis	-11.9837
▁pé	-11.9838
▁tempête	-11.9839
▁voyant	-11.9841
▁entraver	-11.9843
▁vendeurs	-11.9843
▁pluralisme	-11.9844
▁tracé	-11.9845
sept	-11.9847
▁consolidé	-11.9848
▁premium	-11.9855
▁diff	-11.9859
▁raisonnement	-11.9859
cinq	-11.9862
▁répondra	-11.9865
oll	-11.9865
book	-11.9866
uni	-11.9869
nk	-11.987
▁limited	-11.9873
▁commandé	-11.9875
▁jette	-11.9879
chen	-11.988
▁réalisme	-11.9881
▁barres	-11.9884
▁engrais	-11.9884
▁contribuable	-11.9885
▁annuelles	-11.9888
alisation	-11.9888
ç	-11.9892
▁mil	-11.9894
▁extrair	-11.9896
▁cotisation	-11.9896
▁milles	-11.9897
▁accréditation	-11.9899
▁raffinement	-11.9899
▁xénophobie	-11.9899
▁esp	-11.99
▁remporter	-11.99
▁frontex	-11.99
▁bloqué	-11.9905
▁fra	-11.9906
83	-11.9908
▁package	-11.991
▁confédération	-11.991
▁géopolitique	-11.991
▁1.0	-11.991
▁cosmétiques	-11.991
▁préjudiciable	-11.9911
▁plastiques	-11.9912
▁adversaire	-11.9919
.9	-11.992
▁1,2	-11.9928
▁messe	-11.9931
▁pos	-11.9931
▁albert	-11.9932
▁glacier	-11.9933
cro	-11.9934
▁link	-11.9936
▁déf	-11.9938
▁baise	-11.9939
87	-11.9939
▁exigée	-11.9943
▁nier	-11.9944
▁vitrine	-11.9944
▁fraction	-11.9944
enne	-11.9944
▁vingtaine	-11.9944
▁légalité	-11.9945
▁kor	-11.9947
▁pad	-11.9948
▁menacée	-11.9948
▁oppos	-11.9949
▁séparées	-11.9951
▁avi	-11.9953
▁prion	-11.9955
▁développ	-11.9955
▁écrits	-11.9956
▁ralenti	-11.9957
▁multilatéral	-11.9958
▁treiz	-11.9959
▁divine	-11.9961
▁santer	-11.9961
éra	-11.9963
▁md	-11.9964
▁licencié	-11.9966
▁sérénité	-11.9966
▁circulaire	-11.9967
▁agissement	-11.9969
▁soft	-11.9971
▁bienvenu	-11.9972
dar	-11.9973
▁détour	-11.9974
▁préoccupante	-11.9974
stra	-11.9974
▁récompensé	-11.9976
▁vignes	-11.9977
▁doctorat	-11.9977
▁valence	-11.9978
▁affiliée	-11.9979
▁particip	-11.998
▁manipuler	-11.9983
▁prometteur	-11.9983
db	-11.9983
▁entretient	-11.9986
▁décent	-11.9986
]	-11.9987
▁attraction	-11.9988
▁aéronef	-11.9988
▁rhétorique	-11.9988
▁company	-11.9989
▁habileté	-11.9989
▁persiste	-11.9989
▁1976	-11.9989
▁sap	-11.9989
▁romains	-11.9992
▁dã	-11.9998
▁irréprochable	-12
▁tampere	-12
▁complication	-12
▁bête	-12
▁œufs	-12.0003
▁éditer	-12.0004
03	-12.0007
dev	-12.0008
56	-12.0012
▁inquiéter	-12.0015
▁fédérales	-12.0017
▁souhaitée	-12.0017
mal	-12.0018
▁menacées	-12.0019
▁ordonné	-12.0022
▁hiérarchie	-12.0022
▁mass	-12.0024
▁débuter	-12.0027
▁bali	-12.0028
ige	-12.003
▁henri	-12.0031
char	-12.0032
▁mensonge	-12.0033
▁bilingue	-12.0035
▁corne	-12.0036
bol	-12.0036
▁émergentes	-12.0039
▁analysé	-12.0039
▁négliger	-12.004
▁jouant	-12.0041
rio	-12.0044
▁coiffure	-12.0045
▁ros	-12.0048
▁combinée	-12.0049
▁voler	-12.0051
▁renouvelé	-12.0053
▁root	-12.0055
▁hockey	-12.0056
▁contradictoires	-12.006
▁habit	-12.006
▁sectorielle	-12.0065
▁communisme	-12.0066
▁hostel	-12.0067
▁plonge	-12.0067
▁générateur	-12.0068
▁invention	-12.0068
jacente	-12.007
▁conclue	-12.0071
▁diversifiée	-12.0072
▁tirés	-12.0073
oud	-12.0074
▁unir	-12.0075
pho	-12.0075
▁750	-12.0077
▁british	-12.0078
get	-12.0084
▁informée	-12.0085
91	-12.0087
29	-12.0091
▁illusion	-12.0092
▁tentation	-12.0092
▁conviendrai	-12.0092
ico	-12.0092
▁artisanale	-12.0094
hn	-12.0096
▁anime	-12.0096
▁fusions	-12.0097
▁subit	-12.0101
▁milosevic	-12.0101
▁mosquée	-12.0101
▁séville	-12.0101
link	-12.0102
▁complétée	-12.0105
▁attaqué	-12.0106
▁éliminé	-12.0108
▁relier	-12.0112
▁challenge	-12.0113
▁1975	-12.0114
▁arriv	-12.0118
97	-12.0121
▁day	-12.0122
▁pp	-12.0122
▁admissibilité	-12.0124
▁cimetière	-12.0124
▁marrakech	-12.0124
▁missionnaire	-12.0125
▁128	-12.0125
▁vétérinaire	-12.0126
▁forcer	-12.0128
▁confiée	-12.0129
lés	-12.0129
▁idé	-12.0129
▁rwanda	-12.0129
▁manqu	-12.013
gli	-12.0131
▁spi	-12.0132
ric	-12.0133
▁citation	-12.0133
▁incitant	-12.0136
▁store	-12.0137
rom	-12.0138
▁stimule	-12.0138
▁correspondre	-12.014
▁berg	-12.0142
▁boy	-12.0143
▁db	-12.0143
▁clonage	-12.0147
▁activée	-12.0147
▁numérisation	-12.0147
▁métrage	-12.015
rn	-12.0156
▁détendez	-12.0158
▁abattage	-12.0158
▁relaxant	-12.0158
ere	-12.0159
▁76	-12.0161
▁texture	-12.0162
cle	-12.0166
▁brown	-12.0169
▁84	-12.017
▁convivialité	-12.017
▁om	-12.0171
▁nova	-12.0175
▁87	-12.0178
▁3000	-12.0178
▁saisisse	-12.018
uv	-12.0183
▁blogs	-12.0188
hof	-12.0189
▁gardien	-12.0192
▁émet	-12.0192
▁basilique	-12.0192
▁directions	-12.0193
▁envois	-12.0197
▁marais	-12.0199
▁jointe	-12.0202
▁pénible	-12.0204
▁générosité	-12.0204
▁libérale	-12.0204
tr	-12.0205
▁indices	-12.0206
anda	-12.0206
▁moniteur	-12.0208
▁scott	-12.0211
▁fire	-12.0214
dh	-12.0215
▁jordanie	-12.0215
▁single	-12.0215
▁bag	-12.0218
▁prononce	-12.0222
▁produis	-12.0225
▁changeant	-12.0228
▁suivra	-12.023
▁trek	-12.023
ui	-12.0232
▁island	-12.0237
▁cacao	-12.0238
▁adversaires	-12.0241
low	-12.0241
▁volcan	-12.0247
▁désirs	-12.0248
▁gang	-12.0252
ffe	-12.0257
pf	-12.0258
vie	-12.0258
▁kw	-12.0261
▁inscrive	-12.0261
▁alliant	-12.0261
▁dar	-12.0261
▁livraisons	-12.0261
▁spécialisation	-12.0263
dite	-12.0264
ret	-12.0265
voyant	-12.0268
form	-12.0272
▁akvis	-12.0273
▁vel	-12.0282
▁choisissent	-12.0287
activité	-12.0289
▁côtière	-12.0291
▁lisse	-12.0291
▁interrompr	-12.0296
▁armé	-12.0296
▁automatisé	-12.0296
▁bourg	-12.0297
▁linéaire	-12.0297
▁poursuive	-12.0298
▁bond	-12.0302
▁devrais	-12.0304
press	-12.0304
▁valorisation	-12.0307
▁optimisme	-12.0307
▁inquiétante	-12.0308
ort	-12.0308
▁signifier	-12.0311
,000	-12.0313
▁observ	-12.0314
▁dns	-12.0315
▁libellé	-12.0319
▁pilotage	-12.0319
▁guérison	-12.0319
▁musicien	-12.032
▁special	-12.0321
▁rentre	-12.0325
win	-12.0327
69	-12.0328
▁soigné	-12.033
▁uranium	-12.033
▁pilule	-12.033
▁thermo	-12.0331
mique	-12.0331
▁gri	-12.0334
▁start	-12.0334
▁eg	-12.0335
pm	-12.0339
▁aspire	-12.0339
▁amie	-12.034
▁addition	-12.0341
▁mali	-12.0341
▁delà	-12.0342
▁boursier	-12.0342
▁prisons	-12.0342
▁pis	-12.0342
▁prétendu	-12.0344
▁achever	-12.0344
▁répandue	-12.0345
gan	-12.0347
heure	-12.0349
▁octroyée	-12.0349
▁évité	-12.0349
▁transmet	-12.0351
▁hé	-12.0351
▁multiple	-12.0352
▁triangle	-12.0354
inématographique	-12.0354
aise	-12.0356
▁souveraine	-12.0356
▁capitaliste	-12.0358
▁prématuré	-12.036
▁excuses	-12.0362
▁certifiés	-12.0365
▁youtube	-12.0365
▁corporel	-12.0366
▁hésite	-12.0366
cm	-12.0378
▁tons	-12.0381
mie	-12.0381
▁instantanée	-12.0382
crtc	-12.0385
▁anna	-12.0385
▁sacrifice	-12.0386
07	-12.0387
▁manuelle	-12.0388
▁vignobles	-12.0389
▁1983	-12.0389
▁1950	-12.0391
▁cc	-12.0392
▁golden	-12.0393
vente	-12.0395
▁immersion	-12.04
▁tramway	-12.04
▁tenai	-12.0404
lly	-12.0405
▁run	-12.0405
▁construits	-12.0405
wan	-12.0409
▁escalier	-12.041
▁pente	-12.0411
▁prérogative	-12.0412
▁zélande	-12.0412
▁délibération	-12.0412
▁prolonge	-12.0413
▁missile	-12.0413
iennes	-12.042
▁occidentales	-12.0422
trop	-12.0423
▁versant	-12.0425
lou	-12.0425
éli	-12.0427
▁centenaire	-12.0435
▁plaisance	-12.0435
▁pâtisserie	-12.0436
▁soignée	-12.0436
▁correctif	-12.0436
▁mag	-12.0436
▁comptai	-12.0436
▁bulle	-12.0439
icité	-12.0442
▁sûres	-12.0443
▁préoccuper	-12.0443
▁gra	-12.0444
73	-12.0445
lab	-12.0445
▁proposera	-12.0449
ites	-12.0449
▁ak	-12.045
odo	-12.0451
▁may	-12.0454
dan	-12.0454
▁accro	-12.0456
39	-12.0456
98	-12.0458
▁rustique	-12.0459
▁kam	-12.0459
▁omission	-12.046
ax	-12.0461
▁enfer	-12.0462
▁taïwan	-12.0462
type	-12.0463
oro	-12.0463
cap	-12.0464
▁prêtre	-12.0465
▁inconnu	-12.0465
▁sahara	-12.0467
ssa	-12.0469
▁démocraties	-12.0472
▁73	-12.0472
▁anticiper	-12.0472
▁adaptateur	-12.0472
chez	-12.0475
vit	-12.0475
92	-12.0477
▁palier	-12.0478
▁loyale	-12.0481
▁dévoile	-12.0481
▁bâton	-12.0481
▁destinataire	-12.0482
▁lumineuse	-12.0482
▁conservateur	-12.0482
ili	-12.0484
23	-12.0486
▁culinaires	-12.0488
▁aille	-12.049
▁débutants	-12.0491
▁tram	-12.0492
▁86	-12.0492
▁rire	-12.0493
▁génériques	-12.0495
▁inuit	-12.0495
mor	-12.0495
▁devenues	-12.0496
▁zo	-12.0498
▁playa	-12.0499
▁porteurs	-12.0501
▁morales	-12.0503
▁aube	-12.0505
▁idéologique	-12.0506
▁graisses	-12.0507
▁syst	-12.0511
▁formateur	-12.0513
▁visuels	-12.0513
▁guidé	-12.0515
serv	-12.0518
▁regrett	-12.0518
gua	-12.0518
▁coureur	-12.0519
û	-12.0519
▁appréciable	-12.052
▁enquêter	-12.0524
▁patch	-12.0526
▁talibans	-12.0526
▁restreinte	-12.0526
▁gérée	-12.0529
els	-12.0529
▁unification	-12.053
▁gravure	-12.053
▁spécialité	-12.0535
▁queen	-12.0538
▁partagés	-12.0539
▁pardon	-12.054
▁médiéval	-12.054
▁implémentation	-12.0541
iale	-12.0542
▁déploie	-12.0543
ware	-12.0546
▁hoc	-12.0546
▁rage	-12.0547
▁tchad	-12.0549
▁gène	-12.0552
▁debout	-12.0553
▁traversée	-12.0555
▁cage	-12.0558
▁auxiliaire	-12.0565
▁playstation	-12.0565
▁gîte	-12.0567
▁book	-12.0571
▁rosa	-12.0572
▁valider	-12.0573
▁xviiie	-12.0573
▁italiennes	-12.0575
▁douanier	-12.0577
▁nuptiale	-12.0577
▁ancêtre	-12.0578
los	-12.0578
▁emprisonné	-12.058
▁amicale	-12.0582
▁cession	-12.0585
pierre	-12.0587
trice	-12.0591
cd	-12.0591
▁flot	-12.0592
▁placez	-12.0592
▁rappelez	-12.0593
▁fonctionnant	-12.0593
terminaux	-12.0593
▁ouvriers	-12.0594
▁83	-12.0595
▁auditeur	-12.0599
▁vibration	-12.0601
▁photoshop	-12.0602
▁doublé	-12.0604
lac	-12.0604
▁rassurer	-12.0604
▁retirée	-12.0607
see	-12.0608
▁istanbul	-12.0613
▁alexander	-12.0613
eng	-12.0615
▁persistante	-12.0616
▁dominé	-12.0621
78	-12.0621
▁amuser	-12.0621
dp	-12.0622
▁respiratoire	-12.0625
▁maj	-12.0625
▁intervienne	-12.0626
▁america	-12.0626
▁reach	-12.0627
▁unit	-12.0631
projet	-12.0632
▁allié	-12.0632
également	-12.0632
vert	-12.0632
▁routeur	-12.0633
▁suggér	-12.0634
▁décid	-12.0634
▁retrouv	-12.0634
▁mariages	-12.0635
▁capitales	-12.0636
▁qualitative	-12.0637
bach	-12.0637
ivité	-12.0641
▁construis	-12.0643
▁aquatiques	-12.0645
▁habituelle	-12.0645
▁imputable	-12.0648
▁visualisation	-12.0649
▁rassemblement	-12.0656
▁exclue	-12.0656
гє	-12.0661
▁essay	-12.0666
▁reproduit	-12.0666
▁arbitre	-12.0672
▁buenos	-12.0672
▁yémen	-12.0672
▁veto	-12.0673
▁meublé	-12.0675
▁fm	-12.0677
▁ferr	-12.0677
▁draps	-12.0677
▁respectueuse	-12.0678
▁attrayante	-12.068
▁robot	-12.0681
▁azerbaïdjan	-12.0684
▁banlieue	-12.0684
▁indubitable	-12.0684
▁reconstruir	-12.0684
▁nokia	-12.0684
▁old	-12.0684
▁mega	-12.0686
illi	-12.0687
▁locations	-12.0688
▁81	-12.0689
▁diffèrent	-12.0689
▁commodité	-12.069
▁vitamines	-12.069
▁désastreuse	-12.0691
▁minoritaires	-12.0691
▁conclut	-12.0695
▁délit	-12.0695
▁constatation	-12.0699
▁gagnante	-12.07
▁radi	-12.07
▁honoré	-12.0702
▁grain	-12.0702
▁acoustique	-12.0702
▁pasteur	-12.0703
▁normales	-12.0703
▁jeton	-12.0706
▁quai	-12.0709
niste	-12.071
▁prostitution	-12.072
▁rectification	-12.072
▁juive	-12.0722
▁update	-12.0724
▁color	-12.0724
▁soigner	-12.0724
▁prié	-12.0728
tou	-12.0729
▁yougoslave	-12.0733
▁gratitude	-12.0733
▁insistance	-12.0733
▁progressiste	-12.0735
▁accueillent	-12.0736
▁fonctionné	-12.0737
▁hortons	-12.0737
▁pareille	-12.0739
▁évêque	-12.0739
▁œuvrer	-12.0741
▁criminelle	-12.0741
▁finalité	-12.0744
rique	-12.0744
▁métropole	-12.0745
▁déduction	-12.0745
▁modulaire	-12.0745
43	-12.0746
▁riad	-12.0747
eta	-12.075
▁soucis	-12.0751
taire	-12.0752
off	-12.0753
ball	-12.0754
veillant	-12.0755
▁records	-12.0755
aille	-12.0756
▁foncier	-12.0757
▁métalliques	-12.0757
▁lavage	-12.0757
▁health	-12.0758
▁banc	-12.0758
▁chercheur	-12.0759
▁portait	-12.0759
▁égyptien	-12.0763
▁collectée	-12.0765
eb	-12.0765
▁discothèque	-12.0769
▁maurice	-12.0769
▁convictions	-12.0771
▁vertes	-12.0772
▁nouvellement	-12.0772
▁présidé	-12.0772
▁kal	-12.0773
▁muni	-12.0774
▁mart	-12.0774
sha	-12.0776
▁équivau	-12.0781
▁ingérence	-12.0781
▁quatorz	-12.0781
▁interprétée	-12.0781
▁couramment	-12.0781
▁connection	-12.0782
▁gage	-12.0788
▁exclusives	-12.0791
▁sarge	-12.0793
▁silencieux	-12.0793
▁oxygène	-12.0793
▁mana	-12.0798
▁elysées	-12.08
▁designer	-12.08
▁soudaine	-12.0801
93	-12.0801
▁dénomination	-12.0805
▁rejoins	-12.0805
▁quantitative	-12.0805
▁avisé	-12.0806
ava	-12.0807
▁zoo	-12.0808
58	-12.0808
▁incitations	-12.0808
stein	-12.0808
▁préoccupant	-12.0811
▁ticket	-12.0815
▁disquette	-12.0817
gou	-12.0817
halifax	-12.0817
▁survivant	-12.0817
▁marchande	-12.0819
nisme	-12.0819
▁administrer	-12.0821
▁musiques	-12.0824
▁vegas	-12.0825
▁mensuelle	-12.0826
▁chevaliers	-12.0827
▁attribue	-12.0828
cp	-12.0829
▁soulignant	-12.083
▁collecter	-12.0831
▁relâche	-12.0837
▁embarquement	-12.0837
▁89	-12.0839
ute	-12.084
▁commercialisé	-12.084
▁garant	-12.084
/2002	-12.0842
▁contraignantes	-12.0842
awa	-12.0843
▁traits	-12.0846
▁inform	-12.0847
▁abonnés	-12.0847
▁tubes	-12.0847
▁cho	-12.0849
▁bite	-12.085
▁mario	-12.085
▁primaires	-12.0851
▁donnés	-12.0851
uit	-12.0854
▁protecteur	-12.0855
▁excuser	-12.0859
▁confiant	-12.086
▁nés	-12.086
▁assise	-12.0863
▁chaise	-12.0865
▁marines	-12.0865
▁virtual	-12.0867
▁brute	-12.0869
▁retraites	-12.087
▁concurrent	-12.087
▁vigilan	-12.0873
▁perdue	-12.0873
▁good	-12.0874
▁exposée	-12.0875
▁poursuivie	-12.0877
▁attentat	-12.0878
▁berne	-12.0878
▁chicago	-12.0879
atif	-12.0879
oto	-12.0881
▁inauguré	-12.0881
▁descendant	-12.0887
▁anticipée	-12.0888
▁progresse	-12.0889
▁interrogation	-12.0891
▁systémique	-12.0891
▁eurostat	-12.0893
▁colomb	-12.0893
▁reproche	-12.0896
▁rebelles	-12.0898
▁conjoncture	-12.0901
▁kurde	-12.0902
▁commanditaire	-12.0903
▁consortium	-12.0903
▁communistes	-12.0903
▁encouragée	-12.0903
▁négociateur	-12.0904
▁metro	-12.0905
▁recensement	-12.0908
▁facto	-12.091
▁lésion	-12.0912
▁répétée	-12.0913
▁investit	-12.0913
▁chris	-12.0914
▁bénédiction	-12.0915
▁préjugé	-12.0915
▁archipel	-12.0915
62	-12.0915
▁courtoisie	-12.0916
quin	-12.0921
▁produira	-12.0924
▁employ	-12.0927
▁batt	-12.0929
▁conduira	-12.0931
▁ide	-12.0932
yo	-12.0933
▁tombée	-12.0933
ander	-12.0936
▁basses	-12.0936
▁soeur	-12.0937
▁vita	-12.0938
▁hor	-12.0938
▁canadian	-12.094
▁matelas	-12.094
▁gaspillage	-12.094
▁fiction	-12.0941
▁publicités	-12.0941
▁1967	-12.0942
▁chanteuse	-12.0942
▁2014	-12.0944
▁pf	-12.0944
▁estimer	-12.0945
▁épuisé	-12.0947
over	-12.0948
▁endommagé	-12.0948
▁bridge	-12.095
▁albums	-12.0951
▁transférée	-12.0951
▁viêt	-12.0952
▁rencontr	-12.0953
▁investisseur	-12.0953
ifiant	-12.0955
dom	-12.0956
▁divise	-12.0959
▁embauche	-12.0959
world	-12.096
▁songe	-12.0961
▁québécoise	-12.0962
honnêteté	-12.0962
▁creuse	-12.0964
▁gentil	-12.0966
▁dixième	-12.0967
tm	-12.0967
▁monténégro	-12.0967
▁chatte	-12.0968
▁té	-12.097
▁partisan	-12.0971
▁minime	-12.0971
▁brésilien	-12.0971
conf	-12.0976
▁architectural	-12.0977
▁kilomètre	-12.0977
▁saumon	-12.0978
▁posté	-12.0979
▁wild	-12.0979
▁malheur	-12.0979
▁alain	-12.098
discrimination	-12.0985
▁hal	-12.0986
key	-12.0986
▁augmentera	-12.0986
▁hypocrisie	-12.0989
▁globales	-12.099
▁corrigés	-12.099
▁garni	-12.0991
▁noirs	-12.0992
▁verdoyant	-12.0992
▁food	-12.0994
▁exploit	-12.0994
▁batteries	-12.0995
vy	-12.0996
▁gt	-12.0997
▁lou	-12.0998
cio	-12.0999
fp	-12.1
▁invalidité	-12.1002
bal	-12.1002
▁patinage	-12.1002
▁neuro	-12.1003
▁mien	-12.1005
89	-12.1007
▁teinte	-12.1008
▁supposé	-12.1009
▁brillante	-12.1009
igne	-12.1013
▁ontarien	-12.1013
europe	-12.1014
▁bangladesh	-12.1014
▁dense	-12.1016
▁full	-12.1017
mbre	-12.1025
▁garantisson	-12.1026
▁subsistance	-12.1027
▁priori	-12.1027
ize	-12.1029
kar	-12.103
▁mènera	-12.1034
▁comble	-12.1035
aya	-12.1036
▁jun	-12.1036
▁glisse	-12.1036
▁frustration	-12.1039
▁halieutique	-12.1039
▁traîne	-12.1039
▁research	-12.1039
vet	-12.1041
▁fascinant	-12.1041
▁vents	-12.1043
cou	-12.1044
▁influencé	-12.1047
▁douter	-12.1048
house	-12.1051
▁écossais	-12.1051
▁anomalie	-12.1051
▁modélisation	-12.1051
▁cambridge	-12.1051
▁accumulé	-12.1053
imo	-12.1055
▁entrera	-12.1057
▁réfléchi	-12.1057
72	-12.1058
▁contaminé	-12.106
ove	-12.106
▁tibétain	-12.1063
▁college	-12.1064
▁ép	-12.1065
cule	-12.1066
etc	-12.1066
▁abusive	-12.1067
▁aventures	-12.1069
parleur	-12.1069
▁beta	-12.1073
hé	-12.1076
▁combustion	-12.1076
▁regroupa	-12.1077
▁fem	-12.1078
▁perdus	-12.1079
bon	-12.1081
▁rangée	-12.1081
▁réunies	-12.1085
▁sound	-12.1085
▁empereur	-12.1089
▁safari	-12.1089
▁étroits	-12.1089
▁éclairée	-12.1091
▁erroné	-12.1091
▁serviteur	-12.1091
▁loger	-12.1091
▁equipement	-12.1091
▁mugab	-12.1094
▁artificiel	-12.1094
▁ontarienne	-12.1096
▁nets	-12.1097
ele	-12.1102
▁profitable	-12.1108
▁infecté	-12.1112
▁142	-12.1112
▁marocain	-12.1113
▁exprim	-12.1114
▁renom	-12.1115
▁plasma	-12.1115
▁assistants	-12.1119
▁diplômes	-12.1122
mou	-12.1122
ières	-12.1122
▁usée	-12.1125
▁horrible	-12.1126
▁stimulation	-12.1126
▁baignade	-12.1126
▁barack	-12.1128
▁humide	-12.113
▁aquatique	-12.1131
▁candidatures	-12.1131
▁étudiée	-12.1133
▁instauré	-12.1136
▁associa	-12.1137
▁offensive	-12.1139
▁récepteur	-12.1139
▁conçoi	-12.1139
▁réexaminer	-12.1142
▁use	-12.1148
▁estivale	-12.115
▁attractif	-12.1152
▁ham	-12.1154
▁chauffeur	-12.1157
▁woody	-12.1158
▁épargner	-12.1161
▁apprécient	-12.1161
▁immatriculation	-12.1164
▁kinnock	-12.1164
▁affiliation	-12.1164
▁program	-12.1167
▁boue	-12.117
▁interfaces	-12.1171
▁canaries	-12.1171
anne	-12.1173
nat	-12.1174
▁catégorique	-12.1177
éno	-12.1177
▁honoraire	-12.1178
▁épi	-12.1178
▁mouton	-12.1179
▁plonger	-12.118
▁chutes	-12.1181
▁paru	-12.1181
▁bords	-12.1181
zen	-12.1183
▁assurons	-12.1183
▁influent	-12.1183
laurent	-12.1185
▁vari	-12.1185
▁blonde	-12.1187
▁jadi	-12.1189
▁munie	-12.1189
▁nota	-12.1193
▁inspecteurs	-12.1195
54	-12.1197
▁litres	-12.1197
▁claude	-12.1198
▁ajouterai	-12.1199
▁jouez	-12.12
84	-12.12
▁ah	-12.12
▁merveilles	-12.1201
jour	-12.1202
▁apéritif	-12.1202
▁esclavage	-12.1202
▁albanais	-12.1202
▁cruelle	-12.1203
▁1974	-12.1203
▁scc	-12.1204
▁arcade	-12.1205
▁annulée	-12.1206
▁prendron	-12.1207
illes	-12.1208
▁prétendent	-12.1209
▁partagées	-12.1212
▁170	-12.1213
tina	-12.1213
▁boot	-12.1214
▁versements	-12.1215
▁photographes	-12.1216
▁trio	-12.1216
▁écoulé	-12.1217
▁5000	-12.122
▁avg	-12.122
▁olivier	-12.1221
▁noble	-12.1222
▁arrivera	-12.1225
▁dedans	-12.1225
▁pou	-12.1225
▁assurera	-12.1228
fl	-12.1229
arc	-12.123
▁divertissements	-12.123
▁tarifaires	-12.1231
▁suffira	-12.1233
06	-12.1233
▁traduise	-12.1234
▁structurée	-12.1234
▁aisée	-12.1237
kov	-12.124
gin	-12.1242
▁savon	-12.1242
code	-12.1242
▁nomme	-12.1244
▁autrichien	-12.1244
▁familia	-12.1245
▁intelligents	-12.1245
▁cookie	-12.1247
▁porteur	-12.125
/10	-12.1252
▁novotel	-12.1253
▁exchange	-12.1253
▁genou	-12.1257
▁ot	-12.1257
▁centralisée	-12.1259
▁autochtone	-12.126
▁ressortir	-12.1262
▁compétitions	-12.1263
:	-12.1263
▁twitter	-12.1265
▁onusida	-12.1266
▁champignon	-12.1266
▁contourner	-12.1266
▁courtes	-12.1266
▁choisissa	-12.1267
▁avouer	-12.1267
ben	-12.1268
▁conservant	-12.1269
but	-12.127
▁additionnel	-12.127
▁chercha	-12.127
▁juif	-12.1274
nov	-12.1275
▁bombes	-12.1275
▁conveni	-12.1275
▁assassiné	-12.1276
▁discrète	-12.1278
▁invalide	-12.1278
▁ozone	-12.1279
▁faisabilité	-12.128
▁facilitant	-12.1282
pha	-12.1285
▁fermés	-12.1286
▁voterai	-12.1286
lt	-12.1288
▁durs	-12.129
▁intolérable	-12.1291
▁chimie	-12.1291
▁humour	-12.1291
▁jumeaux	-12.1291
▁dentiste	-12.1291
▁mentalité	-12.1292
▁kurdes	-12.1293
cre	-12.1293
▁inclusive	-12.1294
▁illustrer	-12.1294
▁réussit	-12.1294
▁patte	-12.1295
▁impos	-12.1299
▁hans	-12.13
▁échouer	-12.1301
▁horizons	-12.1304
▁évacuation	-12.1304
▁télécopieur	-12.1305
zer	-12.1306
▁aménagée	-12.1308
▁délibérément	-12.131
▁ib	-12.1312
▁flagrante	-12.1316
▁plaisirs	-12.1317
▁taxis	-12.1318
▁herbe	-12.1321
▁groupement	-12.1321
▁vides	-12.1321
▁optimiste	-12.1326
▁bicyclette	-12.1329
▁manufacturier	-12.1329
▁refroidissement	-12.1329
000	-12.133
▁contrer	-12.133
▁atomique	-12.133
▁dévouement	-12.1331
▁combinant	-12.1331
hal	-12.1333
▁réclamé	-12.1335
▁protégea	-12.134
▁mos	-12.1344
stat	-12.1346
och	-12.1346
▁demandées	-12.1346
▁proie	-12.1347
▁clip	-12.1348
marquis	-12.1351
▁thermale	-12.1352
chant	-12.1354
▁écarter	-12.1355
▁abbaye	-12.1355
hman	-12.1356
phone	-12.1356
▁significatives	-12.1359
▁incorporer	-12.1359
▁diffère	-12.1363
▁lève	-12.1364
hen	-12.1364
▁sho	-12.1367
▁polonaise	-12.1368
▁1973	-12.1369
▁survenue	-12.137
▁payez	-12.1372
▁inconnue	-12.1373
/3	-12.1374
▁distribue	-12.1379
▁renonce	-12.138
▁minière	-12.138
▁orphelin	-12.138
▁baby	-12.1383
▁concentrée	-12.1383
▁nav	-12.1386
sim	-12.1386
grad	-12.1391
ij	-12.1392
▁commettre	-12.1395
▁str	-12.1397
▁roma	-12.1397
ash	-12.1398
▁stop	-12.1399
▁portera	-12.1399
lier	-12.14
▁remplies	-12.14
▁marée	-12.1404
pat	-12.1404
▁steve	-12.1406
▁abondante	-12.1407
▁précédant	-12.1408
▁lille	-12.1409
uck	-12.141
map	-12.1411
▁organique	-12.1418
▁night	-12.1419
▁empêcha	-12.142
▁représentatif	-12.142
▁arômes	-12.1421
ève	-12.1422
▁oeufs	-12.1424
▁conf	-12.1424
phy	-12.1427
mag	-12.1428
▁tro	-12.143
américain	-12.143
▁sauter	-12.1431
▁emblématique	-12.1432
▁refonte	-12.1432
▁télécommande	-12.1432
▁folie	-12.1433
▁94	-12.1434
▁lie	-12.1436
▁délivrer	-12.1437
▁pratiquée	-12.1438
▁reer	-12.1439
▁shop	-12.1439
79	-12.1439
▁déroulera	-12.1442
▁boule	-12.1444
rac	-12.1445
▁embryon	-12.1445
▁contingent	-12.1445
▁mozilla	-12.1445
▁éminent	-12.1446
▁maigre	-12.1447
sti	-12.1449
▁pers	-12.145
▁bilatéral	-12.1451
▁rente	-12.1452
▁exclut	-12.1452
▁1.1	-12.1454
▁more	-12.1455
▁cuite	-12.1456
dame	-12.1457
▁eucharistie	-12.1458
▁lis	-12.146
▁déplorable	-12.146
▁aviser	-12.1462
▁museum	-12.1462
▁adapt	-12.1464
▁mandats	-12.1467
▁appréciée	-12.1467
▁spécifie	-12.1468
▁périodiquement	-12.1469
▁prudente	-12.147
▁vignoble	-12.1471
▁apres	-12.1471
▁métallique	-12.1471
▁réticence	-12.1471
▁palacio	-12.1471
▁élue	-12.1473
▁francs	-12.1473
▁space	-12.1475
dit	-12.1476
▁tal	-12.1477
▁terra	-12.1478
▁finis	-12.1481
▁cessent	-12.1481
▁pins	-12.1482
▁shell	-12.1484
▁gp	-12.1484
▁équitation	-12.1484
▁airways	-12.1484
▁pseudo	-12.1484
▁salariale	-12.1486
quel	-12.1487
▁antoine	-12.1487
▁résidentielle	-12.1489
▁censée	-12.1489
▁correctionnel	-12.1494
▁examinera	-12.1496
▁poésie	-12.1497
▁intrinsèque	-12.1497
▁radicaux	-12.1497
▁savoureux	-12.1497
▁coloniale	-12.1498
▁fournitures	-12.15
ibilité	-12.1501
eken	-12.1502
club	-12.1507
day	-12.1507
▁antonio	-12.1511
▁globaux	-12.1511
▁toits	-12.1511
▁fix	-12.1512
▁chroniques	-12.1513
▁fair	-12.1513
jan	-12.1513
ray	-12.1518
▁ker	-12.1519
▁illimitée	-12.1519
▁bec	-12.1519
▁divin	-12.152
▁sex	-12.1522
▁process	-12.1522
▁ry	-12.1523
▁blanches	-12.1523
tie	-12.1523
▁conservatoire	-12.1523
▁novatrices	-12.1525
▁déboucher	-12.1527
ius	-12.1527
▁psp	-12.1529
▁développant	-12.1529
▁ressentir	-12.153
▁curriculum	-12.1536
▁désavantage	-12.1536
▁travel	-12.1537
▁1977	-12.1538
▁soucieux	-12.1538
▁réfugié	-12.1539
▁recevron	-12.1539
▁réponde	-12.1542
▁déclarant	-12.1544
tez	-12.1546
▁chargeur	-12.1546
▁attacher	-12.1547
ache	-12.1548
▁démarré	-12.155
▁territoriaux	-12.155
ope	-12.1551
▁bénéfiques	-12.1552
cur	-12.1554
nos	-12.1557
▁abattu	-12.156
▁wald	-12.156
81	-12.1561
▁suppos	-12.1562
▁préférée	-12.1562
▁abondance	-12.1563
▁clinton	-12.1563
web	-12.1563
▁supposer	-12.1564
▁grace	-12.1565
▁remplis	-12.1567
▁ef	-12.1568
▁partagez	-12.1571
▁bet	-12.1573
▁extensions	-12.1573
57	-12.1573
uch	-12.1574
▁comprendra	-12.1575
▁access	-12.1575
▁praticien	-12.1576
nny	-12.1576
iya	-12.1577
▁tam	-12.1581
▁champions	-12.1582
▁conviendra	-12.1583
▁roc	-12.1584
▁fui	-12.1584
▁pla	-12.1584
▁diffuse	-12.1584
▁oppression	-12.1589
▁abonner	-12.159
▁modérée	-12.1592
▁fragiles	-12.1592
▁protestation	-12.1592
▁favori	-12.1594
▁rer	-12.1594
▁ie	-12.1596
omm	-12.1598
uel	-12.16
ago	-12.1601
▁bénévolat	-12.1602
▁chuté	-12.1603
▁préoccupé	-12.1604
▁créatif	-12.1605
▁strat	-12.1607
▁renforcées	-12.1608
▁pluri	-12.1609
▁résidences	-12.1611
iano	-12.1614
▁exécutive	-12.1615
▁chocs	-12.1616
gri	-12.1616
▁1945	-12.1617
▁réunissa	-12.1617
▁nuisibles	-12.1618
▁parcouru	-12.162
▁publi	-12.162
▁essaim	-12.1621
ges	-12.1622
rt	-12.1623
▁caché	-12.1624
parcours	-12.1625
▁habite	-12.1627
▁attel	-12.1627
▁salué	-12.1628
▁conférer	-12.1628
▁fonctionnera	-12.1629
nan	-12.1631
▁1.2	-12.1632
▁atmosphérique	-12.1632
▁téléchargements	-12.1637
▁ventilation	-12.1642
▁séduit	-12.1642
▁grenade	-12.1642
▁centrée	-12.1642
▁entendue	-12.1644
▁soupçon	-12.1644
▁carlos	-12.1649
fu	-12.165
gis	-12.1651
huit	-12.1651
iti	-12.1653
incompréhensible	-12.1655
▁fatigue	-12.1655
▁mettron	-12.1656
▁renforcera	-12.1656
▁promener	-12.1657
▁tur	-12.1658
▁tat	-12.1658
▁ranger	-12.1659
▁composite	-12.1663
▁partent	-12.1663
▁gil	-12.1663
▁wiki	-12.1666
mond	-12.1668
▁cédérom	-12.1668
▁hospitalier	-12.1669
▁descriptions	-12.1671
uté	-12.1672
iner	-12.1673
▁voisine	-12.1673
▁tony	-12.1675
hir	-12.168
coup	-12.1684
▁avantageuse	-12.1689
▁gui	-12.1689
action	-12.1689
▁enrichissement	-12.169
▁jouera	-12.169
▁connectez	-12.1692
▁apparaîtra	-12.1695
▁rachat	-12.1695
▁prescriptions	-12.1698
▁historien	-12.17
▁régisse	-12.1704
▁pêches	-12.1704
▁contrôlées	-12.1704
▁goutte	-12.1705
▁affirma	-12.1705
▁dévoilé	-12.1708
▁alba	-12.1709
▁observateur	-12.1714
▁franche	-12.1714
▁sceau	-12.1717
51	-12.1719
▁instants	-12.1721
▁gazoduc	-12.1721
▁stagiaire	-12.1721
▁hostilité	-12.1721
▁pivot	-12.1721
▁irakienne	-12.1723
▁insectes	-12.1723
dm	-12.1725
▁interlocuteur	-12.1727
▁déclar	-12.1731
▁prêtes	-12.1733
park	-12.1736
doc	-12.1737
▁games	-12.1739
oraux	-12.174
▁marquant	-12.174
▁visionner	-12.1742
▁vende	-12.1744
▁value	-12.1744
▁vaincre	-12.1748
/2003	-12.1748
42	-12.175
▁inhérent	-12.175
74	-12.1754
▁vitamine	-12.1755
▁gor	-12.1756
▁1930	-12.1757
▁core	-12.1757
▁implanté	-12.1758
▁3,5	-12.1759
▁municipa	-12.1759
▁varsovie	-12.1761
▁residence	-12.1761
▁articulation	-12.1761
▁bail	-12.1762
▁paye	-12.1762
aba	-12.1764
▁restaurée	-12.1766
aj	-12.1767
ode	-12.1768
▁angeles	-12.1769
▁erronée	-12.1773
▁compassion	-12.1775
▁yahoo	-12.1775
▁joe	-12.1775
▁rituel	-12.1776
▁corrige	-12.1778
iff	-12.1778
▁débutant	-12.1782
▁dénoncé	-12.1788
▁pizza	-12.1788
▁matrice	-12.1789
▁organiques	-12.179
▁poutre	-12.1791
gor	-12.1791
▁agitation	-12.1791
▁réunisse	-12.1793
▁accuse	-12.1795
▁temp	-12.1798
ila	-12.1798
▁ferez	-12.1799
ua	-12.18
▁bluetooth	-12.1802
▁bungalow	-12.1802
▁évangile	-12.1802
▁bolivie	-12.1802
▁expliquant	-12.1804
▁mira	-12.1808
▁secrète	-12.181
▁91	-12.1812
▁shanghai	-12.1815
▁détecté	-12.1817
▁fermier	-12.1817
▁vivez	-12.1818
▁allouer	-12.1819
court	-12.1819
▁aimeriez	-12.1821
▁fluide	-12.1824
▁écosystème	-12.1824
▁ange	-12.1824
▁assortie	-12.1825
▁ix	-12.1825
fumeur	-12.1827
▁éligibles	-12.1828
▁alphabétisation	-12.1829
▁bru	-12.1829
▁rica	-12.1832
▁portuaires	-12.1833
▁népal	-12.1835
yc	-12.1837
▁tac	-12.1841
▁serré	-12.1847
ça	-12.1848
400	-12.1848
▁alternatifs	-12.1851
▁rompu	-12.1852
stitu	-12.1855
▁baleine	-12.1855
▁edward	-12.1856
▁commencement	-12.1858
▁soulager	-12.1861
▁over	-12.1861
▁reproduise	-12.1861
.10	-12.1862
▁diviser	-12.1863
▁jalon	-12.1864
html	-12.1865
▁stra	-12.1867
▁chaine	-12.1868
▁créatures	-12.1868
▁couture	-12.187
▁nas	-12.187
▁spatial	-12.1871
▁hip	-12.1873
▁ouvrira	-12.1874
▁contemporains	-12.1875
nor	-12.1877
▁accept	-12.1877
ude	-12.1878
▁bouger	-12.1878
▁ascension	-12.1882
▁testament	-12.1883
▁baltes	-12.1883
▁francis	-12.1884
▁recharge	-12.1884
▁disparaît	-12.1885
▁autocar	-12.1885
▁river	-12.1886
jet	-12.1891
▁garçon	-12.1893
▁débattue	-12.1895
▁biomasse	-12.1896
▁maintienne	-12.1898
▁inculpé	-12.1898
ingen	-12.1898
▁désespéré	-12.1899
:4	-12.1899
ito	-12.19
▁convenue	-12.19
▁courageuse	-12.1906
▁intenses	-12.1908
▁migrations	-12.1908
▁agressive	-12.191
▁allégement	-12.191
▁boeuf	-12.191
▁tactile	-12.191
▁manutention	-12.191
▁miami	-12.191
▁pacifiques	-12.1914
▁levé	-12.1915
enberg	-12.1916
▁opportune	-12.1916
▁égales	-12.1917
vingt	-12.1918
▁zi	-12.1919
▁mann	-12.1921
▁achevée	-12.1922
§	-12.1923
„	-12.1923
▁civique	-12.1923
▁calibre	-12.1923
▁lind	-12.1924
▁tarifa	-12.1925
▁controversé	-12.1926
▁naît	-12.1926
▁mare	-12.1931
▁violon	-12.1932
▁suicide	-12.1934
▁afflu	-12.1935
▁prier	-12.1935
▁roulement	-12.1937
bou	-12.1937
ett	-12.1938
nçant	-12.1944
▁télévisée	-12.1945
▁constructions	-12.1946
▁polio	-12.1949
▁andrew	-12.1951
▁localement	-12.1953
-3	-12.1954
▁devenant	-12.196
nette	-12.1962
▁escompté	-12.1962
▁authentiques	-12.1964
▁catalogne	-12.1964
ît	-12.1965
▁carlo	-12.1967
▁regardant	-12.1968
▁produisant	-12.1971
▁tapez	-12.1973
▁protestations	-12.1975
san	-12.1976
rp	-12.1977
▁adepte	-12.1978
▁lodge	-12.1978
▁inventé	-12.1978
▁progress	-12.1981
▁2.2	-12.1983
▁délices	-12.1985
ring	-12.1985
▁incorporé	-12.1987
ii	-12.1989
▁incarne	-12.1989
▁dessinée	-12.199
▁ape	-12.199
oï	-12.1993
▁pipe	-12.1994
nière	-12.1995
▁confidentiels	-12.1997
▁surprises	-12.1997
▁déterminante	-12.1998
▁cordes	-12.2
▁scr	-12.2001
▁gé	-12.2004
▁garer	-12.2005
▁spring	-12.2005
▁illustré	-12.2008
sif	-12.2009
▁espagnoles	-12.2013
illo	-12.2016
oboda	-12.2017
▁distribu	-12.2018
▁sauvé	-12.2019
▁contraceptif	-12.2019
▁routine	-12.2019
▁motogp	-12.2019
▁aimeri	-12.202
▁soumett	-12.2021
▁pouce	-12.2021
▁déclencher	-12.2021
▁patrie	-12.2024
▁détruits	-12.2026
▁mpeg	-12.2033
▁bilatérale	-12.2034
nic	-12.2039
▁rude	-12.2044
▁mémorable	-12.2046
▁bouclier	-12.2046
▁exil	-12.2046
▁accessoire	-12.2047
ysfonctionnement	-12.2048
▁chiffrement	-12.205
zy	-12.2054
well	-12.2055
▁merveille	-12.2058
▁tropicales	-12.2058
▁earth	-12.206
▁imagin	-12.2061
▁convenablement	-12.2062
▁corse	-12.2062
▁dérouler	-12.2063
▁compliquée	-12.2065
▁designers	-12.2068
▁with	-12.2069
▁allemandes	-12.207
yougoslavie	-12.2071
▁savait	-12.2071
êt	-12.2074
▁manuscrit	-12.2074
▁somptueux	-12.2074
▁érosion	-12.2074
▁simplifie	-12.2074
▁brune	-12.2075
▁suppl	-12.2076
rel	-12.2077
▁mexicain	-12.2077
▁commença	-12.2079
pour	-12.2083
▁réaffirmer	-12.2086
▁hydrogène	-12.2088
▁intensification	-12.2088
▁fernand	-12.2088
▁proactive	-12.2088
▁préservée	-12.2091
▁noires	-12.2098
▁poêle	-12.2102
▁kayak	-12.2102
hor	-12.2102
▁merkel	-12.2103
marine	-12.2109
▁compar	-12.211
▁précède	-12.2112
▁mondialement	-12.2113
▁pompes	-12.2115
[...]
